<unk>	0
<s>	0
</s>	0
▁	-3.41063
,	-3.72767
▁the	-3.82344
.	-3.83203
▁of	-4.35847
▁"	-4.41735
1	-4.4926
▁and	-4.5775
▁to	-4.62258
▁.	-4.62544
s	-4.66353
0	-4.67053
▁이	-4.72233
▁a	-4.72772
▁는	-4.79692
2	-4.80783
▁을	-4.82631
▁in	-4.85256
▁다	-4.93121
▁의	-5.04707
."	-5.14252
▁에	-5.14312
▁하	-5.18916
-	-5.18928
'	-5.23248
▁(	-5.24011
9	-5.3558
▁은	-5.37486
▁를	-5.39132
3	-5.40246
▁고	-5.41502
▁,	-5.4442
▁is	-5.50113
5	-5.52054
▁that	-5.53833
4	-5.5855
▁for	-5.65937
▁있	-5.67589
▁가	-5.68862
8	-5.70977
▁한	-5.73686
6	-5.75783
▁was	-5.78619
7	-5.81955
▁with	-5.87531
▁으로	-5.91089
▁The	-5.9354
▁on	-5.94481
)	-5.975
▁as	-6.0517
▁I	-6.05823
▁에서	-6.09048
▁you	-6.10249
▁들	-6.11221
▁-	-6.11329
▁it	-6.14175
▁도	-6.15278
▁by	-6.1614
t	-6.18171
▁로	-6.19694
▁be	-6.20291
▁했	-6.22258
▁과	-6.28321
▁)	-6.30198
▁것	-6.3031
▁at	-6.33162
"	-6.37287
▁are	-6.38957
▁from	-6.40077
?"	-6.42253
▁적	-6.43854
▁an	-6.44563
▁or	-6.49461
▁not	-6.51699
I	-6.5351
▁일	-6.55279
▁수	-6.56841
▁this	-6.58544
▁등	-6.58858
▁he	-6.58865
d	-6.60459
▁기	-6.61187
▁his	-6.63373
▁인	-6.6402
▁have	-6.6402
▁'	-6.64903
▁지	-6.65493
▁와	-6.66001
▁되	-6.69817
▁게	-6.73968
▁해	-6.74461
▁할	-6.76801
▁“	-6.77538
▁were	-6.80014
▁which	-6.85285
▁In	-6.87756
▁만	-6.91343
▁어	-6.92298
:	-6.92367
▁년	-6.93404
ing	-6.95796
▁had	-6.95941
▁A	-6.9892
▁her	-7.02402
▁can	-7.03622
▁we	-7.06541
’	-7.06558
▁‘	-7.06843
▁has	-7.06997
m	-7.09622
▁었	-7.09921
▁but	-7.0997
ed	-7.11774
▁one	-7.12317
▁me	-7.16924
▁그	-7.17222
!"	-7.18
▁’	-7.18428
;	-7.18748
▁며	-7.19468
▁all	-7.20853
re	-7.22042
▁will	-7.22067
▁been	-7.24511
▁”	-7.2469
▁면	-7.25871
▁they	-7.26822
▁원	-7.27784
▁their	-7.29994
▁않	-7.3074
e	-7.31183
S	-7.34241
▁된	-7.3455
▁·	-7.35201
a	-7.3693
▁한다	-7.37579
▁out	-7.38081
/	-7.38252
▁my	-7.39184
▁말	-7.39722
▁월	-7.40249
▁she	-7.41572
▁He	-7.42176
▁also	-7.42335
▁more	-7.42908
▁about	-7.43069
▁대	-7.44126
).	-7.44446
▁up	-7.44834
▁time	-7.44918
▁would	-7.45266
▁#	-7.46278
▁who	-7.47505
▁do	-7.48203
▁아	-7.48756
▁him	-7.49225
▁여	-7.49232
▁no	-7.49291
▁나	-7.49962
▁없	-7.50253
▁other	-7.50687
▁습니다	-7.50781
▁so	-7.51749
▁into	-7.51812
▁there	-7.52273
▁성	-7.5333
▁when	-7.53347
),	-7.53439
▁시	-7.5428
▁명	-7.54599
▁It	-7.54995
You	-7.55714
▁주	-7.5576
▁까지	-7.56575
▁your	-7.56593
자	-7.58298
ly	-7.58383
▁중	-7.59037
▁its	-7.59807
▁전	-7.60841
▁first	-7.61581
▁two	-7.6183
▁what	-7.621
▁such	-7.62123
▁said	-7.63754
▁s	-7.64523
▁like	-7.65581
▁보	-7.66711
▁if	-7.67379
▁%	-7.68197
▁받	-7.6827
▁than	-7.68318
▁may	-7.6836
er	-7.68875
▁던	-7.69204
▁S	-7.72092
▁에게	-7.72499
▁및	-7.72607
▁over	-7.73229
▁This	-7.76146
지	-7.7654
▁지만	-7.7655
▁자	-7.77206
y	-7.77544
▁화	-7.7793
▁know	-7.77993
▁대한	-7.78005
▁only	-7.78273
▁after	-7.79505
A	-7.79601
▁개	-7.80144
▁면서	-7.8176
▁them	-7.81976
▁de	-7.82272
▁just	-7.83132
▁내	-7.83533
▁these	-7.84004
▁제	-7.86333
▁could	-7.86664
n	-7.86771
▁지역	-7.86896
▁between	-7.87051
▁[	-7.87777
▁았	-7.8868
ll	-7.89279
▁다는	-7.89442
▁some	-7.90422
▁라고	-7.90738
리	-7.90798
_	-7.91048
in	-7.92638
▁We	-7.93194
▁다고	-7.93233
(	-7.93613
▁됐	-7.94473
▁any	-7.94513
▁위해	-7.94552
▁used	-7.94837
C	-7.95061
▁부터	-7.96326
The	-7.96856
기	-7.96902
▁U	-7.97098
▁then	-7.9865
▁C	-7.98731
i	-7.98862
▁don	-7.98906
▁–	-7.99011
,"	-7.99071
▁같	-7.99117
]	-7.99974
▁억	-7.99991
서	-8.0041
▁안	-8.00579
▁right	-8.00703
▁back	-8.00797
▁did	-8.00801
▁우리	-8.01694
▁된다	-8.02155
ve	-8.02437
▁B	-8.02578
▁get	-8.02635
th	-8.02691
▁사업	-8.03116
▁F	-8.03259
히	-8.03301
▁한국	-8.03301
o	-8.03428
▁때	-8.04297
▁here	-8.04621
▁through	-8.05183
▁P	-8.05587
▁v	-8.05601
이	-8.05627
▁지난	-8.06048
–	-8.06059
▁_	-8.06672
▁where	-8.06805
?	-8.07484
▁our	-8.07554
▁겠	-8.08435
▁new	-8.0916
▁under	-8.09486
▁well	-8.09885
▁라는	-8.10035
▁court	-8.10775
%	-8.10889
It	-8.10962
▁통해	-8.11125
▁더	-8.11187
▁라	-8.11285
▁사람	-8.11711
..."	-8.11963
▁사	-8.12451
▁now	-8.13296
x	-8.13401
What	-8.13736
▁비	-8.13944
▁use	-8.13944
▁made	-8.14817
▁because	-8.15563
▁될	-8.16227
▁오	-8.16291
▁많	-8.17128
▁people	-8.17415
...	-8.17423
▁years	-8.17639
▁go	-8.18456
▁때문	-8.18471
▁경우	-8.18981
▁before	-8.19453
▁보다	-8.1989
▁see	-8.20031
▁아니	-8.20114
es	-8.20222
▁시장	-8.21493
▁D	-8.22332
g	-8.22454
al	-8.2259
▁She	-8.23712
▁during	-8.24458
▁most	-8.24724
▁기업	-8.25338
▁both	-8.2547
r	-8.2557
b	-8.26087
▁being	-8.27178
▁:	-8.2849
▁system	-8.28562
▁문제	-8.28732
▁권	-8.28915
▁high	-8.29065
▁두	-8.29247
사	-8.29372
▁지원	-8.29546
▁down	-8.29665
▁시간	-8.29768
▁사용	-8.3027
▁way	-8.30696
▁T	-8.30909
▁이번	-8.31235
▁how	-8.3135
▁함께	-8.31531
▁씨	-8.31589
인	-8.31811
▁case	-8.32585
▁또	-8.32698
▁서	-8.32806
▁each	-8.33163
▁간	-8.33202
D	-8.33345
c	-8.33588
▁위	-8.33621
or	-8.3446
▁위한	-8.34549
▁three	-8.34561
▁even	-8.35246
▁정부	-8.35355
▁work	-8.35475
▁차	-8.35653
▁밝혔	-8.35845
We	-8.35916
▁should	-8.36354
▁those	-8.364
▁make	-8.36704
▁No	-8.36809
▁patients	-8.36905
▁data	-8.37048
▁교육	-8.37157
▁R	-8.37323
▁도록	-8.37651
▁가능	-8.3773
▁는데	-8.37768
도	-8.38205
▁think	-8.38222
▁좋	-8.38238
스	-8.38371
▁M	-8.39068
장	-8.39255
▁$	-8.39486
▁As	-8.39497
▁against	-8.39783
▁found	-8.39829
▁였	-8.39989
▁want	-8.40009
▁same	-8.40426
▁us	-8.40428
▁미국	-8.41173
▁L	-8.41448
▁/	-8.41487
▁very	-8.41535
▁?	-8.41707
▁관련	-8.41861
수	-8.41868
▁need	-8.42352
▁while	-8.42404
▁G	-8.4259
▁이상	-8.42716
▁many	-8.43042
▁분	-8.43418
▁사회	-8.43455
▁good	-8.43482
No	-8.43625
▁part	-8.44507
▁부	-8.45644
▁신	-8.45652
▁using	-8.46157
가	-8.46717
▁후	-8.47182
▁got	-8.4724
▁K	-8.47641
▁점	-8.48345
▁going	-8.48445
▁*	-8.48447
▁man	-8.48532
▁~	-8.48533
▁present	-8.48779
▁long	-8.48908
▁조	-8.4897
B	-8.49078
▁must	-8.49141
▁대표	-8.49319
▁당	-8.49499
로	-8.50395
▁N	-8.50628
▁second	-8.50823
▁입니다	-8.50921
—	-8.51013
▁장	-8.51654
▁E	-8.51809
▁천	-8.51837
▁off	-8.52663
원	-8.52703
▁much	-8.52782
▁take	-8.5297
▁For	-8.53186
P	-8.53499
▁경제	-8.53948
▁데	-8.54164
▁개발	-8.54286
▁해야	-8.54742
▁기술	-8.54757
▁따라	-8.54963
▁대해	-8.55238
▁계획	-8.55491
▁state	-8.55538
And	-8.55582
▁세계	-8.56045
▁생각	-8.56091
▁different	-8.56243
▁번	-8.5631
",	-8.56322
▁필요	-8.56393
▁number	-8.56733
▁New	-8.56745
▁still	-8.56803
▁&	-8.57128
▁=	-8.57684
시	-8.57922
▁상	-8.58054
en	-8.58115
He	-8.58757
▁re	-8.58885
▁정보	-8.5893
l	-8.59157
부	-8.59258
▁하나	-8.59778
▁저	-8.60225
▁cells	-8.60997
▁life	-8.61187
▁On	-8.61324
▁United	-8.6168
▁order	-8.61848
▁But	-8.61854
▁H	-8.62032
p	-8.62041
▁known	-8.62076
▁이나	-8.62163
▁around	-8.62406
R	-8.6253
▁study	-8.62998
▁group	-8.63063
▁높	-8.63379
▁앞	-8.63658
▁합니다	-8.63771
▁without	-8.64229
진	-8.64396
▁현재	-8.64772
▁including	-8.65119
▁가장	-8.65149
하	-8.65356
▁다른	-8.65372
▁come	-8.6565
▁day	-8.65998
▁김	-8.6615
T	-8.66492
on	-8.66724
▁서울	-8.66839
▁control	-8.6686
▁end	-8.67158
▁non	-8.67576
▁알	-8.67583
▁시작	-8.67612
▁within	-8.67644
to	-8.67771
대	-8.67982
▁투자	-8.67993
▁un	-8.68033
▁J	-8.68063
▁진행	-8.68113
▁p	-8.68186
”	-8.682
▁another	-8.68365
▁too	-8.68371
▁There	-8.68723
▁특히	-8.68902
▁재	-8.68938
▁최근	-8.69033
▁does	-8.69193
▁cell	-8.69622
▁year	-8.69797
▁지난해	-8.69803
▁To	-8.69901
▁문화	-8.70449
▁세	-8.70615
▁However	-8.7091
▁중국	-8.71025
▁evidence	-8.71293
치	-8.71422
▁대상	-8.71633
▁Court	-8.71858
▁They	-8.72001
▁대통령	-8.72061
That	-8.72138
▁never	-8.72174
▁잘	-8.72545
▁서비스	-8.7269
▁으며	-8.72786
▁say	-8.72966
▁!	-8.73067
▁제공	-8.73413
▁didn	-8.73543
man	-8.73575
▁자신	-8.74342
▁백	-8.74789
E	-8.74951
▁having	-8.76035
▁열	-8.76072
▁의원	-8.76371
▁다양	-8.76381
▁조사	-8.76408
▁information	-8.7642
주	-8.76478
▁이후	-8.76491
the	-8.76541
▁운영	-8.76682
Oh	-8.76828
▁States	-8.7687
▁결과	-8.76889
▁place	-8.77351
▁own	-8.77556
▁연구	-8.77702
▁little	-8.77762
비	-8.7785
▁home	-8.77989
▁관리	-8.78087
▁last	-8.78268
▁불	-8.78313
▁만들	-8.78605
▁And	-8.78797
▁돼	-8.78808
▁이용	-8.78819
▁power	-8.79178
▁일본	-8.79441
▁올해	-8.79507
▁활동	-8.79618
▁큰	-8.79635
▁example	-8.79844
▁경기	-8.79898
▁함	-8.79979
▁O	-8.80288
an	-8.80696
▁set	-8.80711
▁m	-8.81002
▁process	-8.81116
▁업체	-8.8139
W	-8.81584
성	-8.81756
▁건	-8.82217
▁이날	-8.82571
▁something	-8.82592
▁water	-8.82638
k	-8.82806
선	-8.82823
▁학교	-8.82979
▁again	-8.83063
ers	-8.83151
M	-8.83192
▁left	-8.83208
▁달	-8.8343
▁light	-8.83493
▁국내	-8.83503
▁모두	-8.83826
▁provide	-8.84125
▁상황	-8.84248
▁산업	-8.84251
▁남	-8.84331
▁본	-8.84354
▁since	-8.84452
동	-8.84592
▁trial	-8.84847
▁find	-8.84895
▁곳	-8.84941
▁until	-8.85214
화	-8.8588
▁head	-8.862
▁later	-8.86527
▁형	-8.86974
▁국민	-8.86979
▁invention	-8.87061
▁바	-8.87236
세	-8.87289
▁회	-8.87477
▁뒤	-8.87676
▁예정	-8.87879
▁그러나	-8.88642
▁world	-8.88674
▁method	-8.88722
▁추진	-8.88799
▁박	-8.88948
▁정도	-8.89018
▁미	-8.89133
▁When	-8.89209
▁based	-8.89564
▁whether	-8.89702
▁국가	-8.89787
▁관계자	-8.8996
▁가지	-8.90026
▁If	-8.90222
전	-8.90362
▁show	-8.90715
▁정책	-8.91008
▁large	-8.91165
▁family	-8.91167
▁사실	-8.91354
▁treatment	-8.91366
▁별	-8.91386
▁side	-8.91721
▁무	-8.91986
▁You	-8.9201
제	-8.92054
감	-8.921
▁These	-8.92377
▁away	-8.92394
▁총	-8.92403
▁물	-8.92453
▁American	-8.92804
▁support	-8.93016
▁따르	-8.93103
▁속	-8.93113
▁제품	-8.93126
▁또한	-8.93287
점	-8.93615
▁name	-8.93646
▁맞	-8.93682
▁la	-8.93709
Yeah	-8.93737
▁small	-8.9385
트	-8.9386
상	-8.93861
able	-8.93901
.”	-8.94011
▁human	-8.9406
▁called	-8.94342
▁State	-8.94352
L	-8.94585
▁기관	-8.95149
▁줄	-8.95203
▁really	-8.95216
▁device	-8.95248
N	-8.95248
▁거	-8.95293
▁look	-8.95384
!	-8.95437
".	-8.95438
구	-8.95587
▁V	-8.95895
▁과정	-8.96094
▁due	-8.96133
▁참여	-8.96142
F	-8.96174
▁following	-8.96182
▁찾	-8.96234
▁모든	-8.96465
▁도시	-8.96494
▁four	-8.9662
▁선	-8.97006
ic	-8.97124
▁might	-8.97208
식	-8.97505
▁평가	-8.9761
▁팀	-8.97656
▁area	-8.97918
▁At	-8.98303
▁크	-8.98321
어	-8.98381
▁W	-8.98512
▁further	-8.98563
드	-8.98565
▁several	-8.98687
f	-8.98913
H	-8.99533
물	-8.99717
▁help	-8.99929
▁law	-8.99936
▁results	-8.99944
h	-9.00244
▁금융	-9.00437
다	-9.00576
▁발생	-9.00617
▁form	-9.00686
But	-9.00753
▁hand	-9.00903
▁초	-9.00996
▁거나	-9.01061
▁single	-9.01117
▁용	-9.01297
▁film	-9.01364
▁low	-9.01497
▁body	-9.01511
나	-9.01514
O	-9.0205
▁니	-9.02139
고	-9.02166
▁시설	-9.02413
▁After	-9.02567
▁환경	-9.02732
▁호	-9.02862
us	-9.02882
▁surface	-9.03128
K	-9.03166
▁기록	-9.0328
▁per	-9.03371
▁told	-9.03454
▁야	-9.03771
▁thought	-9.03866
▁학생	-9.03957
▁took	-9.03995
▁설명	-9.04094
▁line	-9.04393
▁그리고	-9.04538
G	-9.0466
회	-9.04852
▁point	-9.04898
▁배	-9.0499
▁mean	-9.05057
▁처럼	-9.05111
▁길	-9.05225
▁important	-9.05261
▁least	-9.05308
▁정	-9.05337
▁few	-9.05479
▁내용	-9.05733
is	-9.05881
▁동안	-9.05979
▁"[	-9.06028
▁약	-9.06106
▁University	-9.06174
▁회사	-9.06298
▁e	-9.06323
Well	-9.06435
우	-9.06588
▁살	-9.06783
▁—	-9.06823
▁라며	-9.07069
ation	-9.07122
▁children	-9.07178
▁증가	-9.07205
▁법	-9.07309
▁better	-9.07321
▁뿐	-9.07613
당	-9.07665
▁...	-9.07712
▁tell	-9.07874
▁An	-9.07916
▁team	-9.07985
▁days	-9.08024
So	-9.08232
▁et	-9.08235
▁지금	-9.08252
▁every	-9.08389
하지만	-9.08503
▁men	-9.08522
▁포함	-9.08579
▁후보	-9.08711
▁won	-9.08835
▁came	-9.08837
▁So	-9.0895
▁effect	-9.09176
▁다시	-9.09319
일	-9.09421
▁]	-9.09438
▁규모	-9.0971
▁갖	-9.09758
▁above	-9.09946
▁next	-9.09973
▁타	-9.10102
▁센터	-9.10176
▁best	-9.10327
력	-9.10418
▁type	-9.10775
▁가운데	-9.1098
▁구성	-9.11042
▁방법	-9.1118
▁less	-9.11304
라	-9.1136
▁give	-9.1148
▁upon	-9.11573
▁fact	-9.12047
▁마련	-9.12047
▁양	-9.12052
▁al	-9.12195
▁See	-9.12264
▁early	-9.12299
z	-9.12436
▁public	-9.12466
▁level	-9.12584
▁아이	-9.12781
▁government	-9.12829
▁볼	-9.1291
▁가격	-9.12921
ity	-9.12991
▁분석	-9.13
▁school	-9.13245
▁include	-9.13297
▁means	-9.1373
▁put	-9.13777
▁구	-9.13848
▁실시	-9.14028
and	-9.14111
▁development	-9.14117
▁행사	-9.146
▁한편	-9.14629
▁대학	-9.14667
미	-9.14672
▁research	-9.14736
▁great	-9.14982
▁군	-9.15045
▁result	-9.1522
▁생활	-9.15254
▁One	-9.15301
▁let	-9.15423
▁발표	-9.15489
▁<	-9.15535
보	-9.15647
▁온	-9.15794
▁action	-9.15802
▁국제	-9.15907
▁기준	-9.16001
▁Mr	-9.1601
▁주민	-9.16075
▁care	-9.16154
▁유	-9.16411
▁여성	-9.16677
▁studies	-9.16677
▁집	-9.16788
법	-9.17052
▁material	-9.17115
▁예	-9.17159
▁held	-9.17266
▁발	-9.17323
▁love	-9.17476
면	-9.17588
▁old	-9.17632
▁시민	-9.17783
▁change	-9.17803
▁That	-9.17935
▁"(	-9.18006
▁어서	-9.18062
군	-9.18206
▁대회	-9.18317
▁관계	-9.18363
This	-9.18408
▁산	-9.1841
▁am	-9.1841
▁기대	-9.18524
▁해서	-9.18573
▁문	-9.18742
▁face	-9.18771
▁defendant	-9.1881
▁thing	-9.18841
금	-9.19005
▁정치	-9.19008
Yes	-9.19123
▁확인	-9.19198
▁things	-9.19307
▁game	-9.19314
▁음	-9.19322
▁먹	-9.19341
▁결정	-9.19527
▁women	-9.19581
▁프로그램	-9.19595
▁along	-9.19652
▁중요	-9.19814
▁싶	-9.19832
▁전국	-9.1987
▁이런	-9.1997
▁age	-9.20125
▁날	-9.20193
▁입	-9.2021
▁개인	-9.2025
▁went	-9.20306
▁John	-9.20379
▁disease	-9.20393
▁often	-9.20408
▁however	-9.20463
소	-9.20468
▁always	-9.20494
u	-9.20502
▁지방	-9.20558
▁given	-9.20592
▁systems	-9.20801
▁signal	-9.20981
▁위원회	-9.21052
▁치	-9.21138
▁반	-9.21164
▁His	-9.21282
▁activity	-9.21489
▁계	-9.21582
▁provided	-9.21742
▁why	-9.21792
▁either	-9.21914
량	-9.21924
▁position	-9.21938
▁associated	-9.21997
▁판매	-9.22008
▁role	-9.22086
▁possible	-9.2209
▁night	-9.22121
▁각	-9.22352
▁달러	-9.2248
▁△	-9.22724
▁became	-9.22917
▁cases	-9.22949
▁생산	-9.23057
▁다음	-9.23331
▁function	-9.23345
▁Co	-9.23432
▁together	-9.23443
▁All	-9.23686
▁강	-9.23786
▁기간	-9.23788
▁회장	-9.23872
관	-9.24027
▁required	-9.24155
▁시스템	-9.24177
▁최고	-9.24198
▁실	-9.24333
▁성장	-9.24428
▁§	-9.2449
▁소	-9.24504
▁model	-9.24604
▁단	-9.24606
de	-9.24695
▁새로운	-9.24701
▁분야	-9.24712
▁analysis	-9.24739
▁course	-9.24756
▁외	-9.24758
▁current	-9.24883
up	-9.24886
);	-9.24901
J	-9.24925
▁various	-9.2495
▁최	-9.25038
▁district	-9.25169
▁님	-9.256
▁생	-9.25616
▁doing	-9.25668
▁모	-9.25783
▁among	-9.25809
▁blood	-9.25816
▁확대	-9.25863
▁>	-9.25898
▁전망	-9.26149
▁specific	-9.26342
▁addition	-9.26449
아	-9.2645
▁진	-9.26468
▁general	-9.26482
▁air	-9.26566
▁gonna	-9.26793
▁death	-9.26834
▁co	-9.26856
▁|	-9.26952
▁problem	-9.27128
▁York	-9.27145
▁많이	-9.27341
▁효과	-9.27445
▁수준	-9.27445
▁person	-9.27478
▁house	-9.27571
▁God	-9.27584
▁test	-9.27637
▁북한	-9.27677
▁play	-9.27679
▁pre	-9.27679
오	-9.27715
▁안전	-9.27785
it	-9.28161
▁이유	-9.28343
▁관심	-9.28349
▁사랑	-9.28412
▁asked	-9.28427
▁영화	-9.28458
▁나라	-9.28575
▁season	-9.28658
▁보이	-9.28881
▁five	-9.28992
▁한다는	-9.28998
간	-9.29009
▁effects	-9.29046
▁image	-9.29176
▁period	-9.29419
▁described	-9.29472
산	-9.29518
▁call	-9.29592
▁또는	-9.29593
▁become	-9.29653
▁response	-9.29672
▁i	-9.29689
▁open	-9.29749
▁활용	-9.29766
▁모습	-9.29801
▁May	-9.29885
How	-9.30075
ar	-9.30124
▁en	-9.30132
▁increased	-9.30179
▁새	-9.30338
▁significant	-9.30386
▁시키	-9.30449
▁ever	-9.30506
▁car	-9.30659
정	-9.3083
They	-9.30861
▁발전	-9.30929
▁측	-9.31119
▁enough	-9.31137
▁는다	-9.3142
▁은행	-9.31421
▁room	-9.31535
차	-9.31587
▁「	-9.3168
▁일부	-9.31809
▁개선	-9.31826
st	-9.31853
▁왔	-9.32183
▁방송	-9.322
▁동	-9.32244
▁고객	-9.32328
▁」	-9.32344
:"	-9.32503
She	-9.32664
▁city	-9.32688
▁마음	-9.32899
le	-9.33028
▁rate	-9.33064
▁seen	-9.33141
▁이라고	-9.3323
질	-9.33352
▁직접	-9.33445
내	-9.335
▁중심	-9.33635
▁local	-9.337
▁주장	-9.3378
▁real	-9.33821
문	-9.33867
▁field	-9.34012
▁St	-9.34102
▁스	-9.34114
▁series	-9.34296
▁National	-9.34389
▁father	-9.34509
▁health	-9.34686
,”	-9.34748
석	-9.34835
$	-9.3484
ness	-9.34851
▁received	-9.34902
▁째	-9.3492
▁record	-9.34956
▁member	-9.34969
▁첫	-9.34979
▁motion	-9.35347
▁전문	-9.35348
▁full	-9.35388
▁higher	-9.35461
▁structure	-9.35537
▁already	-9.35552
▁처음	-9.35571
▁**	-9.35641
▁though	-9.35713
▁상태	-9.35785
▁선수	-9.35849
▁making	-9.36194
▁으면	-9.36349
▁선거	-9.36406
▁강화	-9.36478
▁cause	-9.36484
▁protein	-9.36559
▁요구	-9.36559
▁matter	-9.3656
▁risk	-9.36609
▁money	-9.36611
▁months	-9.3672
▁전체	-9.3674
▁anything	-9.36859
▁done	-9.36948
▁설치	-9.36967
▁교수	-9.37103
▁없이	-9.37124
▁손	-9.37176
▁Re	-9.37292
▁eyes	-9.37672
▁times	-9.37689
ist	-9.37697
▁준비	-9.37713
▁top	-9.37801
▁levels	-9.37811
▁issue	-9.37898
▁total	-9.38034
▁far	-9.38048
▁물론	-9.38229
▁particular	-9.38251
▁만큼	-9.38425
▁올	-9.3851
▁ᆞ	-9.38513
▁prior	-9.38707
▁TV	-9.38739
)"	-9.38832
▁방	-9.3894
▁art	-9.38954
▁sure	-9.38955
▁major	-9.39299
▁운동	-9.39335
▁common	-9.39441
▁구조	-9.39483
야	-9.39558
▁free	-9.39631
▁expression	-9.39773
▁공개	-9.39865
▁임	-9.40034
▁지적	-9.4009
▁따른	-9.40168
w	-9.40661
▁application	-9.4073
▁트	-9.40759
▁단체	-9.40825
▁lower	-9.40893
as	-9.40915
▁business	-9.40958
연	-9.41219
▁once	-9.4122
▁자리	-9.41317
▁party	-9.41346
국	-9.41406
▁City	-9.41537
▁company	-9.41555
▁예상	-9.41793
▁increase	-9.41813
▁saw	-9.41853
▁추가	-9.4191
▁X	-9.41917
▁amount	-9.4195
▁부산	-9.42032
▁가족	-9.4213
▁책	-9.42193
▁service	-9.4223
▁available	-9.42344
▁l	-9.42432
▁기능	-9.42568
v	-9.4269
▁노력	-9.42913
▁영향	-9.42965
▁across	-9.42969
▁began	-9.42972
▁short	-9.4311
▁변화	-9.43112
▁cancer	-9.43334
▁게임	-9.43355
▁nothing	-9.43381
▁감	-9.43387
▁▲	-9.43397
▁당시	-9.43499
ia	-9.43638
르	-9.43665
▁shown	-9.43714
▁World	-9.43745
▁마	-9.43876
]"	-9.43879
▁able	-9.43884
▁claim	-9.43977
▁건설	-9.44157
롯	-9.44231
현	-9.44333
If	-9.44366
위	-9.44618
te	-9.44739
▁오후	-9.44771
▁members	-9.44771
경	-9.448
호	-9.44802
▁March	-9.44865
▁keep	-9.44886
▁lot	-9.45018
▁의미	-9.45149
▁mother	-9.45156
▁son	-9.45197
▁pressure	-9.45405
▁잡	-9.45457
▁건강	-9.45604
▁Pat	-9.4566
▁일반	-9.45692
▁사건	-9.45766
▁는지	-9.45767
▁value	-9.45818
Why	-9.46024
민	-9.46053
▁question	-9.46083
▁groups	-9.46086
▁layer	-9.46173
▁지속	-9.46179
▁changes	-9.4618
ton	-9.4629
▁similar	-9.46301
의	-9.46307
Hey	-9.46383
There	-9.46442
▁third	-9.46493
▁이야기	-9.46542
▁main	-9.46658
▁못하	-9.46666
▁potential	-9.46943
▁determine	-9.46965
영	-9.47035
▁률	-9.47048
▁놓	-9.47068
▁decision	-9.4714
▁formed	-9.47162
▁방문	-9.47215
▁Dr	-9.47493
Come	-9.47506
▁사진	-9.47536
▁관	-9.47563
▁June	-9.4764
▁wanted	-9.47642
▁says	-9.47846
▁엔	-9.47856
▁clinical	-9.47889
▁더욱	-9.47956
▁Cir	-9.48113
▁기존	-9.48138
▁production	-9.48489
▁heart	-9.4853
▁feel	-9.48621
▁파	-9.48647
▁경찰	-9.48736
▁공동	-9.48866
▁해결	-9.49089
▁넘	-9.49133
▁노	-9.49148
▁어떤	-9.49153
▁believe	-9.49225
▁que	-9.49234
▁현장	-9.4924
▁현대	-9.4928
▁피	-9.49389
▁acid	-9.49516
▁post	-9.49528
▁judgment	-9.49547
▁July	-9.49657
▁County	-9.49847
▁눈	-9.49851
▁강조	-9.49888
▁선정	-9.49975
명	-9.50079
▁업무	-9.501
▁With	-9.50194
▁대비	-9.50266
▁제도	-9.50317
▁De	-9.5034
▁front	-9.50388
▁population	-9.50477
▁처리	-9.50787
▁devices	-9.50846
▁주요	-9.50901
▁working	-9.50968
조	-9.51029
▁연	-9.51069
▁계속	-9.51083
▁kind	-9.51096
▁knew	-9.51118
▁section	-9.51137
▁January	-9.51169
Don	-9.51175
▁taken	-9.51232
▁공사	-9.51254
▁방식	-9.51268
▁II	-9.51294
▁`	-9.51462
▁c	-9.51465
▁final	-9.51474
ment	-9.51506
▁door	-9.51563
용	-9.51593
▁review	-9.51662
▁What	-9.51742
▁half	-9.51759
단	-9.51874
▁program	-9.51888
**	-9.51889
▁run	-9.51913
▁상품	-9.5197
▁상기	-9.51987
두	-9.51995
▁anti	-9.5204
▁이러	-9.5217
▁yet	-9.52187
)(	-9.52189
▁역사	-9.52205
son	-9.52208
게	-9.52259
▁cannot	-9.52378
▁이어	-9.52391
▁늘	-9.52419
co	-9.52514
▁himself	-9.52584
실	-9.52588
▁history	-9.52682
▁층	-9.52809
▁유지	-9.5281
▁range	-9.52948
▁South	-9.53111
▁『	-9.53235
ate	-9.53279
▁편	-9.53307
▁hard	-9.53317
▁compared	-9.5335
▁종	-9.53358
ie	-9.53363
▁회의	-9.53549
V	-9.53591
▁District	-9.53659
▁적용	-9.53672
na	-9.53675
All	-9.53711
▁사이	-9.53725
▁행정	-9.53789
▁August	-9.5387
신	-9.53875
▁여러	-9.54049
▁April	-9.54226
▁close	-9.54301
려	-9.54351
▁certain	-9.54358
▁country	-9.54361
▁book	-9.5442
Do	-9.54453
▁바로	-9.54475
▁작	-9.54527
▁region	-9.54543
▁September	-9.5456
▁리	-9.54613
Y	-9.54628
▁former	-9.54629
▁개최	-9.54724
▁예산	-9.54727
▁입장	-9.54751
▁상승	-9.54753
▁한다고	-9.5493
▁해외	-9.54949
no	-9.55033
▁특별	-9.55115
▁energy	-9.55131
ism	-9.55168
ne	-9.55219
▁적극	-9.55234
▁부분	-9.55239
▁sub	-9.55281
▁n	-9.55312
▁whole	-9.55404
▁국회	-9.55417
한	-9.55424
▁conditions	-9.55472
▁같이	-9.55518
▁past	-9.55641
▁young	-9.55692
▁lead	-9.55979
▁interest	-9.55995
▁공	-9.56008
렇게	-9.56059
▁near	-9.56064
▁경영	-9.56107
▁급	-9.56114
ry	-9.56191
▁해당	-9.56206
▁시대	-9.56269
▁October	-9.56346
재	-9.56411
▁감독	-9.56447
방	-9.56467
▁란	-9.56477
▁included	-9.56601
▁다가	-9.56663
▁담	-9.56795
액	-9.56916
▁장관	-9.56919
▁주택	-9.5697
▁삼	-9.572
▁얻	-9.57201
▁mind	-9.57206
▁looked	-9.57208
▁작품	-9.57419
▁performed	-9.57496
Let	-9.57499
▁child	-9.57521
▁started	-9.57541
▁최대	-9.57585
▁methods	-9.57701
▁인터넷	-9.57715
el	-9.57764
▁피해	-9.57827
▁black	-9.57871
▁released	-9.57893
▁오늘	-9.5794
▁six	-9.57961
▁힘	-9.57969
▁particularly	-9.57975
▁너무	-9.58025
▁performance	-9.58066
▁size	-9.5816
▁자동차	-9.58203
▁report	-9.58206
▁By	-9.58283
▁내년	-9.58311
▁developed	-9.58315
▁million	-9.5867
▁involved	-9.58727
▁understand	-9.58786
모	-9.58958
▁돈	-9.58991
▁직원	-9.59064
▁talk	-9.5908
▁woman	-9.59166
▁memory	-9.59255
▁police	-9.59373
▁circuit	-9.59481
▁considered	-9.59525
▁leave	-9.59602
▁space	-9.59655
um	-9.59673
▁War	-9.59688
▁patient	-9.5969
ally	-9.5983
▁채	-9.59902
▁네	-9.59921
▁작업	-9.60013
▁live	-9.60046
▁played	-9.60122
▁협력	-9.60321
▁rather	-9.60359
각각	-9.60414
In	-9.60438
▁성공	-9.60575
▁generally	-9.60627
▁factors	-9.6065
▁war	-9.60715
부분	-9.60824
▁거래	-9.60839
▁상대	-9.60858
▁others	-9.60904
▁그룹	-9.60998
▁source	-9.61037
▁showed	-9.61161
▁thus	-9.61312
▁big	-9.61314
▁related	-9.61337
▁선택	-9.61394
▁behind	-9.61412
▁normal	-9.61435
▁조성	-9.61514
마	-9.61562
▁%)	-9.6159
▁정상	-9.61633
▁공간	-9.61772
▁중앙	-9.61775
▁late	-9.61828
▁확보	-9.61831
▁includes	-9.61899
▁애	-9.61982
▁이미	-9.62107
▁역할	-9.6217
▁provides	-9.62262
▁School	-9.62316
▁December	-9.6236
+	-9.62415
year	-9.62421
▁사고	-9.62461
▁막	-9.62469
▁쉽	-9.62766
▁La	-9.62839
▁November	-9.62856
니	-9.62905
▁""	-9.62953
체	-9.63076
▁start	-9.63146
▁Al	-9.63197
Okay	-9.63198
ion	-9.63254
▁수출	-9.63305
▁building	-9.63323
▁개월	-9.6335
▁공급	-9.63403
ma	-9.63488
▁While	-9.63529
ling	-9.63723
▁걸	-9.63789
▁어야	-9.63906
▁North	-9.6391
▁쓰	-9.63935
▁network	-9.63949
com	-9.63968
▁clear	-9.63986
▁gave	-9.63986
▁역시	-9.63988
▁글	-9.64105
▁식	-9.64152
직	-9.64233
▁plaintiff	-9.64295
▁significantly	-9.64401
ley	-9.64404
▁turn	-9.64416
My	-9.64446
based	-9.64491
▁almost	-9.64499
▁unit	-9.64517
▁US	-9.64569
▁design	-9.64574
▁인사	-9.64665
▁방안	-9.64729
▁gas	-9.64756
▁individual	-9.64856
ine	-9.64945
▁어요	-9.6495
▁율	-9.64959
▁site	-9.65027
▁species	-9.65263
▁낮	-9.65343
▁위원장	-9.65401
▁lost	-9.65465
▁질	-9.6547
▁과학	-9.65476
▁located	-9.65482
▁property	-9.65516
▁self	-9.65601
▁미래	-9.65646
▁according	-9.65678
▁계약	-9.65742
파	-9.65837
▁gene	-9.65883
▁못	-9.65889
▁stop	-9.65943
▁doesn	-9.65952
▁proposed	-9.65964
ch	-9.66088
▁move	-9.66099
▁white	-9.66258
▁복지	-9.66323
▁전략	-9.66331
안	-9.66362
▁necessary	-9.66425
▁operation	-9.66555
▁therefore	-9.66597
▁Act	-9.66606
▁ground	-9.66728
▁Thus	-9.66872
▁portion	-9.66922
at	-9.66925
▁단계	-9.66961
▁looking	-9.67068
▁music	-9.67107
▁위치	-9.67279
▁자금	-9.67292
\	-9.67297
▁신청	-9.67491
▁My	-9.67656
▁di	-9.67666
▁Although	-9.67701
=	-9.6776
▁전자	-9.67892
▁보호	-9.67943
▁통신	-9.68063
▁병원	-9.68225
ian	-9.68348
▁social	-9.68374
▁claims	-9.68449
▁wasn	-9.68636
▁다면	-9.68673
▁reported	-9.68718
▁대해서	-9.68726
▁그러	-9.68749
▁그것	-9.68752
▁열린	-9.68758
▁turned	-9.6876
▁moved	-9.68886
▁심	-9.6889
▁class	-9.68894
▁대책	-9.68973
▁force	-9.68983
▁자유	-9.68986
타	-9.6902
추	-9.69021
▁multiple	-9.69086
▁approach	-9.69113
▁bit	-9.69123
▁standard	-9.69256
▁참석	-9.69295
▁coming	-9.69381
▁우	-9.69449
▁매	-9.69452
▁여행	-9.69465
▁future	-9.69529
▁듯	-9.69579
ra	-9.69691
▁포	-9.69745
▁food	-9.69746
▁보여	-9.69758
▁스타	-9.69774
공	-9.69885
▁project	-9.69896
▁outside	-9.69945
ization	-9.70046
born	-9.70073
▁temperature	-9.70101
날	-9.70106
▁community	-9.7026
▁삶	-9.70293
▁growth	-9.70324
▁weight	-9.70456
▁read	-9.70515
▁week	-9.70669
▁station	-9.70737
▁problems	-9.7074
ized	-9.70809
os	-9.70822
심	-9.70828
학	-9.70874
▁cost	-9.70968
▁today	-9.70977
▁로부터	-9.71035
중	-9.71119
▁access	-9.71124
▁con	-9.71191
▁께	-9.71204
▁drug	-9.71294
ta	-9.71383
▁조직	-9.7141
et	-9.71412
▁이름	-9.71428
▁everything	-9.71433
▁primary	-9.71583
▁story	-9.71643
▁안정	-9.71654
▁British	-9.71703
▁plan	-9.71742
▁통합	-9.71758
▁needed	-9.71766
▁se	-9.71859
▁someone	-9.71875
▁hours	-9.71876
▁자료	-9.71909
▁produced	-9.72005
▁via	-9.72081
▁flow	-9.72117
▁영	-9.72154
▁나오	-9.7228
j	-9.72284
▁original	-9.72295
▁발명	-9.7232
▁로서	-9.72362
▁inside	-9.72368
▁자연	-9.72372
▁town	-9.72438
▁obtained	-9.72483
▁die	-9.72695
▁위해서	-9.72707
▁아직	-9.72823
▁reason	-9.72836
▁조정	-9.72898
am	-9.73031
▁끝	-9.73086
▁보험	-9.73097
▁limited	-9.73265
▁trying	-9.73408
un	-9.73531
▁의견	-9.73536
▁제작	-9.73542
▁taking	-9.73547
▁complex	-9.73637
▁여기	-9.73649
▁g	-9.73745
희	-9.73762
▁established	-9.7377
land	-9.73886
종	-9.73916
il	-9.73978
▁job	-9.74
▁수사	-9.74002
▁release	-9.74007
▁』	-9.74053
▁이해	-9.74158
▁차량	-9.74362
▁Her	-9.74485
▁base	-9.7449
▁applied	-9.74563
▁minutes	-9.74661
▁역	-9.74667
em	-9.74696
age	-9.74819
▁loss	-9.74839
▁난	-9.74861
▁경험	-9.74894
▁매출	-9.74915
▁직	-9.74936
less	-9.74943
▁종합	-9.75073
▁metal	-9.75116
▁마을	-9.75175
▁medical	-9.75183
▁idea	-9.75201
▁February	-9.75244
▁heard	-9.75258
만	-9.75265
▁added	-9.75281
one	-9.75321
▁office	-9.75417
▁검찰	-9.75444
▁pay	-9.75446
▁전문가	-9.75473
▁actually	-9.75545
▁d	-9.75595
▁wife	-9.75648
▁appeal	-9.75665
님	-9.75719
▁요	-9.75771
▁오전	-9.75798
▁자체	-9.75841
▁services	-9.75923
▁경쟁	-9.75934
철	-9.76046
▁보인다	-9.76074
▁true	-9.76102
해	-9.76157
▁subject	-9.76173
▁몸	-9.76183
me	-9.76298
▁presence	-9.763
▁기본	-9.76309
▁제주	-9.76361
▁observed	-9.76378
▁felt	-9.76378
▁도움	-9.76404
▁Id	-9.76439
▁West	-9.76537
▁우려	-9.76545
▁가치	-9.76639
▁의료	-9.76667
▁words	-9.76819
▁Z	-9.76977
▁user	-9.76992
▁장애	-9.77001
▁감사	-9.77008
▁책임	-9.77166
ting	-9.77167
▁video	-9.77373
▁이제	-9.7741
▁object	-9.7751
증	-9.77551
▁else	-9.77555
▁determined	-9.77818
▁alone	-9.7782
▁special	-9.77849
▁매우	-9.77873
▁부담	-9.77938
▁fire	-9.78051
▁died	-9.78125
▁어떻	-9.78151
▁업계	-9.78249
▁나타났	-9.78297
▁비용	-9.78301
▁시행	-9.78316
▁House	-9.78375
▁shall	-9.78464
▁인지	-9.7849
▁additional	-9.78493
▁During	-9.78509
▁hands	-9.78555
▁관한	-9.7857
est	-9.78643
▁능력	-9.78736
▁relationship	-9.78737
▁bad	-9.78744
역	-9.78752
▁effective	-9.78924
▁basis	-9.78933
▁감소	-9.79003
▁승	-9.79005
▁itself	-9.79026
▁word	-9.79117
운	-9.79134
분	-9.79251
▁phase	-9.79254
▁음악	-9.79483
권	-9.79539
▁apparatus	-9.79907
▁공연	-9.79911
▁아파트	-9.79964
▁band	-9.7998
▁기반	-9.8
▁brought	-9.80071
▁DNA	-9.80171
▁difficult	-9.80178
▁makes	-9.80181
▁return	-9.80365
▁이전	-9.80476
▁followed	-9.80513
▁목표	-9.80589
ous	-9.80639
▁key	-9.80666
▁인간	-9.8072
▁direction	-9.80793
▁+	-9.8083
▁published	-9.80903
▁getting	-9.80908
▁청	-9.81044
▁paper	-9.81071
▁First	-9.81073
▁현	-9.81105
▁씩	-9.81114
▁novel	-9.81228
▁무엇	-9.81241
▁그런	-9.81295
▁영업	-9.81296
▁("	-9.81361
▁moment	-9.81448
▁filed	-9.81496
▁jury	-9.81583
▁순	-9.81585
▁폭	-9.81612
▁led	-9.8165
▁likely	-9.81685
▁brain	-9.81908
▁하루	-9.81947
▁호텔	-9.82004
▁국	-9.82007
▁민주당	-9.82061
▁contact	-9.8207
▁Our	-9.82216
▁hear	-9.82309
즈	-9.82405
▁factor	-9.82409
▁land	-9.82558
▁기회	-9.82573
▁named	-9.827
▁cross	-9.82703
▁purpose	-9.82734
▁language	-9.82748
▁active	-9.82807
프	-9.82821
▁집중	-9.82834
▁km	-9.82851
▁view	-9.82857
Now	-9.82894
▁terms	-9.82955
▁몇	-9.82977
▁모델	-9.83005
병	-9.83019
▁죠	-9.83084
▁마다	-9.83212
▁pro	-9.83314
▁especially	-9.83319
▁living	-9.83327
▁term	-9.83424
▁나가	-9.83458
▁below	-9.83477
▁대구	-9.83504
▁album	-9.83514
청	-9.83604
▁대전	-9.83648
과	-9.83715
▁political	-9.83757
▁dead	-9.83805
Z	-9.83837
▁le	-9.83936
▁각종	-9.83953
▁구축	-9.83992
do	-9.8401
▁allow	-9.8404
▁national	-9.84093
▁San	-9.84128
▁검사	-9.84145
é	-9.84153
▁areas	-9.84214
▁vehicle	-9.84225
▁experience	-9.84338
▁English	-9.84341
[	-9.84413
▁follow	-9.84453
료	-9.8451
of	-9.84511
▁fine	-9.84523
▁평균	-9.84535
▁heat	-9.84569
▁rest	-9.84572
▁뜻	-9.84627
di	-9.84655
▁happened	-9.84672
▁소비자	-9.84699
▁Y	-9.84761
ur	-9.84813
▁girl	-9.84826
▁physical	-9.84912
he	-9.84949
▁Art	-9.85072
▁friend	-9.85076
ty	-9.85129
▁인천	-9.8517
▁step	-9.85172
▁카	-9.85176
적	-9.85238
▁으로써	-9.85341
▁비해	-9.85372
▁Man	-9.85396
ir	-9.85417
▁평	-9.85544
▁wrong	-9.85545
카	-9.8556
▁악	-9.85588
▁Me	-9.85789
▁training	-9.85808
▁코	-9.85839
▁rights	-9.85954
코	-9.85958
▁longer	-9.85994
▁조치	-9.86091
▁북	-9.86143
▁목적	-9.86152
▁relates	-9.86307
▁Inc	-9.86416
▁try	-9.86498
▁금	-9.8666
▁도입	-9.86692
▁sent	-9.86839
▁caused	-9.86851
▁identified	-9.86868
▁==	-9.86879
▁분기	-9.86961
▁direct	-9.87038
터	-9.87062
▁hold	-9.87086
▁strong	-9.87101
▁points	-9.87177
▁built	-9.87215
론	-9.87243
▁자기	-9.87268
▁치료	-9.87427
▁체험	-9.87434
▁앞서	-9.87439
▁reduced	-9.87462
▁위기	-9.87496
▁제시	-9.87597
▁활성	-9.87658
da	-9.87741
▁전화	-9.87744
▁방침	-9.87768
▁stay	-9.87839
▁voice	-9.87861
▁수익	-9.87893
▁states	-9.87901
▁served	-9.87978
▁America	-9.87979
▁respect	-9.87993
▁차지	-9.87995
▁우수	-9.88003
▁f	-9.88025
▁policy	-9.88223
▁pain	-9.88252
▁event	-9.88254
▁address	-9.88265
line	-9.88285
▁연결	-9.88448
▁contract	-9.8849
▁Some	-9.88551
▁quality	-9.88585
▁어느	-9.88586
▁브랜드	-9.88595
▁content	-9.88706
▁soon	-9.8886
Where	-9.88919
▁밖	-9.88937
ant	-9.89057
▁federal	-9.89112
▁벌	-9.89195
la	-9.89203
린	-9.8921
▁designed	-9.89225
▁respectively	-9.89247
time	-9.89297
▁데이터	-9.89357
▁failure	-9.89361
▁거리	-9.89362
▁판단	-9.89417
▁보도	-9.89534
▁wall	-9.89617
▁French	-9.89673
▁현지	-9.89705
▁properties	-9.89744
▁President	-9.89755
계	-9.89777
▁issues	-9.89788
▁act	-9.89808
▁personal	-9.89931
▁b	-9.89976
▁elements	-9.89986
Just	-9.90001
▁설	-9.90016
▁ability	-9.90029
▁삼성	-9.90051
▁코로나	-9.90083
▁sorry	-9.9022
▁tissue	-9.90287
▁meet	-9.90299
▁대출	-9.90305
▁부문	-9.90449
▁written	-9.90505
▁아닌	-9.90569
▁features	-9.90624
▁London	-9.90674
▁events	-9.90675
약	-9.90692
▁weeks	-9.90772
판	-9.90819
▁글로벌	-9.91001
▁multi	-9.91041
▁morning	-9.91051
▁현실	-9.91136
▁parties	-9.91179
out	-9.9122
rs	-9.91264
▁computer	-9.91277
▁경	-9.91344
▁그렇	-9.91396
ner	-9.91449
▁lines	-9.91453
▁위원	-9.91484
▁맡	-9.91516
▁James	-9.91535
▁nature	-9.91591
▁greater	-9.91666
▁des	-9.91711
▁stated	-9.91908
▁등록	-9.91985
▁드	-9.92041
▁conventional	-9.92045
▁장치	-9.92094
▁영상	-9.92098
▁hearing	-9.92105
색	-9.92117
창	-9.92292
▁although	-9.92294
▁대응	-9.92355
▁recent	-9.92399
▁continued	-9.92411
ler	-9.92481
▁liquid	-9.92491
▁송	-9.92578
▁students	-9.92595
▁친구	-9.92612
은	-9.92763
▁고려	-9.92802
▁절	-9.92811
▁Department	-9.92813
▁관광	-9.92863
Ct	-9.92894
▁ask	-9.92902
러	-9.92924
▁환자	-9.92954
▁created	-9.92967
▁stage	-9.93024
디	-9.93038
ul	-9.93077
▁방향	-9.93082
xe	-9.93084
▁시즌	-9.93097
▁부족	-9.93118
▁General	-9.93227
▁비교	-9.93275
▁date	-9.93353
▁product	-9.93414
림	-9.93459
▁에너지	-9.93474
▁광주	-9.9365
▁born	-9.93762
▁components	-9.93764
▁charge	-9.93896
▁saying	-9.93966
old	-9.94008
▁optical	-9.94158
▁sense	-9.94172
▁Trump	-9.9418
▁여자	-9.94185
▁element	-9.94262
▁media	-9.94272
유	-9.94299
ary	-9.9433
▁probably	-9.94343
▁∼	-9.94351
▁radio	-9.94361
▁directly	-9.94379
▁processing	-9.94438
▁entire	-9.94447
ro	-9.94572
▁percent	-9.94639
▁frequency	-9.94673
▁complete	-9.94705
▁reference	-9.94733
per	-9.94751
▁shows	-9.94775
▁만나	-9.94779
▁inter	-9.9479
▁예술	-9.94858
▁killed	-9.94859
men	-9.94942
▁failed	-9.95013
▁cut	-9.95015
▁player	-9.95062
▁From	-9.95066
▁central	-9.95119
▁아무	-9.95122
▁됩니다	-9.95143
▁우선	-9.95148
▁formation	-9.95156
▁injury	-9.95199
▁knowledge	-9.95219
▁준	-9.95304
▁display	-9.95305
▁According	-9.95311
▁worked	-9.95389
▁배우	-9.95398
▁갈	-9.95407
▁논의	-9.95451
▁h	-9.95452
▁소개	-9.95543
천	-9.95598
▁가구	-9.95715
▁positive	-9.95796
▁기획	-9.95804
▁Do	-9.95827
▁speed	-9.95945
교	-9.95994
발	-9.95998
▁okay	-9.96012
▁usually	-9.96058
▁행위	-9.96074
▁substrate	-9.96107
▁deal	-9.96246
▁error	-9.9628
▁으나	-9.9633
▁mass	-9.96411
▁materials	-9.9647
▁App	-9.96526
▁장기	-9.96528
▁transfer	-9.96529
▁온라인	-9.96567
▁red	-9.96579
se	-9.96709
▁mechanism	-9.96747
▁인해	-9.96839
거	-9.96864
by	-9.96899
크	-9.96907
▁일정	-9.96943
▁혐의	-9.96949
▁presented	-9.96961
▁혁신	-9.96963
▁therapy	-9.9722
▁ago	-9.97245
▁Then	-9.97245
▁사례	-9.97253
▁유럽	-9.97282
▁previously	-9.97325
태	-9.97392
▁동시	-9.97396
▁병	-9.97428
▁FIG	-9.97455
▁met	-9.9747
▁인식	-9.9748
▁팔	-9.97519
▁디자인	-9.97525
X	-9.97558
▁결국	-9.97599
▁본부	-9.97616
▁전했	-9.97719
▁참	-9.97752
▁toward	-9.97769
▁natural	-9.97772
▁주변	-9.97818
▁이하	-9.97853
▁types	-9.97961
▁bring	-9.98088
▁CD	-9.98274
▁target	-9.98293
▁전달	-9.98439
▁청소년	-9.98522
▁THE	-9.98545
▁typically	-9.98639
▁해도	-9.98688
▁counsel	-9.98718
▁products	-9.98729
▁song	-9.98758
ter	-9.98775
▁ten	-9.98988
▁forward	-9.98996
▁win	-9.99118
▁century	-9.9913
▁자원	-9.99135
Who	-9.99173
▁위험	-9.99182
%)	-9.99182
▁whose	-9.99215
▁사항	-9.99386
▁proteins	-9.99488
▁존재	-9.99552
▁drive	-9.9956
▁증권	-9.9958
Are	-9.99586
▁카드	-9.99606
▁guy	-9.99643
▁David	-9.99651
▁German	-9.99671
▁couldn	-9.99675
▁Q	-9.99691
▁정신	-9.9974
▁friends	-9.99758
▁전기	-9.99833
▁simple	-9.9988
▁goal	-9.9993
▁legal	-9.99951
들	-10.0009
▁rule	-10.0016
▁agreement	-10.0019
▁oil	-10.0025
▁sound	-10.0029
▁도로	-10.0032
▁먼저	-10.0033
▁practice	-10.0041
▁length	-10.0042
▁세상	-10.0055
▁Since	-10.0059
▁brother	-10.006
▁League	-10.0061
▁wrote	-10.0064
▁인상	-10.0079
▁인기	-10.0089
▁voltage	-10.0092
▁고자	-10.0094
출	-10.0097
▁좀	-10.0097
▁시험	-10.0098
▁▶	-10.0104
▁공공	-10.0106
▁돌	-10.011
▁needs	-10.0111
망	-10.0114
▁output	-10.0114
▁읽	-10.0119
▁윤	-10.0122
▁club	-10.0124
▁phone	-10.0131
▁California	-10.0145
▁molecular	-10.0147
▁이익	-10.0154
▁list	-10.0169
▁highly	-10.0171
▁International	-10.0172
▁average	-10.0172
▁반면	-10.0173
형	-10.0178
▁Or	-10.0183
▁협회	-10.0184
▁표현	-10.0184
광	-10.0184
▁quite	-10.0187
요	-10.0193
▁사장	-10.0194
▁tried	-10.0199
▁title	-10.0207
▁connected	-10.021
▁impact	-10.0211
▁o	-10.022
▁Le	-10.0224
으며	-10.0226
▁Therefore	-10.0226
▁isn	-10.0229
Not	-10.023
Look	-10.0235
▁의회	-10.0235
▁광고	-10.0243
처	-10.0244
▁running	-10.0245
▁condition	-10.0269
▁공무원	-10.0278
▁검토	-10.0283
통	-10.0285
▁여부	-10.0285
")	-10.0287
▁골	-10.029
▁대로	-10.0292
▁Paul	-10.0296
▁ex	-10.0305
▁Center	-10.0306
▁그래서	-10.0309
▁이동	-10.0311
▁수행	-10.0319
▁제기	-10.032
like	-10.0325
▁황	-10.0328
▁인데	-10.0331
▁management	-10.0339
▁instead	-10.034
▁본격	-10.034
▁회원	-10.0342
▁understanding	-10.0354
▁previous	-10.0356
▁findings	-10.0358
▁difference	-10.0358
▁y	-10.0366
den	-10.0372
▁왕	-10.0375
▁sir	-10.0376
▁games	-10.038
▁사이트	-10.0384
▁technology	-10.0385
▁지정	-10.0386
▁mechanisms	-10.0392
▁studied	-10.0393
▁hit	-10.0404
▁kill	-10.0409
길	-10.041
▁행복	-10.0417
▁가정	-10.0431
▁road	-10.0431
준	-10.0436
▁talking	-10.0436
▁returned	-10.0437
▁resistance	-10.0438
▁models	-10.0442
▁center	-10.0445
▁board	-10.0445
▁military	-10.0448
U	-10.0455
▁구매	-10.0461
티	-10.0462
▁했으며	-10.0468
ad	-10.047
▁주제	-10.0479
▁damage	-10.0481
▁출시	-10.0486
▁따라서	-10.0487
▁형태	-10.0499
▁career	-10.05
▁PC	-10.05
임	-10.0504
▁degree	-10.0506
▁교회	-10.0508
▁지구	-10.0511
▁규정	-10.0512
난달	-10.0513
▁techniques	-10.0516
Thank	-10.0525
▁require	-10.0529
▁전통	-10.0532
▁George	-10.0536
▁지급	-10.0542
ating	-10.0544
▁단지	-10.0557
토	-10.0565
ish	-10.0578
▁King	-10.0584
▁작가	-10.0592
포	-10.0592
▁높이	-10.0598
▁그램	-10.0601
▁주식	-10.0603
▁placed	-10.0607
레	-10.0614
▁dis	-10.0618
▁설립	-10.0621
nd	-10.0637
▁construction	-10.0638
▁color	-10.0641
Go	-10.0642
▁market	-10.0651
▁연구원	-10.0652
▁바람	-10.0653
▁실적	-10.0657
▁table	-10.0665
▁security	-10.0666
▁교통	-10.0666
▁허	-10.067
▁requires	-10.0675
▁공장	-10.0677
▁applications	-10.0695
▁수입	-10.0699
▁통한	-10.0701
▁토	-10.0703
▁comes	-10.0704
▁의해	-10.0708
▁합의	-10.0716
▁reaction	-10.0723
Is	-10.0724
▁wide	-10.0726
▁communication	-10.0728
▁version	-10.073
▁remember	-10.0733
▁목	-10.0734
후	-10.0736
▁과거	-10.074
ge	-10.0747
▁마지막	-10.0751
▁Because	-10.0753
▁홍보	-10.0756
▁정말	-10.0756
▁themselves	-10.0764
▁produce	-10.0769
▁bar	-10.0771
▁프로	-10.0772
▁El	-10.0775
ka	-10.0777
▁decided	-10.0778
▁형성	-10.0781
▁서로	-10.0805
▁opened	-10.0809
▁movement	-10.0812
▁려는	-10.0815
Good	-10.0817
▁president	-10.082
▁attention	-10.0823
▁반대	-10.0827
ies	-10.0827
▁leading	-10.083
▁hair	-10.0833
▁당신	-10.0836
▁create	-10.0837
▁William	-10.0839
▁simply	-10.0848
ated	-10.0861
▁못했	-10.0862
▁달리	-10.0863
{	-10.0874
▁체계	-10.0875
▁의사	-10.0877
▁제조	-10.0883
▁gone	-10.0907
근	-10.0911
▁please	-10.0916
▁체	-10.0933
▁예방	-10.0935
▁boy	-10.0935
▁account	-10.094
▁어렵	-10.095
▁solution	-10.095
▁식품	-10.0956
▁공식	-10.0957
▁reached	-10.0959
▁노동	-10.096
어지	-10.0965
▁private	-10.0966
▁풀	-10.0969
▁Washington	-10.0973
▁High	-10.0974
▁분위기	-10.0976
▁relatively	-10.0978
▁세요	-10.0984
▁실제	-10.0985
류	-10.0991
▁cover	-10.0991
▁금리	-10.0997
▁표	-10.0998
노	-10.1001
▁separate	-10.1005
▁음식	-10.1011
▁IT	-10.1015
▁핵심	-10.1015
▁allowed	-10.1018
▁소속	-10.1019
▁반영	-10.1028
day	-10.1039
키	-10.1044
▁겪	-10.1047
▁news	-10.1047
▁married	-10.1053
▁values	-10.106
바	-10.1062
▁SK	-10.1068
무	-10.1077
▁중소기업	-10.1078
▁initial	-10.1084
▁제한	-10.1092
lin	-10.1095
ha	-10.1101
▁manner	-10.1101
▁statement	-10.1108
▁selected	-10.1116
▁opinion	-10.1128
▁진출	-10.1131
▁Be	-10.1133
▁micro	-10.114
▁영국	-10.1142
▁search	-10.1161
id	-10.1162
피	-10.1166
▁전시	-10.1167
▁조선	-10.117
ten	-10.1178
▁전환	-10.118
▁receptor	-10.1181
▁Street	-10.1184
박	-10.1185
▁Here	-10.1187
▁daughter	-10.1193
▁tumor	-10.1193
▁parts	-10.1195
▁참가	-10.12
▁magnetic	-10.1201
▁feet	-10.1202
▁suggest	-10.1205
▁transmission	-10.1208
▁과제	-10.1211
강	-10.122
ni	-10.1222
▁항	-10.1225
▁라면	-10.1226
▁attack	-10.1232
▁anyone	-10.1236
Get	-10.1244
▁교사	-10.1247
▁대형	-10.1249
▁myself	-10.125
▁맛	-10.1255
ce	-10.1257
yl	-10.1257
▁외국인	-10.1258
▁playing	-10.1261
▁skin	-10.1265
▁수도	-10.1268
▁홍	-10.127
▁아야	-10.1285
▁누구	-10.1285
▁el	-10.1289
▁round	-10.1297
▁prevent	-10.1299
▁Park	-10.1302
▁Two	-10.1303
▁distribution	-10.1303
▁questions	-10.1309
▁요청	-10.1311
ca	-10.1314
▁상당	-10.1316
▁towards	-10.1317
▁고용	-10.1324
▁eye	-10.1325
▁포인트	-10.1328
▁이르	-10.1333
▁Japanese	-10.1333
▁changed	-10.1338
▁develop	-10.1339
▁works	-10.1343
▁대한민국	-10.1345
▁village	-10.1348
Ed	-10.1348
▁officer	-10.1349
▁identify	-10.1349
▁appeared	-10.135
▁code	-10.1353
▁세대	-10.1357
▁floor	-10.1358
▁든	-10.1358
▁남자	-10.136
▁location	-10.1368
▁공원	-10.1368
▁내부	-10.1379
▁성과	-10.1379
▁차이	-10.1383
▁wouldn	-10.1386
▁earlier	-10.1392
▁channel	-10.1393
▁발견	-10.1397
▁신고	-10.1405
▁차례	-10.1406
▁White	-10.1409
▁improved	-10.141
▁month	-10.1416
▁processes	-10.1419
▁Cal	-10.1428
▁인력	-10.1432
▁technique	-10.1432
▁모르	-10.1432
▁status	-10.1433
}	-10.1438
▁independent	-10.1439
▁교	-10.1444
▁mice	-10.1444
▁character	-10.1444
▁조금	-10.1455
▁treated	-10.146
▁hospital	-10.1468
▁moving	-10.1469
▁European	-10.1479
▁Such	-10.1481
▁activities	-10.1484
▁팬	-10.1485
▁밤	-10.149
▁College	-10.1497
▁reduce	-10.1503
▁dark	-10.1504
off	-10.1509
▁parents	-10.1509
▁seven	-10.151
▁수요	-10.1511
란	-10.1515
▁China	-10.1517
▁@	-10.1521
▁closed	-10.1525
▁아시아	-10.1532
term	-10.1533
쪽	-10.1535
▁onto	-10.154
▁appropriate	-10.1545
▁시기	-10.1553
▁희망	-10.156
▁최초	-10.1564
▁currently	-10.1571
▁그런데	-10.1576
▁formula	-10.1578
▁유통	-10.1578
▁Na	-10.1581
품	-10.1582
▁River	-10.1584
▁생명	-10.1593
▁lack	-10.1601
▁testimony	-10.161
for	-10.1612
▁sleep	-10.1615
▁du	-10.1625
▁agent	-10.1626
▁주목	-10.1626
▁왜	-10.1627
▁easy	-10.1633
▁reasonable	-10.1634
▁denied	-10.1643
▁뉴스	-10.1643
▁최종	-10.1652
▁언론	-10.1656
▁규제	-10.1665
▁보였	-10.167
▁situation	-10.1672
▁pattern	-10.1676
▁hope	-10.1682
▁ready	-10.1683
▁회복	-10.1686
▁resulting	-10.1689
ted	-10.1693
ance	-10.1693
복	-10.1693
▁제대로	-10.1693
초	-10.1701
넣	-10.1704
▁구체	-10.1704
▁argument	-10.171
▁무료	-10.171
Can	-10.1711
▁공격	-10.1712
▁커	-10.1712
▁봉사	-10.1714
▁notice	-10.1718
▁어린이	-10.1725
▁소재	-10.1725
▁overall	-10.1727
ol	-10.1729
ful	-10.1737
▁민주	-10.1745
▁알려졌	-10.1746
▁focus	-10.1748
순	-10.175
▁학습	-10.1753
▁디	-10.1754
led	-10.1755
▁race	-10.1755
▁finding	-10.1758
▁fall	-10.1758
▁shot	-10.1762
락	-10.1762
▁influence	-10.1763
▁대신	-10.1763
▁투	-10.1765
▁critical	-10.1772
▁seems	-10.1774
con	-10.1781
▁Of	-10.1783
▁meeting	-10.1786
▁environment	-10.1787
▁carried	-10.1795
▁부동산	-10.1797
▁binding	-10.1801
▁경기도	-10.1801
▁noted	-10.1804
▁보유	-10.1804
▁recently	-10.1808
남	-10.1809
Q	-10.181
▁거의	-10.1814
설	-10.1816
환	-10.1822
▁재정	-10.1825
▁Michael	-10.1827
▁block	-10.1828
▁스포츠	-10.1833
▁Con	-10.1835
▁East	-10.1844
▁conduct	-10.185
▁functional	-10.1855
▁How	-10.1857
▁continue	-10.1861
생	-10.1863
▁티	-10.187
▁containing	-10.1875
▁bed	-10.1878
▁directed	-10.1881
When	-10.1888
▁deep	-10.189
▁holding	-10.1894
절	-10.1895
▁expected	-10.19
▁tax	-10.19
▁machine	-10.1902
▁개혁	-10.1907
▁More	-10.1907
▁input	-10.191
▁storage	-10.191
▁어려운	-10.1911
▁guys	-10.1913
▁poor	-10.1922
▁connection	-10.1928
▁Robert	-10.1929
▁fluid	-10.1944
▁consider	-10.1948
▁Supreme	-10.195
▁yourself	-10.1953
▁wait	-10.1953
▁England	-10.1955
▁quickly	-10.1957
be	-10.1958
▁테	-10.196
▁출신	-10.1965
▁defined	-10.1971
▁차원	-10.1975
▁Mar	-10.1986
▁보내	-10.1987
▁광	-10.1987
ial	-10.1999
go	-10.2013
mo	-10.2017
▁핵	-10.2017
▁signals	-10.2022
▁capacity	-10.2023
▁Field	-10.2023
양	-10.2026
▁article	-10.203
▁variety	-10.2031
▁providing	-10.2031
▁motor	-10.2041
▁election	-10.2042
▁Board	-10.2047
▁individuals	-10.2047
▁answer	-10.2049
▁확산	-10.206
▁석	-10.2064
▁판	-10.2064
▁통	-10.2065
▁approximately	-10.2068
▁더라도	-10.2073
▁반응	-10.2074
▁향상	-10.2076
▁opening	-10.2079
▁fight	-10.2088
업	-10.2088
▁remains	-10.2089
▁stand	-10.209
▁지지	-10.2093
▁OF	-10.2099
▁행동	-10.2099
▁announced	-10.21
▁제외	-10.2104
▁component	-10.211
▁rates	-10.2121
▁France	-10.2122
효율	-10.2124
▁agents	-10.2126
▁official	-10.2127
▁administration	-10.213
▁향후	-10.2131
▁improve	-10.2135
▁judge	-10.2148
▁husband	-10.2155
▁현상	-10.2156
▁라도	-10.2157
▁인정	-10.216
▁리그	-10.2161
▁throughout	-10.2164
▁출연	-10.2167
▁변경	-10.2168
▁referred	-10.2169
▁독일	-10.217
▁eight	-10.2171
▁암	-10.2176
▁심사	-10.2184
▁letter	-10.2186
Your	-10.2187
im	-10.2193
▁relative	-10.2194
▁설계	-10.2197
▁statute	-10.2199
▁gun	-10.2207
▁소리	-10.2208
▁조건	-10.2208
▁루	-10.2209
▁reasons	-10.2213
▁sometimes	-10.2214
▁이미지	-10.2216
▁쪽	-10.2216
▁arm	-10.2221
▁이것	-10.2222
▁축제	-10.2225
ive	-10.2226
▁하락	-10.2228
▁differences	-10.2231
▁너	-10.2246
▁행	-10.2247
▁지수	-10.2248
▁제안	-10.2249
▁긴	-10.2251
▁raised	-10.2257
▁%,	-10.2273
▁theory	-10.2277
▁Ca	-10.2278
▁추	-10.2279
▁Now	-10.2283
여	-10.2285
▁훈련	-10.2286
▁beyond	-10.2289
li	-10.2291
▁시켜	-10.2293
▁recorded	-10.2296
▁everyone	-10.2299
▁;	-10.23
▁Company	-10.2308
▁offer	-10.2308
▁increasing	-10.231
▁Pro	-10.2311
▁죽	-10.2315
▁combination	-10.232
▁보장	-10.2321
▁nor	-10.2321
▁부모	-10.2324
ny	-10.2326
▁즉	-10.233
주의	-10.2334
▁sufficient	-10.2336
der	-10.2338
▁facts	-10.234
▁track	-10.2348
▁India	-10.2349
▁mm	-10.2351
▁추천	-10.2352
▁north	-10.236
▁recording	-10.2361
io	-10.2382
▁bone	-10.2389
For	-10.239
▁자치	-10.2394
▁기초	-10.2395
▁가진	-10.2397
▁der	-10.2398
▁characteristics	-10.2412
▁sequence	-10.2412
ana	-10.2413
▁genes	-10.2415
▁모바일	-10.2417
▁digital	-10.2425
▁회담	-10.2427
▁키	-10.2429
▁completely	-10.2434
▁인가	-10.2435
▁engine	-10.2447
▁appellant	-10.2455
▁break	-10.2455
▁지도	-10.2461
▁올림픽	-10.2469
▁"♪	-10.248
▁appears	-10.2481
작	-10.2482
▁유치	-10.2483
▁pretty	-10.2497
▁costs	-10.2501
▁entered	-10.2501
▁measured	-10.2506
▁Go	-10.2508
▁education	-10.2517
▁seemed	-10.2524
ite	-10.2525
향	-10.2525
▁stress	-10.2526
▁couple	-10.2529
▁완전	-10.2529
▁청와대	-10.2531
▁modern	-10.2532
▁female	-10.254
▁functions	-10.255
▁safety	-10.2553
▁출	-10.2555
▁chance	-10.2556
▁노인	-10.2561
▁으로부터	-10.2565
▁sea	-10.2568
▁불법	-10.258
▁larger	-10.2581
sub	-10.2591
▁revealed	-10.2597
▁청년	-10.2599
▁\	-10.2602
▁operating	-10.2608
▁특성	-10.2609
▁pass	-10.2611
▁thinking	-10.2615
에	-10.2618
▁밖에	-10.2623
▁takes	-10.2623
▁만든	-10.2625
▁협상	-10.2627
일자리	-10.2627
▁축구	-10.2629
▁football	-10.2631
▁distance	-10.2633
▁소득	-10.2634
▁concentration	-10.2635
▁sex	-10.2641
▁majority	-10.2643
▁민	-10.2643
▁ratio	-10.2645
▁꿈	-10.2657
▁Red	-10.2659
령	-10.2663
▁Most	-10.2687
▁regarding	-10.2688
▁인구	-10.2688
▁결	-10.2692
▁못한	-10.2693
규	-10.2694
▁사전	-10.2697
▁specifically	-10.2698
▁패	-10.2699
▁평화	-10.27
▁compounds	-10.2703
To	-10.2703
▁forces	-10.2707
▁file	-10.2715
▁negative	-10.272
▁useful	-10.272
▁defense	-10.2721
▁주가	-10.2728
▁campaign	-10.2734
▁그동안	-10.2736
ray	-10.2741
▁Union	-10.2741
▁우승	-10.2743
▁international	-10.275
릴	-10.2764
▁sample	-10.2769
▁전쟁	-10.2775
사태	-10.2779
▁church	-10.2787
▁industry	-10.2792
▁협의	-10.2795
▁Group	-10.2795
so	-10.2798
▁finally	-10.2798
▁Not	-10.28
▁fast	-10.28
q	-10.2801
▁professional	-10.2803
▁internal	-10.2803
▁plate	-10.2807
▁upper	-10.2807
▁Even	-10.2807
▁medium	-10.2808
ability	-10.2811
▁semiconductor	-10.2817
▁Don	-10.2817
ri	-10.2819
더	-10.282
▁Thomas	-10.2821
▁drugs	-10.2825
▁host	-10.2837
▁south	-10.2838
▁신규	-10.2845
▁제출	-10.2847
▁건물	-10.2848
ke	-10.2855
▁exposure	-10.2864
▁relevant	-10.2864
▁circumstances	-10.2864
▁무대	-10.2869
▁비율	-10.2878
▁비판	-10.288
▁contrast	-10.288
▁serious	-10.2882
▁paid	-10.2884
▁players	-10.2884
▁원인	-10.2886
▁check	-10.2886
ak	-10.2887
▁자세	-10.2887
▁공부	-10.2897
▁culture	-10.2901
▁match	-10.2903
field	-10.2908
▁덕	-10.2909
▁논란	-10.2911
▁equipment	-10.2912
▁kept	-10.2916
▁듣	-10.2918
▁receive	-10.292
▁joined	-10.2921
ex	-10.2929
end	-10.2933
▁behavior	-10.2933
▁Black	-10.2938
▁plant	-10.2939
▁창	-10.2939
▁detection	-10.2942
sen	-10.2942
▁double	-10.2943
▁절차	-10.2945
▁passed	-10.2948
▁전북	-10.295
▁농업	-10.2951
▁countries	-10.2959
▁mid	-10.2965
반	-10.2969
▁스스	-10.297
▁com	-10.2977
온	-10.2978
▁울산	-10.2985
▁등장	-10.2989
▁male	-10.2992
▁infection	-10.2993
▁immediately	-10.2998
▁대화	-10.3001
▁middle	-10.3005
▁Council	-10.3006
▁곡	-10.3011
▁홈	-10.3017
▁appear	-10.302
▁특징	-10.3026
▁답	-10.3028
▁Air	-10.303
▁forms	-10.3032
▁Smith	-10.3038
▁아래	-10.3042
▁Furthermore	-10.3045
▁popular	-10.3051
▁경남	-10.3053
▁속도	-10.3058
▁photo	-10.306
▁상담	-10.306
▁request	-10.3063
▁beginning	-10.3065
객	-10.3071
루	-10.3073
▁baby	-10.3076
▁director	-10.3076
▁Judge	-10.3083
▁defendants	-10.3084
▁reduction	-10.3084
▁path	-10.3087
▁Circuit	-10.3089
▁다만	-10.3092
▁컴퓨터	-10.3094
▁hot	-10.3098
▁당국	-10.3099
▁volume	-10.3108
난	-10.3113
▁프로젝트	-10.312
▁investigation	-10.3122
▁무역	-10.3124
▁glass	-10.313
way	-10.3131
▁whom	-10.3141
▁유명	-10.3143
▁television	-10.3144
▁Other	-10.3153
lo	-10.3154
▁à	-10.3158
▁Under	-10.3158
▁콘텐츠	-10.3158
▁지식	-10.316
▁창업	-10.3161
▁clearly	-10.3163
▁대학교	-10.3166
▁촬영	-10.3169
▁writing	-10.3175
▁safe	-10.3177
▁electronic	-10.3183
▁$\	-10.3189
▁List	-10.3198
▁easily	-10.32
▁여전	-10.3204
▁민간	-10.3209
▁아서	-10.3209
▁더불	-10.3212
▁연기	-10.3217
집	-10.3221
▁hell	-10.3225
▁animals	-10.323
▁III	-10.3244
▁불과	-10.325
▁영어	-10.3252
▁density	-10.3257
목	-10.3259
▁jurisdiction	-10.3266
▁intended	-10.3268
▁가입	-10.3269
▁탈	-10.3271
▁Another	-10.3278
▁truth	-10.3279
▁이사	-10.328
▁질문	-10.3281
▁supply	-10.3282
▁poly	-10.3284
min	-10.3285
▁leaving	-10.3285
▁공유	-10.329
▁아들	-10.3291
▁responsible	-10.3292
▁strength	-10.3296
▁Church	-10.3297
▁담당	-10.3299
▁Association	-10.3304
다는	-10.3304
▁units	-10.331
승	-10.331
▁Further	-10.3312
ham	-10.3312
▁초등	-10.3324
▁Congress	-10.3325
▁lives	-10.3331
▁경쟁력	-10.3338
Did	-10.3339
▁체제	-10.3344
▁maybe	-10.335
▁issued	-10.3354
▁surgery	-10.336
▁항공	-10.3364
ent	-10.3365
▁sentence	-10.3366
▁선물	-10.337
▁Cup	-10.337
▁남북	-10.3371
▁staff	-10.3376
▁Press	-10.3379
▁blue	-10.3386
▁Party	-10.3386
▁removed	-10.3387
▁becomes	-10.3396
▁images	-10.3397
▁occurred	-10.3402
봉	-10.3409
▁근무	-10.3413
개	-10.3414
▁Division	-10.3419
▁러시아	-10.3422
ina	-10.3425
▁plasma	-10.3425
▁개정	-10.3427
열	-10.3437
▁Texas	-10.3442
▁thereby	-10.3442
▁basic	-10.3445
▁체결	-10.3446
급	-10.3451
▁nice	-10.3453
▁어려움	-10.3464
▁sign	-10.3465
▁소비	-10.3466
▁분양	-10.3469
▁controlled	-10.3475
type	-10.3478
▁방지	-10.3479
▁spent	-10.348
▁파악	-10.3488
▁seat	-10.3496
▁mg	-10.35
▁nearly	-10.3508
▁홈페이지	-10.3519
▁특	-10.3531
▁imaging	-10.3533
▁signed	-10.3534
▁이벤트	-10.3536
▁fuel	-10.3536
▁Peter	-10.3548
행	-10.3551
▁success	-10.3552
▁드라마	-10.3557
▁successful	-10.3561
▁da	-10.3564
달	-10.3567
▁Ex	-10.3568
▁Lord	-10.3571
ya	-10.3573
▁structures	-10.3574
▁actions	-10.3574
▁기자	-10.3581
▁덧붙였	-10.359
▁Car	-10.3591
▁electrical	-10.3592
▁려고	-10.3597
▁remained	-10.3599
▁업	-10.36
▁끌	-10.3603
▁수상	-10.3604
▁watch	-10.3606
▁demonstrated	-10.3606
▁일상	-10.3612
▁나왔	-10.3616
▁criminal	-10.3619
▁Mo	-10.3626
▁얘기	-10.3627
▁allows	-10.363
▁frame	-10.3634
▁Moreover	-10.3637
▁ran	-10.3638
▁driving	-10.3638
▁reading	-10.3638
축	-10.3639
▁론	-10.364
▁core	-10.3646
▁취업	-10.3647
▁trust	-10.3649
side	-10.3654
ung	-10.3654
▁para	-10.3659
▁Canada	-10.3664
ek	-10.3666
▁Army	-10.3673
▁ha	-10.3674
▁remain	-10.3675
▁completed	-10.3676
▁키로	-10.3678
▁fully	-10.368
induced	-10.3686
▁Pre	-10.3686
▁레	-10.3687
▁고민	-10.3693
▁samples	-10.3694
▁특정	-10.3695
▁attorney	-10.3696
▁conducted	-10.3701
▁Chinese	-10.3708
▁Plaintiff	-10.3709
▁누리	-10.3711
▁이루	-10.3714
▁기사	-10.3716
▁ship	-10.372
변	-10.372
▁지나	-10.372
▁protection	-10.3722
▁졌	-10.3724
▁People	-10.3728
▁sites	-10.3736
▁operations	-10.3738
▁cold	-10.3755
▁trade	-10.3764
▁unique	-10.3765
▁수업	-10.3768
▁꽃	-10.3771
▁serve	-10.3784
▁attempt	-10.3786
▁giving	-10.3788
*	-10.3793
Then	-10.3797
ence	-10.3798
ger	-10.3803
ng	-10.3804
▁변	-10.3805
▁happy	-10.3806
▁공항	-10.3809
▁확정	-10.3809
mer	-10.3809
▁귀	-10.381
▁choice	-10.3813
▁etc	-10.3821
▁share	-10.3823
▁마케팅	-10.3825
▁Defendant	-10.3828
▁happen	-10.3829
▁membrane	-10.3829
▁신문	-10.3836
▁perform	-10.3839
▁mouth	-10.384
▁par	-10.3844
ov	-10.385
▁author	-10.3853
▁Ma	-10.3857
▁standing	-10.3861
▁공정	-10.3867
▁Also	-10.3869
▁장비	-10.3872
▁activation	-10.3873
저	-10.3876
▁에선	-10.3877
▁relief	-10.3883
할	-10.3883
▁shape	-10.3885
▁자산	-10.3887
▁sold	-10.3891
ga	-10.3893
▁reach	-10.3893
▁ring	-10.3894
▁Australia	-10.3897
졌	-10.3897
▁롯데	-10.3898
▁그대로	-10.3898
▁Europe	-10.3898
▁supported	-10.39
▁거쳐	-10.39
록	-10.3903
▁goes	-10.3907
▁Mark	-10.3917
▁regions	-10.3924
].	-10.3928
▁window	-10.3928
▁디지털	-10.3932
▁Both	-10.3938
related	-10.3939
▁기억	-10.394
▁alleged	-10.3941
▁부정	-10.3954
▁주도	-10.3955
ci	-10.3961
▁누	-10.3962
▁는가	-10.3962
▁Indian	-10.3968
▁스럽	-10.3971
▁들어가	-10.3971
▁바탕	-10.3975
▁남성	-10.3975
▁subjects	-10.3977
▁rules	-10.3982
ING	-10.3984
▁•	-10.3987
▁영역	-10.3988
▁authority	-10.3995
▁프랑스	-10.3997
▁procedure	-10.4
▁Hall	-10.4002
▁인한	-10.4006
▁store	-10.4007
▁capable	-10.4016
▁summary	-10.4017
▁introduced	-10.4019
배	-10.4019
▁learn	-10.4032
▁봤	-10.4034
▁generated	-10.4036
▁골프	-10.4041
▁entitled	-10.4046
▁친	-10.4048
▁animal	-10.4048
dy	-10.4055
각	-10.406
▁economic	-10.4062
▁값	-10.4067
▁총리	-10.4069
▁몰	-10.4075
▁소통	-10.4084
we	-10.4084
▁corresponding	-10.4084
▁불구	-10.4088
▁셨	-10.4088
▁heavy	-10.409
▁느냐	-10.4092
▁assembly	-10.4094
▁정당	-10.4096
▁actual	-10.4096
▁냐	-10.4096
투	-10.4097
tic	-10.41
ac	-10.4106
▁officers	-10.4113
▁finished	-10.4118
ard	-10.4118
▁Per	-10.4125
▁노래	-10.4127
Re	-10.4131
▁occur	-10.4145
▁establish	-10.4146
▁Bar	-10.4146
▁except	-10.4155
▁Am	-10.4161
▁격	-10.4164
▁사망	-10.4165
▁edge	-10.4165
▁existing	-10.4168
▁causes	-10.417
▁desired	-10.4175
▁버스	-10.4179
▁carbon	-10.418
▁arms	-10.4184
▁오히	-10.4187
▁전반	-10.4188
▁piece	-10.4192
▁선발	-10.4199
▁walk	-10.4202
▁testified	-10.4204
▁강력	-10.4205
les	-10.4205
▁처	-10.4211
▁Brown	-10.4212
▁Many	-10.4213
▁seem	-10.4217
▁k	-10.4218
▁을까	-10.4225
▁genetic	-10.4229
▁만족	-10.4231
ze	-10.4231
▁offered	-10.4233
브	-10.4235
▁fixed	-10.4236
▁testing	-10.4238
▁연속	-10.4238
▁웹	-10.4241
que	-10.4241
못	-10.4243
▁complaint	-10.4258
▁numbers	-10.426
격	-10.4262
▁page	-10.4262
▁receiving	-10.4263
▁계기	-10.4263
▁speak	-10.4264
▁Code	-10.4267
▁시도	-10.4267
▁Health	-10.427
▁hour	-10.4275
▁점검	-10.4284
덕	-10.4289
▁Accordingly	-10.4289
속	-10.4293
▁아동	-10.4293
▁crime	-10.4301
▁법인	-10.4308
▁술	-10.4309
▁composition	-10.4311
▁meaning	-10.4312
▁베	-10.432
▁sister	-10.432
▁build	-10.4321
▁어디	-10.4324
▁fell	-10.4328
▁avoid	-10.433
▁봉	-10.433
▁opportunity	-10.4331
ster	-10.4333
po	-10.4336
▁older	-10.4336
그	-10.4337
▁En	-10.4339
▁삼성전자	-10.434
탄	-10.4345
▁transport	-10.4345
▁대선	-10.4346
ase	-10.4346
▁records	-10.4352
▁전년	-10.4354
▁green	-10.4359
▁mode	-10.436
▁검색	-10.4361
▁obtain	-10.4364
음	-10.4372
▁steps	-10.4373
sh	-10.4375
▁극	-10.4379
▁companies	-10.438
▁protect	-10.4381
▁price	-10.4396
▁Charles	-10.4399
렸	-10.4399
▁showing	-10.4406
▁expressed	-10.4409
▁contains	-10.4412
▁electric	-10.4415
▁feeling	-10.4416
▁stood	-10.4423
▁중단	-10.4429
▁herself	-10.4432
▁solid	-10.4434
▁충북	-10.4435
▁increases	-10.4447
▁투표	-10.4449
▁땅	-10.445
항	-10.4452
As	-10.4456
▁equal	-10.446
▁otherwise	-10.4466
▁prepared	-10.4466
▁trans	-10.447
▁wants	-10.447
▁suggested	-10.447
▁combined	-10.4474
▁employed	-10.4476
▁figure	-10.4488
▁message	-10.449
Please	-10.449
▁Western	-10.4502
ier	-10.4507
▁minute	-10.4517
▁challenge	-10.4519
▁ways	-10.4523
▁목소	-10.4524
▁언제	-10.4535
gen	-10.4537
▁Institute	-10.4537
▁종목	-10.454
▁muscle	-10.4545
▁regulation	-10.455
if	-10.4551
▁gate	-10.4552
▁이달	-10.4553
▁원장	-10.4553
▁요인	-10.4554
▁tool	-10.4556
▁Patent	-10.4563
▁substantial	-10.4564
▁proper	-10.4567
▁rats	-10.4569
▁시청	-10.4571
▁believed	-10.4581
▁determination	-10.4583
했	-10.4583
채	-10.4585
▁note	-10.4586
▁mobile	-10.4589
▁users	-10.4593
▁financial	-10.4594
▁website	-10.4596
▁sources	-10.4601
▁exercise	-10.4603
▁투입	-10.4604
▁apply	-10.4606
▁Green	-10.4609
▁starting	-10.4611
▁exactly	-10.4611
▁agreed	-10.4616
pro	-10.4621
▁태	-10.4624
▁범죄	-10.4628
▁sexual	-10.463
▁감염	-10.4633
ko	-10.4634
▁펀드	-10.4635
ah	-10.4636
▁uses	-10.464
▁chronic	-10.4654
▁und	-10.4658
rd	-10.4659
▁chemical	-10.4659
▁investigate	-10.467
▁메	-10.4671
▁diagnosis	-10.4671
▁regular	-10.4679
▁measure	-10.4681
▁effort	-10.4682
▁fear	-10.4682
▁신용	-10.4685
▁류	-10.4688
▁murder	-10.469
▁육성	-10.4691
책	-10.4691
▁commercial	-10.4693
▁sat	-10.4695
▁cm	-10.4697
▁비중	-10.4702
악	-10.4702
▁소식	-10.4702
izing	-10.4706
▁abuse	-10.4706
▁아침	-10.4713
▁traditional	-10.4718
▁Law	-10.4725
▁write	-10.4726
▁sort	-10.4727
▁장소	-10.473
▁stopped	-10.4731
▁의식	-10.4731
▁Bank	-10.4732
▁electrode	-10.4732
▁plurality	-10.4734
▁의혹	-10.4735
▁responses	-10.4744
▁housing	-10.475
▁인수	-10.4752
▁les	-10.4759
▁organization	-10.4762
▁인근	-10.4763
▁waiting	-10.4764
▁looks	-10.4768
▁picture	-10.4776
ti	-10.4779
▁diseases	-10.4784
▁families	-10.4785
▁cycle	-10.4785
ize	-10.4785
▁신뢰	-10.4785
▁설정	-10.4786
▁eventually	-10.4793
▁Un	-10.4795
▁지사	-10.4798
▁Bo	-10.4798
▁books	-10.4803
▁Rule	-10.4803
▁extent	-10.4804
▁승리	-10.4804
va	-10.4808
▁extra	-10.4809
▁parameters	-10.4817
ning	-10.482
▁text	-10.4823
▁졸업	-10.4826
▁street	-10.4831
ship	-10.4831
▁Sa	-10.4833
▁이끌	-10.4834
▁진단	-10.4835
범	-10.4836
▁liver	-10.4838
▁실제로	-10.484
Hi	-10.484
all	-10.4842
▁bottom	-10.4843
▁경북	-10.4843
▁cellular	-10.4854
▁터	-10.4854
언	-10.4857
ber	-10.4857
ey	-10.4858
▁x	-10.4859
▁충남	-10.4867
▁아주	-10.4868
▁del	-10.4869
▁자본	-10.4872
▁smaller	-10.4877
▁시절	-10.4882
▁힘들	-10.4887
▁그림	-10.4888
▁金	-10.4889
▁daily	-10.4891
▁주문	-10.4892
bar	-10.4895
▁summer	-10.4901
▁매년	-10.4904
Here	-10.4904
▁Second	-10.4912
▁법률	-10.4916
▁discussed	-10.4919
▁구속	-10.4926
▁panel	-10.4928
곡	-10.4928
▁benefits	-10.4929
▁다르	-10.494
▁African	-10.494
▁●	-10.4941
▁feature	-10.4945
▁Mary	-10.4949
▁연계	-10.4951
▁외부	-10.4957
ford	-10.4957
▁programs	-10.496
▁benefit	-10.4965
▁농	-10.4972
▁구입	-10.4973
▁essential	-10.4974
▁인도	-10.4976
▁generation	-10.4978
▁capital	-10.4979
▁rock	-10.4987
아내	-10.4989
▁가량	-10.4989
▁chain	-10.499
▁granted	-10.499
▁bank	-10.4991
▁indicate	-10.4992
▁therapeutic	-10.4994
▁duty	-10.4994
wood	-10.4997
▁thin	-10.5
▁얼굴	-10.5001
▁induced	-10.5001
▁건축	-10.5001
▁금액	-10.5004
▁아버지	-10.5013
▁+/-	-10.5015
▁불편	-10.5023
▁card	-10.5024
▁box	-10.5028
lan	-10.5033
▁결혼	-10.5035
▁Russian	-10.5036
▁표시	-10.5038
▁detected	-10.5038
▁vivo	-10.5041
▁네트워크	-10.5045
담	-10.5048
ow	-10.5049
▁스마트	-10.5049
▁전남	-10.5051
▁노조	-10.5057
▁달성	-10.5057
▁dose	-10.5065
▁HIV	-10.5068
다며	-10.5069
▁근	-10.5069
ron	-10.5073
ene	-10.5074
▁income	-10.5077
bo	-10.5082
▁despite	-10.5089
▁Pa	-10.509
▁따	-10.509
▁임금	-10.5092
▁vitro	-10.5093
츠	-10.5096
▁러	-10.5102
▁requirements	-10.5104
▁요소	-10.5112
▁꼭	-10.5113
▁indicated	-10.5113
▁느낌	-10.5116
▁disclosed	-10.5117
▁물질	-10.5119
|	-10.512
▁resources	-10.5122
▁의장	-10.5123
▁보수	-10.5123
▁software	-10.5127
▁♪"	-10.5129
▁Germany	-10.5132
▁Research	-10.5134
▁미치	-10.5135
▁reports	-10.5135
▁그녀	-10.5137
▁collection	-10.5144
▁말씀	-10.5144
▁Each	-10.5146
▁pair	-10.5151
▁Commission	-10.5153
▁정확	-10.5154
▁Finally	-10.5158
▁Royal	-10.5158
▁기여	-10.5159
▁했으나	-10.5159
▁Government	-10.5166
▁Richard	-10.517
▁favor	-10.5171
▁ne	-10.5173
암	-10.5175
▁examined	-10.5176
▁beautiful	-10.5176
ible	-10.5178
▁foreign	-10.5179
▁재판	-10.5179
▁alternative	-10.518
▁forming	-10.5181
▁fun	-10.5185
▁travel	-10.5187
▁교육청	-10.5188
▁필	-10.5191
▁severe	-10.5208
▁guess	-10.5212
▁virus	-10.5215
▁언급	-10.5216
▁집단	-10.5227
링	-10.5228
▁사상	-10.5229
▁도전	-10.5234
▁범	-10.5235
▁purposes	-10.5237
▁survival	-10.524
▁홀	-10.5241
▁피부	-10.5255
▁비슷	-10.526
▁gold	-10.5261
▁style	-10.5261
▁remaining	-10.5266
not	-10.5268
▁통과	-10.5272
▁시각	-10.5273
자녀	-10.5275
▁shit	-10.5276
▁Ben	-10.5277
▁screen	-10.5279
▁limit	-10.5281
는	-10.5284
▁차별	-10.5297
▁covered	-10.5308
거리	-10.5314
▁찍	-10.5315
specific	-10.5318
▁기념	-10.5318
▁petition	-10.5321
▁위반	-10.5324
▁측면	-10.5327
▁acute	-10.5329
▁maximum	-10.533
ig	-10.5332
▁Japan	-10.5337
▁동물	-10.5339
▁개념	-10.5339
▁%),	-10.5341
▁전혀	-10.5345
▁UK	-10.5345
▁심각	-10.535
▁association	-10.5353
▁star	-10.5354
▁색	-10.5358
▁배경	-10.5363
▁noise	-10.5364
▁Can	-10.5366
▁ahead	-10.5369
▁context	-10.5373
▁subsequent	-10.5374
▁재산	-10.5375
▁스마트폰	-10.5376
ver	-10.5377
▁compound	-10.5378
ven	-10.5379
▁한나라	-10.538
▁Mrs	-10.5386
▁decreased	-10.5388
&	-10.5393
▁teams	-10.5396
▁efforts	-10.5396
▁Martin	-10.5397
▁terminal	-10.5399
▁dog	-10.5401
▁정비	-10.5404
▁둔	-10.5408
▁press	-10.5411
취	-10.5411
▁나이	-10.5414
▁secondary	-10.5414
버	-10.5415
sa	-10.5416
▁재단	-10.5417
▁setting	-10.5419
표	-10.542
▁여름	-10.542
런	-10.542
▁인물	-10.5423
▁plaintiffs	-10.5424
▁explained	-10.5426
주로	-10.5429
▁Award	-10.5432
▁전력	-10.5433
▁super	-10.5436
▁Lee	-10.5437
▁Di	-10.5437
▁복	-10.5439
▁rise	-10.5441
▁해석	-10.5441
▁highest	-10.5441
▁인증	-10.5449
▁Before	-10.5449
▁오른	-10.5453
ho	-10.5455
▁안내	-10.5456
져	-10.5464
▁나타나	-10.5467
년	-10.5473
▁ball	-10.5474
▁므로	-10.5482
▁suit	-10.5485
▁Central	-10.5493
▁요즘	-10.5498
▁charged	-10.5505
▁award	-10.5506
▁연구소	-10.5508
▁만드	-10.551
▁achieved	-10.551
▁adult	-10.5511
▁represented	-10.5514
▁Australian	-10.5516
▁Jack	-10.5518
▁배치	-10.552
mi	-10.5525
래	-10.5526
▁science	-10.5533
입	-10.5535
▁정리	-10.5535
▁meant	-10.5538
▁thereof	-10.5538
▁lived	-10.5539
▁developing	-10.5544
▁Se	-10.5544
▁save	-10.5553
▁laser	-10.5555
▁achieve	-10.5556
▁Road	-10.5561
▁vs	-10.5567
▁나섰	-10.5569
▁kg	-10.5569
▁straight	-10.5571
▁score	-10.5573
▁Federal	-10.5577
▁실천	-10.5579
▁aim	-10.5581
▁Day	-10.5588
▁learning	-10.5593
▁driver	-10.5599
well	-10.5607
▁려	-10.5608
▁순간	-10.5608
▁Ho	-10.562
▁wherein	-10.5621
▁scene	-10.5621
▁내놓	-10.5622
▁법원	-10.5623
▁valve	-10.5623
▁존	-10.5624
▁perhaps	-10.5632
▁pulled	-10.5633
▁잠	-10.5641
Maybe	-10.5642
▁작성	-10.5642
▁college	-10.5643
▁stuff	-10.5646
▁leader	-10.5658
▁Section	-10.5663
.""	-10.5666
▁자동	-10.5669
▁보고서	-10.5669
her	-10.5671
▁plans	-10.5675
▁소유	-10.5676
▁숨	-10.5677
▁망	-10.5677
▁Minister	-10.5678
▁Sam	-10.5679
▁patent	-10.5686
▁argues	-10.5688
▁fourth	-10.5688
▁crystal	-10.5688
▁load	-10.5689
▁창출	-10.569
백	-10.569
▁해소	-10.5691
▁확실	-10.5692
▁symptoms	-10.5694
ville	-10.5695
▁선언	-10.5696
see	-10.5698
▁최저	-10.5703
▁TO	-10.5706
▁w	-10.5707
▁봄	-10.5713
but	-10.5718
▁할인	-10.5722
}$	-10.5727
▁작용	-10.573
▁Bay	-10.5736
▁겨울	-10.5737
▁bio	-10.5738
▁exist	-10.5738
▁Paris	-10.574
꾸	-10.5741
▁girls	-10.5743
▁forced	-10.5747
▁깊	-10.575
▁혜택	-10.5751
▁mental	-10.5751
▁delivery	-10.5752
▁supra	-10.5752
?'	-10.5754
ped	-10.5756
▁최소	-10.5757
▁Society	-10.5768
▁작년	-10.577
>	-10.5771
▁임대	-10.5772
í	-10.5776
▁요금	-10.578
▁rat	-10.578
▁여야	-10.5783
▁느끼	-10.5783
ide	-10.5784
▁haven	-10.5785
▁occurs	-10.5787
▁낸	-10.5788
▁접수	-10.5791
▁eat	-10.5801
ee	-10.5804
▁Henry	-10.5804
▁반드시	-10.5812
▁agree	-10.5813
▁mine	-10.5815
훈	-10.5818
▁burden	-10.5821
▁workers	-10.5824
▁마치	-10.5826
▁proposal	-10.5826
▁global	-10.5835
▁follows	-10.5835
▁Ver	-10.5836
▁Lake	-10.5838
▁Ar	-10.5839
▁foot	-10.584
▁kids	-10.5842
ba	-10.5844
▁investigated	-10.5844
▁scale	-10.5855
▁서울시	-10.5856
▁growing	-10.5856
▁Li	-10.586
▁claimed	-10.5862
▁affected	-10.5863
▁exchange	-10.5867
▁Your	-10.5873
▁buy	-10.5876
▁완	-10.5877
▁머리	-10.5886
▁employees	-10.5888
▁concentrations	-10.5892
▁이곳	-10.5894
▁pick	-10.5897
▁금지	-10.5907
▁ordered	-10.5911
▁constant	-10.5917
▁특허	-10.5918
La	-10.5918
▁알려	-10.5921
▁efficiency	-10.5935
▁absence	-10.5938
▁conclusion	-10.5945
▁갈등	-10.5954
▁발언	-10.5955
▁touch	-10.5959
▁affect	-10.596
▁immune	-10.5965
ED	-10.5968
▁beam	-10.5969
▁최선	-10.5976
Uh	-10.5977
ino	-10.5977
▁unless	-10.5978
▁Bill	-10.5979
▁모집	-10.5981
▁walked	-10.5982
▁appearance	-10.5987
▁maintain	-10.5988
▁properly	-10.5993
▁controls	-10.5995
One	-10.5996
▁command	-10.5997
▁hundred	-10.5998
▁빈	-10.6008
▁Committee	-10.6008
▁inner	-10.6011
▁Great	-10.6012
▁correct	-10.6013
▁measures	-10.6014
▁visit	-10.6015
▁interaction	-10.6017
▁교류	-10.6021
▁Tom	-10.6025
▁brief	-10.6026
▁resolution	-10.6033
▁품질	-10.6035
▁prove	-10.6039
▁suitable	-10.6041
▁add	-10.6049
▁contained	-10.605
▁Christian	-10.6058
▁train	-10.6061
▁secret	-10.6061
▁flat	-10.607
▁counter	-10.6074
▁쯤	-10.6076
▁의무	-10.6077
▁보상	-10.6083
▁society	-10.6085
ut	-10.6089
▁carry	-10.6091
▁Service	-10.6092
Hello	-10.6094
편	-10.6095
▁국립	-10.6103
▁civil	-10.6103
본	-10.6107
pe	-10.6107
▁recognized	-10.6113
Me	-10.6113
▁마무리	-10.6114
▁explain	-10.6114
검	-10.6116
▁얼마나	-10.6117
▁alcohol	-10.6126
▁도내	-10.6128
▁numerous	-10.613
▁약속	-10.6133
▁wish	-10.614
▁학년	-10.6142
ities	-10.6144
▁plus	-10.6146
▁confirmed	-10.615
▁외국	-10.615
▁parallel	-10.6151
▁Los	-10.6152
▁기계	-10.6153
▁확장	-10.6155
▁agency	-10.6158
▁largest	-10.616
▁’(	-10.6164
▁공단	-10.6167
▁supposed	-10.617
▁등급	-10.6171
▁commonly	-10.6172
CH	-10.6172
▁bus	-10.6175
ii	-10.6176
mar	-10.6176
▁discovered	-10.618
▁fish	-10.6181
매	-10.6186
▁student	-10.6188
▁online	-10.6191
▁spread	-10.6195
▁롭	-10.6196
▁연장	-10.6197
결	-10.6197
▁prison	-10.6198
씬	-10.6203
▁Johnson	-10.6204
▁oxygen	-10.6217
▁isolated	-10.6217
등	-10.6217
▁보안	-10.622
▁라인	-10.6221
▁시킬	-10.6221
▁Just	-10.6226
▁particles	-10.6228
▁tested	-10.6232
▁external	-10.6239
▁Over	-10.6244
▁케	-10.6246
▁Canadian	-10.6246
pa	-10.6246
▁spring	-10.6247
▁네요	-10.6248
over	-10.625
▁doubt	-10.6253
▁Frank	-10.6254
▁begin	-10.6255
▁radiation	-10.6256
▁background	-10.6264
▁액	-10.6264
▁Mac	-10.6267
▁hurt	-10.6278
찬	-10.6283
▁joint	-10.629
▁Sir	-10.629
▁enter	-10.6291
데	-10.6291
▁attached	-10.6292
▁화학	-10.6294
▁speech	-10.6296
▁채용	-10.6298
▁여론	-10.6299
▁evaluate	-10.6299
▁interview	-10.6301
▁엄마	-10.6302
▁serum	-10.6302
▁trouble	-10.6303
ab	-10.6305
ology	-10.631
▁그리	-10.6311
▁chamber	-10.6313
▁slow	-10.6318
▁걱정	-10.632
ring	-10.6324
본인	-10.6325
ado	-10.6325
▁근거	-10.6328
▁mentioned	-10.6336
▁sought	-10.6337
▁document	-10.6341
▁chief	-10.6345
▁Let	-10.6348
▁xe	-10.6354
▁상호	-10.6355
ists	-10.6364
▁갔	-10.6375
▁extended	-10.6377
▁Appellant	-10.638
▁CO	-10.6384
▁Ha	-10.6385
▁nine	-10.639
▁보건	-10.6392
▁battle	-10.6396
▁biological	-10.6402
▁plays	-10.6404
▁sheet	-10.6404
▁빛	-10.6409
▁tests	-10.641
으나	-10.6411
▁guilty	-10.6413
▁environmental	-10.6417
tor	-10.6418
ping	-10.6419
▁patterns	-10.6421
au	-10.6427
▁선생	-10.6427
▁묻	-10.6428
▁twenty	-10.6429
▁범위	-10.6436
▁forth	-10.644
▁sit	-10.6442
▁출발	-10.6447
▁환	-10.6448
▁concluded	-10.6451
▁vote	-10.6452
▁latter	-10.6452
▁오래	-10.6454
red	-10.6457
▁Grand	-10.6459
▁빠르	-10.646
▁send	-10.6463
▁체육	-10.6469
▁master	-10.647
▁향	-10.6471
▁철	-10.6474
▁상반	-10.6474
▁lung	-10.6475
ji	-10.6477
tion	-10.6479
▁perfect	-10.6482
Right	-10.649
ez	-10.6493
▁objective	-10.6494
▁예비	-10.6496
▁sun	-10.6499
▁앱	-10.65
숙	-10.6503
▁원칙	-10.6508
렴	-10.6514
ette	-10.6515
▁outcome	-10.6516
▁기타	-10.6519
▁whatever	-10.6522
▁나갈	-10.6522
▁pp	-10.6524
▁Justice	-10.6526
▁plane	-10.6528
don	-10.6528
▁marriage	-10.6529
▁동의	-10.6532
▁초기	-10.6537
kin	-10.6537
▁국토	-10.6539
▁nuclear	-10.6541
▁procedures	-10.6543
ang	-10.6547
▁정권	-10.6548
▁experiments	-10.6548
▁fucking	-10.655
▁birth	-10.6551
▁매장	-10.6553
▁importance	-10.6554
▁역량	-10.6555
▁특수	-10.6559
▁Hill	-10.6559
▁whereas	-10.6561
▁학	-10.6563
▁천만	-10.6569
▁contain	-10.6572
▁stock	-10.6578
▁department	-10.6579
▁Du	-10.658
tri	-10.6588
염	-10.6589
▁기구	-10.6596
▁literature	-10.66
▁Men	-10.66
▁넓	-10.6601
▁올랐	-10.6603
my	-10.6603
▁oral	-10.6604
▁suggests	-10.6607
ita	-10.6609
▁gain	-10.6609
▁yes	-10.661
▁leads	-10.6614
▁estate	-10.6618
▁knows	-10.6626
▁characterized	-10.6629
▁의한	-10.663
▁매수	-10.6634
▁arrived	-10.6635
▁substantially	-10.6637
션	-10.6641
▁gives	-10.6642
ium	-10.6648
▁drink	-10.6648
▁해양	-10.6657
▁¶	-10.6659
▁route	-10.6663
▁wind	-10.6664
▁육	-10.6666
ura	-10.6667
▁한다면	-10.6668
▁organic	-10.6673
▁토지	-10.6676
▁elected	-10.6679
▁긍정	-10.6685
▁매일	-10.6685
▁려면	-10.6693
▁sensor	-10.6706
워	-10.6706
▁east	-10.6709
▁Africa	-10.6709
▁underlying	-10.6711
평	-10.6713
dependent	-10.6714
▁딸	-10.6716
▁films	-10.6718
▁섬	-10.6718
불	-10.6721
▁Best	-10.6721
▁tube	-10.6722
PA	-10.6724
▁Island	-10.6725
▁demonstrate	-10.6727
house	-10.6732
▁Chief	-10.6735
let	-10.6739
▁감정	-10.6745
ja	-10.6746
▁fair	-10.6747
ile	-10.675
▁인터뷰	-10.6752
▁grant	-10.6753
ris	-10.6754
▁experimental	-10.6754
▁연합	-10.6754
▁violation	-10.6755
▁interactions	-10.6757
▁오픈	-10.676
▁gets	-10.6764
▁damages	-10.677
▁세기	-10.677
▁courts	-10.6771
▁broad	-10.6774
▁square	-10.6778
▁selection	-10.6779
▁ᄏᄏᄏ	-10.6779
▁goals	-10.6783
▁integrated	-10.6785
▁river	-10.6787
▁wave	-10.6788
▁cast	-10.679
▁접근	-10.6792
▁appointed	-10.6793
스트	-10.6798
▁혹은	-10.68
▁측정	-10.6801
chi	-10.6802
▁web	-10.6804
▁exposed	-10.6806
▁로운	-10.6808
▁yeah	-10.6811
▁worry	-10.6814
▁offense	-10.6815
▁젊	-10.6815
▁becoming	-10.6815
▁언어	-10.6823
▁버	-10.6825
▁mechanical	-10.6826
▁tree	-10.6828
▁Jones	-10.6832
▁Despite	-10.6835
▁Their	-10.684
▁Club	-10.6842
head	-10.6844
▁협약	-10.6844
▁doctor	-10.6844
▁objects	-10.6848
▁미술	-10.6849
▁hyper	-10.6854
▁demand	-10.6855
▁schools	-10.6857
▁Florida	-10.6859
ó	-10.6861
▁IL	-10.6862
▁replaced	-10.6863
▁mouse	-10.6865
▁복합	-10.6866
▁decrease	-10.6866
네	-10.6867
ou	-10.6867
▁ice	-10.6878
▁시켰	-10.6879
▁곧	-10.6879
▁visual	-10.6882
▁허용	-10.6884
▁위하	-10.6884
je	-10.689
▁올리	-10.6892
▁수단	-10.6892
▁ma	-10.6894
▁acts	-10.6906
iz	-10.6907
▁allowing	-10.6909
▁Si	-10.6909
▁represent	-10.6911
▁수술	-10.6917
▁Vi	-10.692
▁resulted	-10.6921
tro	-10.6928
▁evaluated	-10.6929
▁나무	-10.6932
▁번호	-10.6932
▁대중	-10.6934
▁count	-10.6936
▁전용	-10.6941
▁문학	-10.6944
▁signaling	-10.6947
▁helped	-10.6948
▁통화	-10.695
▁advanced	-10.6954
▁widely	-10.6956
▁assessment	-10.6958
▁removal	-10.696
▁traffic	-10.6961
za	-10.6964
car	-10.6965
▁부품	-10.6965
▁별도	-10.6966
▁총장	-10.6967
▁index	-10.6968
▁예수	-10.6971
▁determining	-10.6974
▁Order	-10.6978
▁approaches	-10.698
▁evaluation	-10.6982
▁진정	-10.6988
era	-10.6989
▁mis	-10.6989
▁메시	-10.699
▁bi	-10.6992
▁recovery	-10.6995
▁structural	-10.6995
▁성적	-10.6998
op	-10.6999
▁tools	-10.7
▁자주	-10.7
▁intervention	-10.7002
▁places	-10.7005
▁telling	-10.701
▁Chapter	-10.7011
▁밀	-10.7011
▁examine	-10.7011
▁west	-10.7021
▁Italian	-10.7027
▁tri	-10.7027
▁beta	-10.7029
팅	-10.7031
▁즈	-10.7031
▁미디어	-10.7032
▁switch	-10.7032
MS	-10.7033
▁인하	-10.7033
▁expect	-10.7034
▁꾸준	-10.7038
▁기기	-10.7038
▁농가	-10.704
▁task	-10.7042
▁식사	-10.7048
Because	-10.7049
▁Su	-10.7049
▁걸쳐	-10.705
▁victim	-10.705
▁intent	-10.7051
▁worth	-10.7052
you	-10.7055
▁Russia	-10.7056
ological	-10.7057
▁su	-10.706
▁synthesis	-10.7063
▁ended	-10.7064
▁토론	-10.7065
▁discharge	-10.7066
▁officials	-10.7073
▁국정	-10.7078
▁port	-10.7078
▁Chicago	-10.7082
ki	-10.7083
▁competition	-10.7092
▁PA	-10.7092
▁delay	-10.7095
uk	-10.71
반도체	-10.7101
▁clean	-10.7104
si	-10.7104
▁bill	-10.711
▁refer	-10.7111
▁coach	-10.7111
▁breast	-10.7118
▁독립	-10.7119
▁advantage	-10.7122
▁나온	-10.7127
울	-10.7131
▁healthy	-10.7133
▁당선	-10.7145
▁학원	-10.7147
▁동일	-10.715
▁outer	-10.7152
▁응답	-10.7154
▁Post	-10.7156
▁발행	-10.7156
▁욕	-10.7159
▁caught	-10.7162
▁수용	-10.7168
▁Life	-10.7171
▁Once	-10.7172
ney	-10.7174
▁frequently	-10.7176
▁완화	-10.7176
와	-10.718
▁movie	-10.7181
▁월드컵	-10.7183
▁cap	-10.7185
▁심리	-10.7186
럼프	-10.7186
ator	-10.7189
▁협의회	-10.7194
▁인생	-10.7195
▁manager	-10.7196
▁candidate	-10.7197
▁파일	-10.72
▁powerful	-10.7201
▁fat	-10.7206
▁army	-10.7209
%,	-10.7209
▁피해자	-10.7211
▁enzyme	-10.7211
▁existence	-10.7218
▁minor	-10.7222
▁handle	-10.7224
▁disorders	-10.7225
▁부여	-10.7225
▁consistent	-10.7227
▁instance	-10.7227
▁iron	-10.7232
cy	-10.7236
▁collected	-10.7238
▁camera	-10.7241
▁독	-10.7245
▁Office	-10.7247
▁인권	-10.7257
Be	-10.7257
▁정의	-10.7257
▁늦	-10.7259
▁entry	-10.7262
▁aircraft	-10.7262
슨	-10.7264
ane	-10.7273
▁proof	-10.7277
▁입주	-10.7279
dis	-10.7281
▁Earth	-10.7281
▁derived	-10.7281
▁정기	-10.7282
▁soft	-10.7286
▁originally	-10.7289
▁mixed	-10.729
▁bag	-10.7292
ik	-10.7299
▁동기	-10.7301
▁울	-10.7302
▁admitted	-10.7304
▁Three	-10.7307
▁카페	-10.7308
▁join	-10.7311
▁발굴	-10.7314
▁insurance	-10.7315
▁understood	-10.7317
Of	-10.7319
송	-10.732
▁charges	-10.7323
▁evening	-10.7326
▁lose	-10.7327
▁sitting	-10.7329
▁documents	-10.733
▁예약	-10.7332
▁opposite	-10.7342
▁계열	-10.7342
▁나누	-10.7342
관광객	-10.7343
▁Ko	-10.7343
▁division	-10.7343
▁earth	-10.7346
▁항상	-10.7347
ada	-10.7347
▁소송	-10.7351
е	-10.7352
▁possibility	-10.7353
▁구글	-10.7357
▁의지	-10.7361
▁Te	-10.7361
▁Lu	-10.7362
▁근로자	-10.7364
▁일단	-10.7368
▁managed	-10.7373
▁calls	-10.7373
▁코리아	-10.7374
▁셈	-10.7377
▁Miss	-10.7381
▁remove	-10.7381
ano	-10.7385
▁Why	-10.7385
▁names	-10.739
▁leg	-10.7391
▁노출	-10.7391
Wait	-10.7396
▁neck	-10.74
▁neither	-10.7403
▁founded	-10.7404
▁통일	-10.7406
▁typical	-10.7407
칭	-10.741
▁discretion	-10.7415
▁assess	-10.7417
▁실험	-10.7419
▁업종	-10.742
▁농협	-10.742
""	-10.7421
▁stories	-10.7421
▁유리	-10.7421
▁Music	-10.7423
▁league	-10.7423
▁Sea	-10.7424
▁Ka	-10.7427
nt	-10.7434
▁hypothesis	-10.7435
▁Museum	-10.7436
that	-10.7438
▁receptors	-10.7441
▁가스	-10.7441
커	-10.7445
▁추정	-10.7446
▁직업	-10.7446
▁맺	-10.7446
▁부장	-10.7447
▁faith	-10.7449
▁fit	-10.7459
bi	-10.7464
▁Par	-10.7464
▁molecules	-10.7465
▁hole	-10.7467
▁자격	-10.7468
▁절대	-10.7469
▁감안	-10.7469
▁incident	-10.747
▁describe	-10.7474
▁alpha	-10.7478
▁arrest	-10.7479
▁AND	-10.7481
▁uh	-10.7486
▁실패	-10.7487
▁Long	-10.7493
▁comprising	-10.7496
▁뭐	-10.7498
gar	-10.7498
can	-10.7499
▁stable	-10.75
▁##	-10.7501
▁r	-10.7502
▁calling	-10.7503
▁죄	-10.7505
▁아요	-10.7507
▁완료	-10.7507
▁boys	-10.7513
fa	-10.7516
ong	-10.7516
▁exists	-10.7517
▁수립	-10.7519
tin	-10.752
▁준다	-10.7531
ker	-10.7535
Mr	-10.7537
▁쇼	-10.7546
▁주말	-10.7548
▁거부	-10.7551
▁herein	-10.7556
▁episode	-10.7557
▁guide	-10.7557
▁humans	-10.7561
▁채널	-10.7562
▁electro	-10.7563
▁Super	-10.757
▁preferably	-10.7575
▁Love	-10.7575
▁Star	-10.7575
▁drop	-10.7578
ise	-10.7579
▁돕	-10.7585
CO	-10.7585
▁잔	-10.7586
▁miles	-10.7586
▁둘	-10.7588
▁measurement	-10.7591
▁성능	-10.7593
▁표준	-10.7595
▁shift	-10.7595
▁과장	-10.7596
▁syndrome	-10.7597
▁양성	-10.7604
▁바란다	-10.7605
▁Sun	-10.7609
▁부부	-10.761
▁Virginia	-10.7613
▁으면서	-10.7614
▁폼	-10.7617
▁listed	-10.7618
▁그냥	-10.7618
▁깨	-10.762
back	-10.7625
층	-10.7626
▁clock	-10.7627
port	-10.7627
▁plants	-10.7629
▁involving	-10.7634
▁slightly	-10.7635
▁단속	-10.7645
옥	-10.7646
use	-10.7648
▁firm	-10.7648
▁유일	-10.7649
▁교체	-10.7651
살	-10.7651
▁화재	-10.7653
▁부지	-10.7653
▁kid	-10.7655
▁스타일	-10.7656
▁순위	-10.7656
건	-10.7656
▁늘어나	-10.7657
▁DC	-10.7661
▁sale	-10.7662
▁balance	-10.7664
▁Like	-10.7665
▁민족	-10.7666
wa	-10.7666
▁뉴욕	-10.767
▁줬	-10.7674
▁lens	-10.7674
▁identification	-10.7675
ella	-10.7677
▁outcomes	-10.7677
▁Dan	-10.7679
▁causing	-10.7679
ins	-10.768
▁spoke	-10.7682
▁연간	-10.7683
친	-10.7687
▁learned	-10.7688
▁van	-10.7692
▁religious	-10.7694
▁IN	-10.7695
▁transition	-10.7697
▁촉구	-10.7702
▁생태	-10.7704
▁link	-10.7706
▁conclude	-10.7707
▁manufacturing	-10.772
▁strategy	-10.7721
▁degrees	-10.7723
▁assigned	-10.7726
▁철저	-10.7728
▁그린	-10.7728
▁운용	-10.7728
▁credit	-10.7729
▁senior	-10.773
▁News	-10.7733
▁witness	-10.7741
▁huge	-10.7741
▁comprises	-10.7744
▁provision	-10.7745
sch	-10.775
▁오르	-10.775
▁훨	-10.7762
번	-10.7762
▁Jesus	-10.7766
▁listen	-10.7767
▁wild	-10.7768
▁모임	-10.777
ft	-10.777
vo	-10.7773
▁퇴	-10.7775
▁신경	-10.7776
▁여러분	-10.7782
▁드리	-10.7782
▁layers	-10.7789
▁describes	-10.7791
▁none	-10.7791
▁Public	-10.7795
▁corner	-10.7797
▁냈	-10.7801
▁Invention	-10.7802
len	-10.7805
Or	-10.7806
▁im	-10.7807
han	-10.7809
▁profile	-10.7819
▁빠른	-10.782
▁Sch	-10.7821
▁surgical	-10.7822
▁어머니	-10.7826
ud	-10.7827
▁협	-10.7835
▁accept	-10.7835
▁Ni	-10.7836
▁projects	-10.7837
례	-10.7837
▁mostly	-10.7838
▁cool	-10.7838
▁Williams	-10.7838
▁comparison	-10.7848
▁새로	-10.785
▁plastic	-10.7852
▁tonight	-10.7852
▁국회의원	-10.7858
▁철도	-10.7859
▁커피	-10.786
ran	-10.7863
▁sensitivity	-10.7864
ev	-10.7865
▁완성	-10.7867
▁AD	-10.7868
랑	-10.7869
▁platform	-10.7874
):	-10.7874
▁concept	-10.7879
▁Science	-10.7882
▁Project	-10.7888
▁으니	-10.7891
▁angle	-10.7891
▁CI	-10.7893
▁oxide	-10.7894
▁breath	-10.7894
▁preferred	-10.7896
▁fiber	-10.79
▁amino	-10.7902
▁Roman	-10.7902
▁살아	-10.7906
▁CEO	-10.7907
▁폐	-10.7907
▁흐름	-10.7908
▁ensure	-10.791
.[	-10.7911
▁rich	-10.7912
▁carrier	-10.7915
▁laws	-10.7916
▁됨	-10.7917
▁나타	-10.7917
▁변호사	-10.7918
▁desirable	-10.7919
▁Director	-10.7919
▁qui	-10.792
▁불리	-10.793
▁Spanish	-10.7933
▁administrative	-10.7934
▁reducing	-10.7937
▁떠나	-10.7942
▁mainly	-10.7943
▁array	-10.7946
▁focused	-10.7946
▁employment	-10.7947
ure	-10.7949
▁===	-10.795
▁허가	-10.7952
▁details	-10.7952
▁debut	-10.7953
▁어도	-10.7954
▁결합	-10.7956
▁king	-10.7957
<	-10.7957
▁owner	-10.7958
▁rapid	-10.7958
▁accident	-10.7959
▁committed	-10.7964
▁walls	-10.7964
▁Joseph	-10.7965
막	-10.7965
▁매력	-10.7969
▁Ge	-10.7973
▁matrix	-10.7973
▁전하	-10.7974
족	-10.7976
▁dry	-10.7976
▁총선	-10.7976
▁민원	-10.7978
▁배출	-10.7979
Sorry	-10.7979
▁rare	-10.7981
▁domain	-10.799
▁실현	-10.7992
▁networks	-10.7993
Thanks	-10.7996
cell	-10.7997
▁lo	-10.8001
▁강의	-10.8003
▁AI	-10.8005
▁Van	-10.8007
▁수석	-10.8008
▁수원	-10.8008
▁certainly	-10.8009
▁채권	-10.8013
OR	-10.8013
free	-10.8013
bit	-10.8017
▁검	-10.8019
▁filled	-10.8019
▁Civil	-10.8021
▁estimated	-10.8022
▁discloses	-10.803
▁주년	-10.8039
▁불안	-10.8041
ru	-10.8046
▁부처	-10.8046
▁쇼핑	-10.8049
빈	-10.8054
▁Christ	-10.8055
with	-10.8059
▁박사	-10.806
▁map	-10.8061
ors	-10.8062
▁employee	-10.8062
▁description	-10.8063
▁바다	-10.8064
▁awarded	-10.8067
▁제거	-10.8067
▁청구	-10.807
▁extremely	-10.8072
▁arranged	-10.8077
pre	-10.8083
▁구간	-10.8087
cha	-10.8092
▁저녁	-10.8093
▁cup	-10.8093
See	-10.8098
▁Using	-10.81
▁rear	-10.8101
▁items	-10.8102
▁false	-10.8118
섭	-10.812
▁합	-10.8121
▁마찬가지	-10.8122
▁den	-10.8128
▁conviction	-10.8132
▁하반기	-10.8136
▁camp	-10.8138
▁맞춰	-10.814
▁initially	-10.8144
▁spot	-10.8146
▁positions	-10.8151
▁accepted	-10.8153
▁단위	-10.8156
▁History	-10.8157
▁Internet	-10.8159
▁도착	-10.8159
ă	-10.816
▁primarily	-10.8163
▁polymer	-10.8164
▁seeing	-10.8164
▁유도	-10.8166
ot	-10.8167
▁실장	-10.817
▁alive	-10.8174
ich	-10.8181
시점	-10.8182
▁대체	-10.8184
▁강한	-10.8184
▁stored	-10.8185
▁도서관	-10.8186
▁afraid	-10.8187
▁하이	-10.8195
▁worse	-10.8199
▁principal	-10.82
▁scientific	-10.82
▁지자체	-10.8201
머지	-10.8204
▁filter	-10.8205
▁aspect	-10.8209
▁wanna	-10.8211
▁EU	-10.8211
▁소장	-10.8212
▁park	-10.8213
▁persons	-10.8215
▁supporting	-10.8219
▁operated	-10.822
▁Old	-10.8221
▁Mexico	-10.8225
▁salt	-10.8229
▁acting	-10.8232
▁leaves	-10.8234
▁RNA	-10.8236
▁progress	-10.824
cer	-10.8241
ini	-10.8242
PS	-10.8248
▁interface	-10.8252
Take	-10.8253
king	-10.8254
▁mounted	-10.8255
▁연금	-10.8255
▁divided	-10.8257
tra	-10.826
▁wear	-10.8262
▁twice	-10.8263
▁fees	-10.827
▁regard	-10.8275
▁writer	-10.8276
▁chair	-10.8277
▁사과	-10.8277
▁repair	-10.8282
▁진짜	-10.8284
▁옷	-10.8287
▁waste	-10.829
▁아름다운	-10.8292
▁island	-10.8295
돌	-10.8295
▁violence	-10.8296
▁자율	-10.8297
board	-10.8297
▁알리	-10.8299
▁requirement	-10.8299
▁battery	-10.83
은행	-10.8301
▁auto	-10.8304
▁Chi	-10.8306
▁스러운	-10.8306
풍	-10.8306
▁assessed	-10.8307
▁지분	-10.8312
▁statements	-10.8313
▁semi	-10.8315
▁캐릭터	-10.8317
▁smile	-10.8321
▁빚	-10.8322
▁runs	-10.8323
▁조기	-10.8326
▁lay	-10.8338
▁thermal	-10.8343
▁혼	-10.8345
▁fuck	-10.8346
ries	-10.835
택	-10.8351
▁Corp	-10.8352
▁tomorrow	-10.8354
ara	-10.8354
▁unknown	-10.8365
▁constitutional	-10.8369
ised	-10.8371
▁dangerous	-10.8372
▁나와	-10.8372
▁pathway	-10.8372
▁비즈니스	-10.8373
▁Part	-10.8376
▁실질	-10.8378
▁diameter	-10.838
▁밥	-10.8384
▁규	-10.8385
▁efficient	-10.8392
▁orders	-10.8396
▁Land	-10.8396
▁sp	-10.8399
▁MS	-10.8399
▁폭력	-10.84
▁Ad	-10.8401
▁구역	-10.8402
▁asking	-10.8402
▁electron	-10.8402
▁당연	-10.8408
▁먼	-10.8409
▁linear	-10.841
▁examination	-10.8415
▁Israel	-10.8415
▁trip	-10.8419
▁treat	-10.8419
▁질환	-10.8421
필	-10.8424
애	-10.8425
▁페	-10.8429
ons	-10.8432
art	-10.8445
▁밝히	-10.8445
▁bridge	-10.8448
갈	-10.845
▁가수	-10.8455
▁shut	-10.8455
▁concern	-10.8457
▁ends	-10.8458
▁포기	-10.8475
▁짓	-10.8475
▁Women	-10.8475
▁Championship	-10.8476
▁박근혜	-10.8477
▁fields	-10.848
che	-10.848
▁sides	-10.8482
▁minimum	-10.8483
▁subsequently	-10.8483
▁주의	-10.8484
▁당초	-10.8484
mm	-10.8484
▁Joe	-10.8487
CD	-10.8489
▁disorder	-10.8494
▁sales	-10.85
▁Will	-10.8502
예측	-10.8503
▁quick	-10.8504
uff	-10.8505
개편	-10.8508
▁shared	-10.8508
▁된다는	-10.8508
▁보통	-10.8513
▁조합	-10.8516
답	-10.8519
▁군사	-10.8522
▁크기	-10.8523
▁client	-10.8524
▁버리	-10.8527
▁propose	-10.8527
▁stream	-10.8528
▁녹	-10.8529
▁《	-10.8533
ius	-10.8534
▁투어	-10.8534
▁artist	-10.8538
▁다소	-10.8539
▁Big	-10.8541
▁단순	-10.8542
▁극복	-10.8542
▁decisions	-10.8543
▁telephone	-10.8545
▁monitoring	-10.8556
light	-10.8559
▁promise	-10.856
▁Har	-10.8562
▁Bi	-10.8562
▁Republic	-10.8563
▁대우	-10.8564
씨	-10.8566
▁county	-10.8566
▁continues	-10.857
▁broken	-10.857
▁unable	-10.8572
▁평소	-10.8572
▁빅	-10.8575
ken	-10.8575
▁characters	-10.8575
▁measurements	-10.8579
▁플	-10.8585
▁incorporated	-10.8585
ue	-10.859
▁후원	-10.859
▁represents	-10.8591
▁aware	-10.8594
▁grow	-10.8594
▁Human	-10.8597
ett	-10.8599
▁Mike	-10.8604
▁분리	-10.8606
▁Times	-10.8606
Have	-10.8606
▁transferred	-10.861
▁주관	-10.8611
▁buildings	-10.8612
▁중간	-10.8612
mon	-10.8613
De	-10.8614
▁Vol	-10.8618
▁Scott	-10.8618
▁min	-10.8623
▁KT	-10.8628
▁Mc	-10.8629
월	-10.863
▁꼽	-10.8631
▁mission	-10.8632
▁승인	-10.8633
익	-10.8633
▁웃	-10.8633
▁종교	-10.8635
net	-10.8643
▁외교	-10.8643
▁concerned	-10.8643
▁적절	-10.8644
▁owned	-10.8647
▁패션	-10.8649
▁리더	-10.8649
▁남편	-10.865
▁카메라	-10.8651
▁Force	-10.8651
▁조차	-10.8652
▁백화점	-10.8652
▁songs	-10.866
▁possibly	-10.866
▁Jan	-10.866
▁농촌	-10.866
sk	-10.8663
▁involves	-10.8663
▁종류	-10.8663
▁disk	-10.8665
▁intra	-10.8667
▁공기	-10.8667
▁겸	-10.8668
▁개국	-10.8669
▁watching	-10.8671
▁맨	-10.8671
지키	-10.8671
▁노동자	-10.8673
▁증시	-10.8674
▁dance	-10.8674
▁부상	-10.8675
▁품	-10.8676
▁Da	-10.8679
▁concerns	-10.8686
▁aren	-10.8686
▁pursuant	-10.8688
▁IV	-10.8688
du	-10.8689
ification	-10.8692
▁Secretary	-10.8693
▁모양	-10.8695
ably	-10.8696
▁보증	-10.8699
▁ones	-10.8705
CA	-10.8705
▁adjacent	-10.8707
▁새롭	-10.871
ö	-10.8712
▁매각	-10.8714
▁관람	-10.8717
▁는데요	-10.8717
▁추세	-10.8718
▁이웃	-10.8723
▁Home	-10.8728
▁직장	-10.8728
▁injection	-10.8729
▁mortality	-10.8732
US	-10.8733
▁Police	-10.8734
▁이용자	-10.8736
▁gotta	-10.8736
▁설비	-10.8737
Man	-10.8744
▁출전	-10.8744
▁relation	-10.8749
▁pull	-10.8749
벤처	-10.875
ble	-10.8753
ward	-10.8754
▁producing	-10.8755
▁공모	-10.8756
ros	-10.8757
으	-10.8757
▁클럽	-10.8759
II	-10.8761
▁Only	-10.8764
▁expensive	-10.8765
▁재료	-10.8765
▁neuro	-10.8775
▁discovery	-10.8776
▁Hospital	-10.8776
▁border	-10.8779
독	-10.878
▁carrying	-10.8782
▁payment	-10.8784
alpha	-10.8792
▁fresh	-10.8793
ani	-10.8796
▁native	-10.8796
▁aspects	-10.8797
▁mixture	-10.8798
▁지켜	-10.8802
vi	-10.8804
▁offers	-10.8809
▁아울러	-10.8812
▁비상	-10.8814
▁다니	-10.8816
▁sensitive	-10.8817
▁부인	-10.882
른	-10.8823
▁slowly	-10.8825
▁stability	-10.8826
mann	-10.8833
▁modified	-10.8833
ative	-10.8836
▁수집	-10.8836
▁distinct	-10.8838
▁improvement	-10.884
▁killing	-10.8842
á	-10.8843
▁"#	-10.8845
rin	-10.8847
ero	-10.8847
▁YOU	-10.8849
の	-10.8851
▁missing	-10.8852
▁merely	-10.8853
nes	-10.8853
▁beat	-10.8854
▁국장	-10.8854
▁surfaces	-10.8854
▁standards	-10.8855
▁옛	-10.8859
▁형식	-10.8864
▁운	-10.887
▁앨범	-10.8873
­	-10.8873
▁apparent	-10.8874
An	-10.8875
ns	-10.8875
▁{	-10.888
ER	-10.8883
▁집행	-10.8887
▁peace	-10.8889
▁Time	-10.8889
▁possession	-10.8895
▁내려	-10.8895
▁serving	-10.8895
▁Angeles	-10.8896
▁Ti	-10.8896
▁crew	-10.8901
▁accordance	-10.8901
▁지요	-10.8902
ip	-10.8903
▁편의	-10.8906
▁creating	-10.8908
are	-10.8912
▁flight	-10.8913
▁wire	-10.8915
▁저장	-10.8915
ever	-10.8915
▁Additionally	-10.8918
▁한반도	-10.8918
▁Description	-10.8918
▁Following	-10.8919
▁오염	-10.892
▁bound	-10.8924
▁mono	-10.8928
▁raise	-10.8929
▁partner	-10.8929
▁horse	-10.8933
▁Attorney	-10.8934
▁annual	-10.8937
▁stone	-10.8939
▁Sp	-10.8939
▁liability	-10.894
▁interests	-10.8941
▁소프트웨어	-10.8942
▁thank	-10.8942
ica	-10.8945
▁Lo	-10.8945
▁analyzed	-10.8946
▁interesting	-10.8947
▁Academy	-10.8949
▁얼마	-10.895
▁Americans	-10.895
▁플랫	-10.895
▁공감	-10.8951
▁혁명	-10.8951
down	-10.8952
▁당부	-10.8954
▁Catholic	-10.8955
▁silver	-10.8956
▁Ke	-10.8956
▁aid	-10.8957
▁neurons	-10.8957
▁간담회	-10.8958
▁channels	-10.8959
▁bodies	-10.8964
▁하늘	-10.8965
위협	-10.8965
ju	-10.8966
▁surrounding	-10.8967
▁feed	-10.8968
▁상위	-10.8971
▁Young	-10.8972
elle	-10.8972
▁dream	-10.8973
▁오랜	-10.8975
왕	-10.8976
▁coverage	-10.8976
▁자랑	-10.8976
▁NO	-10.8977
▁entirely	-10.8981
▁도와	-10.8983
▁전면	-10.8984
▁choose	-10.8985
▁신호	-10.8985
▁장점	-10.8986
▁세력	-10.8986
▁Sunday	-10.8987
▁옆	-10.8988
▁vision	-10.8988
▁친환경	-10.8992
▁draw	-10.8993
vis	-10.8994
사업자	-10.8997
▁spend	-10.8997
▁notes	-10.8998
▁초청	-10.8999
▁reality	-10.9001
외	-10.9002
▁여건	-10.9003
▁interested	-10.9003
ph	-10.9003
▁continuous	-10.9006
▁세트	-10.9009
립	-10.901
cher	-10.9011
▁escape	-10.9011
▁노선	-10.9013
▁sell	-10.9015
▁warm	-10.9021
▁가졌	-10.9022
▁Fe	-10.903
▁Among	-10.9031
▁pieces	-10.9032
▁operate	-10.9035
▁sets	-10.9036
▁labor	-10.9037
right	-10.9038
▁composed	-10.9039
▁창조	-10.9039
▁hadn	-10.9042
▁전주	-10.9045
PC	-10.9045
▁«	-10.9046
▁immuno	-10.9047
왔	-10.9048
▁thickness	-10.9049
▁권리	-10.9055
▁consideration	-10.9056
▁expert	-10.9057
▁・	-10.9057
▁압	-10.9061
▁충격	-10.9067
TV	-10.9075
▁vehicles	-10.9078
▁dad	-10.908
law	-10.9084
▁요리	-10.9085
▁fighting	-10.9085
▁증	-10.9087
▁reverse	-10.9089
▁sweet	-10.9092
▁풍	-10.9096
▁충분히	-10.9098
▁System	-10.9104
berg	-10.9108
ata	-10.911
▁운전	-10.9114
▁쉬	-10.9115
▁impossible	-10.9115
▁dropped	-10.9116
▁관객	-10.9117
▁cardiac	-10.9117
▁운행	-10.9119
▁hate	-10.912
▁walking	-10.912
▁Ga	-10.9123
vin	-10.9124
▁hydrogen	-10.9127
▁옥	-10.9129
▁법안	-10.913
▁자는	-10.9131
▁상장	-10.9132
ren	-10.9135
▁conference	-10.9136
▁모아	-10.9137
▁전개	-10.9138
▁nation	-10.914
▁acquired	-10.9141
▁마리	-10.9142
없이	-10.9142
tu	-10.9145
▁어린	-10.9148
▁내리	-10.9148
▁처분	-10.9148
▁proceedings	-10.9148
▁shoulder	-10.915
▁Ba	-10.915
▁finish	-10.9156
▁Its	-10.9161
▁smooth	-10.9162
▁strategies	-10.9162
hu	-10.9163
▁면적	-10.9168
▁사정	-10.917
▁탄	-10.9172
윤	-10.9176
▁Po	-10.9177
▁planning	-10.9182
▁adults	-10.9183
▁recognition	-10.9185
▁시킨	-10.9188
▁Greek	-10.9191
▁이론	-10.9195
▁절반	-10.9196
▁화면	-10.9214
▁임시	-10.9222
▁peripheral	-10.9222
▁주인공	-10.9223
▁고급	-10.9225
▁Appeals	-10.9225
처벌	-10.9226
▁대사	-10.9228
▁Ohio	-10.9229
▁seek	-10.923
▁largely	-10.9233
▁adopted	-10.9241
▁쌀	-10.9241
pi	-10.9242
▁건립	-10.9249
iv	-10.925
▁height	-10.9252
▁대하	-10.9253
▁est	-10.9255
▁concerning	-10.9258
▁zone	-10.9265
▁Jr	-10.9268
▁필수	-10.9269
which	-10.927
▁permit	-10.9272
▁무기	-10.9275
▁돼야	-10.9276
AP	-10.9276
▁통상	-10.9282
▁refused	-10.9288
▁constructed	-10.9289
▁crazy	-10.929
▁신설	-10.9298
▁Louis	-10.9303
▁Pan	-10.9309
▁stars	-10.931
▁투명	-10.9311
▁성격	-10.9311
ose	-10.9311
▁limitations	-10.9312
▁suffered	-10.9313
▁니까	-10.9313
▁controlling	-10.9314
ture	-10.9315
▁Cu	-10.9315
▁truck	-10.932
▁칼	-10.9322
▁insulin	-10.9324
▁copy	-10.9325
▁학부모	-10.9325
▁effectively	-10.9326
ations	-10.9326
▁generate	-10.9326
▁delivered	-10.9327
▁Sub	-10.9329
▁expansion	-10.9332
▁뽑	-10.9335
▁catch	-10.9336
▁베트남	-10.9336
▁justice	-10.9336
oc	-10.9338
극	-10.9338
▁독서	-10.934
▁scheme	-10.9344
▁고등학교	-10.9345
dimensional	-10.9347
▁Prior	-10.935
▁identity	-10.9354
▁실행	-10.9355
▁arrangement	-10.9357
▁지점	-10.936
▁충분	-10.9362
▁tape	-10.9363
▁회견	-10.9367
qui	-10.937
▁injuries	-10.937
▁밑	-10.937
▁반발	-10.9371
▁decide	-10.9372
fer	-10.9373
▁연말	-10.9379
▁한계	-10.9381
▁즐기	-10.9384
▁개방	-10.9384
▁Jo	-10.9389
▁총재	-10.9389
On	-10.9396
illa	-10.9398
▁broke	-10.9399
▁싸	-10.9401
ü	-10.9404
▁tissues	-10.9407
▁coffee	-10.9407
촌	-10.9408
▁stem	-10.9412
war	-10.9415
▁cutting	-10.942
wing	-10.9424
▁Carolina	-10.9425
▁Good	-10.9425
▁centre	-10.9425
▁미세	-10.9427
▁따뜻	-10.943
▁changing	-10.9433
▁shaft	-10.9436
our	-10.9441
▁출범	-10.9442
▁winning	-10.9443
▁Amendment	-10.9443
▁일어나	-10.9444
▁밝	-10.9445
▁장면	-10.9446
nie	-10.9446
▁advance	-10.9447
▁sight	-10.9448
▁von	-10.9449
Ah	-10.9451
▁los	-10.9453
▁diabetes	-10.9454
▁앉	-10.9456
▁si	-10.9457
▁define	-10.9459
▁써	-10.946
▁조절	-10.9461
▁billion	-10.9462
▁가슴	-10.9462
▁funds	-10.9463
▁emergency	-10.9464
▁Dis	-10.9465
▁inhibition	-10.9465
▁십	-10.9467
▁chest	-10.9469
▁염	-10.9471
▁야구	-10.9475
움	-10.9477
ky	-10.9478
▁바이러스	-10.948
▁aims	-10.9482
Mo	-10.9483
▁반복	-10.9486
▁survey	-10.9486
▁consumption	-10.9488
°	-10.9491
▁participants	-10.9492
▁거듭	-10.9493
▁진입	-10.9494
▁app	-10.9495
▁》	-10.9496
▁대변인	-10.9497
▁resin	-10.9497
▁leaders	-10.9499
▁peak	-10.9503
▁올라	-10.9504
▁미리	-10.9505
▁거주	-10.9506
▁coupled	-10.9508
름	-10.9508
methyl	-10.9509
볼	-10.9512
▁maintained	-10.9513
▁consists	-10.9516
At	-10.952
▁Senate	-10.9528
Stop	-10.9528
▁벗어나	-10.9529
▁planned	-10.9532
▁portions	-10.9532
▁trees	-10.9534
▁tumors	-10.9536
▁enhanced	-10.954
즐길	-10.9541
▁고통	-10.9541
▁Instead	-10.9551
▁랑	-10.9552
▁소설	-10.9562
▁Saint	-10.9564
tal	-10.9565
▁부과	-10.9565
겨	-10.957
sky	-10.957
퍼	-10.957
▁conflict	-10.9574
▁spin	-10.958
▁맞춤	-10.958
▁청주	-10.9581
▁substance	-10.9583
▁고정	-10.9584
▁수정	-10.9587
ens	-10.9592
읍	-10.9593
▁configuration	-10.9594
▁실시간	-10.9597
검증	-10.9597
탈	-10.96
▁option	-10.9601
zo	-10.9601
▁쌓	-10.9601
▁사무	-10.9608
▁purchase	-10.9608
▁contribute	-10.9617
▁틀	-10.9617
▁판결	-10.9618
▁연수	-10.9619
▁lie	-10.9619
▁una	-10.9624
▁유형	-10.9626
▁boat	-10.9627
▁narrow	-10.9628
▁amounts	-10.9632
▁conversation	-10.9636
▁wood	-10.9637
ric	-10.9639
▁간단	-10.9639
▁grounds	-10.9643
par	-10.9645
▁versus	-10.9645
▁maintenance	-10.9651
▁detailed	-10.9651
▁discuss	-10.9652
▁Southern	-10.9653
▁realized	-10.9657
▁분류	-10.9658
▁loved	-10.9661
▁respond	-10.9663
▁마저	-10.9663
▁야당	-10.967
확진	-10.9672
▁efficacy	-10.9673
▁안보	-10.9673
▁printing	-10.9675
▁李	-10.9679
▁wheel	-10.9681
▁화제	-10.9681
ice	-10.9686
▁happens	-10.9686
▁economy	-10.9687
▁나온다	-10.9691
▁Ireland	-10.9691
▁Ro	-10.9691
▁medicine	-10.9694
▁era	-10.9695
▁문재인	-10.9697
▁grew	-10.9699
▁duration	-10.9699
▁argued	-10.97
▁우주	-10.9702
▁시내	-10.9707
▁집계	-10.9709
▁실정	-10.9711
▁preparation	-10.9714
▁떨어지	-10.9715
▁dinner	-10.9717
▁제주도	-10.9719
▁솔루션	-10.9722
▁facility	-10.9722
▁instruction	-10.9723
▁famous	-10.9724
▁Republican	-10.9726
▁harm	-10.9728
mu	-10.9731
▁closer	-10.9732
▁헌법	-10.974
▁fundamental	-10.9741
말	-10.9742
▁excellent	-10.9742
Tell	-10.9754
▁legs	-10.9762
▁콘	-10.9763
▁origin	-10.9766
▁'(	-10.9766
▁freedom	-10.9767
▁잇	-10.9767
▁앤	-10.977
▁performing	-10.9771
▁pilot	-10.9774
IL	-10.9775
American	-10.9778
mp	-10.9785
▁바이오	-10.9786
▁Year	-10.9789
▁j	-10.9791
▁Queen	-10.9794
state	-10.9795
▁accuracy	-10.9798
▁살펴보	-10.98
▁이내	-10.9802
▁곤	-10.9805
▁cities	-10.9807
▁연출	-10.9807
▁attempted	-10.9809
▁총회	-10.9809
▁FC	-10.9811
▁respective	-10.9816
▁부르	-10.9816
▁군수	-10.9819
▁축	-10.982
측	-10.982
▁disc	-10.9823
▁skills	-10.9823
▁stroke	-10.9825
▁생기	-10.9827
새	-10.983
ap	-10.983
▁pathways	-10.9833
▁Jackson	-10.9834
▁forget	-10.9834
▁Cross	-10.984
▁Data	-10.9844
▁개별	-10.9845
▁플레이	-10.985
▁statutory	-10.9851
▁Plaintiffs	-10.9854
▁완벽	-10.9858
▁세금	-10.9862
▁acids	-10.9864
▁antibodies	-10.9867
▁laboratory	-10.9867
ola	-10.9867
▁메뉴	-10.9869
▁움직임	-10.9873
hi	-10.9874
골	-10.9874
▁threat	-10.9875
▁experienced	-10.9876
SP	-10.9876
▁Team	-10.9878
▁Rock	-10.9882
▁gap	-10.9883
▁dependent	-10.9885
▁인재	-10.9887
▁톤	-10.9889
▁응	-10.9889
▁wine	-10.989
ned	-10.989
▁바뀌	-10.9891
▁correlation	-10.9894
▁쓰레기	-10.9895
▁연대	-10.9896
gan	-10.9899
▁axis	-10.9901
▁victory	-10.9902
▁sick	-10.9904
▁shock	-10.9907
ix	-10.9907
▁fault	-10.9908
▁renal	-10.9909
▁코스	-10.991
▁기부	-10.9912
▁glucose	-10.9914
▁Pennsylvania	-10.9916
▁분명	-10.9918
ick	-10.992
▁singer	-10.9927
▁합리	-10.9927
▁rain	-10.9934
▁protected	-10.9937
▁부진	-10.9938
▁Development	-10.994
▁guitar	-10.9941
▁끊	-10.9942
▁취지	-10.9943
▁na	-10.9945
▁유기	-10.9949
▁arrested	-10.995
level	-10.995
착	-10.9951
▁Ne	-10.9952
cho	-10.9956
▁비난	-10.9957
▁Northern	-10.996
▁union	-10.996
▁공직	-10.9963
▁첨단	-10.9964
억	-10.9964
▁indicates	-10.9966
▁권력	-10.9968
태도	-10.9969
▁engaged	-10.9969
▁extensive	-10.9973
▁driven	-10.9973
point	-10.9977
ari	-10.9978
▁fly	-10.9979
▁유사	-10.998
▁requested	-10.998
▁구현	-10.9982
SA	-10.9983
▁뇌	-10.9983
▁긴급	-10.9988
beta	-10.9988
▁독자	-10.9992
휘	-10.9992
▁구분	-10.9992
▁저희	-10.9995
▁취득	-10.9996
▁variable	-11
air	-11.0001
Listen	-11.0001
▁potentially	-11.0003
▁passing	-11.0005
▁facilities	-11.0006
▁Tu	-11.0006
▁cat	-11.001
▁incidence	-11.0011
▁취약	-11.0014
▁steel	-11.0014
▁petitioner	-11.0015
▁폐지	-11.0021
를	-11.0026
▁Defendants	-11.0027
▁settlement	-11.0027
▁magazine	-11.0029
▁LED	-11.0029
istic	-11.0031
▁grand	-11.0031
별	-11.0033
▁seeking	-11.0033
▁Mi	-11.0033
▁fan	-11.0035
욱	-11.0036
▁Radio	-11.0036
▁현황	-11.0037
▁Democratic	-11.0039
tz	-11.0043
▁Kingdom	-11.0044
▁혼자	-11.0044
▁trials	-11.0047
▁눈길	-11.0048
▁cash	-11.0051
gy	-11.0053
▁provisions	-11.0054
▁conversion	-11.0055
_.	-11.0056
▁Soviet	-11.0056
▁rapidly	-11.0058
▁chip	-11.0058
"),	-11.0065
▁본다	-11.0068
▁개설	-11.0072
▁Ch	-11.0073
▁보고	-11.0074
▁기도	-11.0076
▁tour	-11.0076
▁전형	-11.0078
ps	-11.0078
yn	-11.0082
▁ᄏᄏ	-11.0082
▁부대	-11.0083
▁picked	-11.0084
▁Italy	-11.0086
kg	-11.0087
▁인프라	-11.0087
▁이외	-11.0091
▁슈	-11.0094
▁Well	-11.0096
▁partial	-11.0096
ks	-11.01
▁solutions	-11.0102
▁apart	-11.0104
▁ink	-11.0104
▁Tr	-11.0105
ᆞ	-11.0107
▁watched	-11.0108
▁맛있	-11.0109
sim	-11.011
▁CT	-11.0114
▁활발	-11.0116
▁parent	-11.012
▁regional	-11.0121
▁ion	-11.0121
▁northern	-11.0124
▁취소	-11.0128
▁Where	-11.0133
▁residents	-11.0134
▁wearing	-11.0135
▁net	-11.0136
`	-11.0136
▁industrial	-11.0136
▁random	-11.0136
▁수학	-11.0137
▁Mon	-11.0139
▁주최	-11.0139
▁Ab	-11.0139
▁miss	-11.014
▁suddenly	-11.014
▁shoot	-11.0141
▁secure	-11.0142
▁closely	-11.0142
▁Edward	-11.0144
▁가을	-11.0146
▁Jewish	-11.0147
more	-11.015
▁Ta	-11.0153
패	-11.0154
▁Inter	-11.0157
▁가득	-11.0159
▁Cor	-11.0162
▁제일	-11.0168
▁variation	-11.0171
▁je	-11.0171
▁column	-11.0175
▁por	-11.0176
▁executive	-11.0177
▁permanent	-11.0178
▁sports	-11.0178
▁Davis	-11.0179
▁weapons	-11.0183
IC	-11.0186
▁차단	-11.0188
lic	-11.0189
▁diagnostic	-11.0189
ep	-11.0193
▁limits	-11.0193
▁공동체	-11.02
▁단기	-11.0208
▁silicon	-11.0209
▁sounds	-11.0209
▁thousand	-11.0212
▁ideas	-11.0214
▁soldiers	-11.0215
▁지배	-11.0215
IT	-11.0216
ato	-11.0218
▁ancient	-11.0223
▁vessel	-11.0226
▁classes	-11.0227
Al	-11.0228
▁accurate	-11.0229
▁definition	-11.0229
ena	-11.0229
OK	-11.023
▁actor	-11.0231
▁Film	-11.0234
ell	-11.0235
ora	-11.0237
Ma	-11.0238
▁Tri	-11.0242
▁hotel	-11.0244
너	-11.0246
▁계층	-11.0252
▁Anti	-11.0255
▁붙	-11.0256
▁container	-11.0256
▁fill	-11.0257
▁회계	-11.026
▁pour	-11.0268
▁drawn	-11.0268
itis	-11.0268
▁launched	-11.0269
▁discussion	-11.027
▁thick	-11.0277
▁turning	-11.0279
▁mRNA	-11.0279
▁ultimately	-11.0279
▁가까운	-11.0284
▁EP	-11.0285
tel	-11.0286
▁세월	-11.0288
▁Related	-11.0288
▁attempts	-11.0291
▁선고	-11.0294
▁cars	-11.0295
▁뉴	-11.0295
쿠	-11.0295
재난	-11.0299
▁걷	-11.0299
▁달하	-11.0302
▁fellow	-11.0303
ula	-11.0303
▁matters	-11.0303
▁apartment	-11.0304
▁sections	-11.0304
New	-11.0308
▁USA	-11.0312
▁assistance	-11.0312
▁Education	-11.0315
▁pointed	-11.0316
▁ear	-11.0317
ido	-11.0317
▁접	-11.0322
▁대폭	-11.0325
▁mom	-11.0331
▁빼	-11.0333
▁통제	-11.0334
▁normally	-11.0334
현안	-11.0335
▁MP	-11.0338
▁출마	-11.0338
▁seconds	-11.0341
▁쿠	-11.0345
▁push	-11.0346
▁lies	-11.0348
pur	-11.0354
▁em	-11.036
▁vascular	-11.036
▁셀	-11.0362
▁된다고	-11.0364
▁professor	-11.0369
▁Captain	-11.0369
▁bought	-11.037
▁package	-11.0371
ical	-11.0371
▁strongly	-11.0375
▁express	-11.0378
▁attended	-11.0379
다고	-11.0387
▁challenges	-11.039
▁Irish	-11.039
▁interpretation	-11.039
▁politician	-11.0396
▁shooting	-11.0398
▁개소	-11.0399
▁손실	-11.0399
▁접촉	-11.0402
▁백만	-11.0402
▁authorities	-11.0402
▁Aim	-11.0404
▁bond	-11.0405
▁superior	-11.0406
▁숙	-11.0406
▁cent	-11.0408
▁funding	-11.0409
▁depending	-11.0411
▁split	-11.0413
▁PD	-11.0413
▁enable	-11.0417
▁Power	-11.0419
rate	-11.0419
▁southern	-11.0419
Le	-11.042
쁘	-11.042
▁roles	-11.0422
ck	-11.0423
▁Medical	-11.0426
Pa	-11.043
▁제정	-11.043
▁threshold	-11.0431
▁열심히	-11.0431
▁명예	-11.0436
▁attacks	-11.0437
▁결제	-11.0438
▁articles	-11.0443
▁통계	-11.0443
▁손해	-11.0444
▁박물관	-11.0447
▁hall	-11.0449
ging	-11.0454
^	-11.0454
▁newly	-11.0454
▁Google	-11.046
▁stations	-11.0461
▁전공	-11.0461
▁adding	-11.0464
▁강남	-11.0466
▁anyway	-11.047
▁till	-11.047
▁successfully	-11.0471
▁대기	-11.0472
▁뛰	-11.0473
▁Britain	-11.0475
쳐	-11.0476
▁멤버	-11.0477
▁depression	-11.0478
▁Illinois	-11.0479
▁Special	-11.0482
▁Who	-11.0483
▁Journal	-11.0483
▁Jim	-11.0484
율	-11.0484
form	-11.0485
▁매체	-11.0485
예	-11.0485
▁가동	-11.0489
▁논문	-11.0489
har	-11.049
▁부서	-11.0491
Like	-11.0495
▁featured	-11.0496
▁상징	-11.0497
▁milk	-11.0499
▁낙	-11.0499
▁guard	-11.05
▁숲	-11.0502
▁argue	-11.0505
▁strain	-11.0506
▁applicable	-11.0506
▁embodiment	-11.0509
▁Valley	-11.0509
ding	-11.051
▁홍콩	-11.0512
▁매입	-11.0517
▁축소	-11.0518
▁climate	-11.052
mit	-11.0521
▁screening	-11.0521
jo	-11.0522
▁Korea	-11.0522
▁Ann	-11.0524
▁broadcast	-11.0524
▁quiet	-11.0525
▁separation	-11.0528
▁cable	-11.053
▁equivalent	-11.053
▁。	-11.053
▁empty	-11.0531
▁stimulation	-11.0535
▁방역	-11.0535
stone	-11.0539
▁Up	-11.0539
▁Program	-11.054
▁Gen	-11.0543
ag	-11.0544
▁다수	-11.0546
▁exception	-11.0548
▁주거	-11.0551
▁추석	-11.0554
▁stages	-11.0558
▁소방	-11.0559
홍	-11.0559
amine	-11.056
▁measuring	-11.056
Give	-11.0563
스타	-11.0565
ID	-11.0565
▁contends	-11.0567
▁technical	-11.0567
ement	-11.0568
-(	-11.0568
▁Top	-11.057
▁nearby	-11.057
▁Open	-11.0578
▁thousands	-11.0585
▁IS	-11.0588
▁Zealand	-11.0588
▁studio	-11.059
▁ho	-11.0591
▁목사	-11.0593
▁심의	-11.0595
▁Er	-11.0598
▁chosen	-11.0598
▁university	-11.0598
▁surprise	-11.0599
▁침체	-11.0599
▁coating	-11.0599
▁anymore	-11.06
▁Father	-11.0601
▁주력	-11.0603
、	-11.0603
▁ver	-11.0605
▁practical	-11.0605
cal	-11.0606
▁균형	-11.0607
개정안	-11.0608
▁enemy	-11.061
▁--	-11.0612
퇴	-11.0612
충	-11.0612
▁dynamic	-11.0614
▁연락	-11.0614
▁Several	-11.0614
▁CA	-11.0615
▁assay	-11.0615
Really	-11.0615
▁캐	-11.0617
▁brown	-11.0617
ute	-11.0619
▁Cha	-11.0619
▁침	-11.0622
▁척	-11.0626
▁roof	-11.0629
▁Jean	-11.063
▁ce	-11.063
▁퍼	-11.063
▁soul	-11.0632
called	-11.0636
▁현금	-11.0636
▁responsibility	-11.0639
▁younger	-11.0639
SE	-11.0642
fold	-11.0642
▁gear	-11.0643
lock	-11.0647
▁머	-11.0648
▁relationships	-11.065
▁suggesting	-11.0651
▁row	-11.0652
▁speaking	-11.0652
▁policies	-11.0653
ok	-11.0653
▁requiring	-11.0654
▁인원	-11.0654
▁nervous	-11.0656
▁thanks	-11.0658
▁extend	-11.0658
▁지시	-11.0659
래도	-11.0659
▁qu	-11.0659
▁wonder	-11.0661
▁historical	-11.0661
▁communications	-11.0663
▁Social	-11.0663
▁더니	-11.0665
▁assault	-11.0669
▁keeping	-11.0672
▁학과	-11.0676
▁교환	-11.068
▁Water	-11.068
▁비밀	-11.0683
▁프리	-11.0686
▁targets	-11.0687
▁통하	-11.0687
▁transmitted	-11.0687
▁Blue	-11.0687
▁무선	-11.0688
▁단일	-11.0698
lar	-11.0699
_{	-11.0703
▁signs	-11.0703
함	-11.0707
▁sa	-11.0709
▁populations	-11.0711
▁Little	-11.0712
▁plain	-11.0714
▁으	-11.0718
▁promote	-11.0718
▁포럼	-11.0722
▁Kim	-11.0723
술	-11.0724
lon	-11.0727
▁desire	-11.0727
Supp	-11.0734
oma	-11.0737
련	-11.0738
▁Donald	-11.0738
▁Daniel	-11.0745
블	-11.0747
▁Out	-11.0747
▁Yet	-11.0748
▁detect	-11.0748
▁수많	-11.075
▁academic	-11.0752
▁ruling	-11.0754
▁전부	-11.0755
ach	-11.0766
Co	-11.0766
▁complications	-11.0767
▁plea	-11.0768
▁analyses	-11.0768
▁Football	-11.0768
▁Facebook	-11.0769
▁obvious	-11.077
▁detail	-11.077
▁pump	-11.0771
▁percentage	-11.0776
▁antibody	-11.0778
▁공약	-11.0779
▁LA	-11.0779
▁calculated	-11.0782
▁빨리	-11.0782
▁characteristic	-11.0782
▁pH	-11.0787
▁teeth	-11.0787
▁푸	-11.079
ida	-11.0795
▁Wood	-11.0796
").	-11.0797
▁드립니다	-11.0797
▁preliminary	-11.0799
ock	-11.0799
▁Ms	-11.08
▁Friday	-11.0803
DC	-11.0804
▁database	-11.0806
▁Christmas	-11.0806
▁포장	-11.0806
▁엔진	-11.0808
머	-11.0809
CT	-11.0811
▁동원	-11.0813
▁separated	-11.0819
▁rose	-11.0821
완	-11.0822
▁강제	-11.0822
▁turns	-11.0823
ple	-11.0827
▁lawyer	-11.0831
▁consequences	-11.0834
▁indeed	-11.0839
▁Chris	-11.084
▁Free	-11.084
▁lesions	-11.0841
▁부채	-11.0842
▁youth	-11.0843
sy	-11.0847
▁clothes	-11.0848
▁kitchen	-11.0849
▁repeated	-11.0851
▁afternoon	-11.0857
▁호주	-11.0859
▁조례	-11.086
▁덜	-11.086
▁adverse	-11.086
▁sur	-11.086
▁cultural	-11.0862
▁정체	-11.0864
▁customers	-11.0866
▁계산	-11.0866
▁Port	-11.0868
▁finds	-11.0869
▁지하	-11.087
▁주일	-11.0872
▁문서	-11.0874
킹	-11.0874
▁이사장	-11.0876
▁weak	-11.0876
▁communities	-11.0877
▁replacement	-11.0883
▁apparently	-11.0884
▁wireless	-11.0886
▁roll	-11.0886
북	-11.0889
ski	-11.0897
low	-11.0904
▁점유	-11.0907
▁weapon	-11.0907
CC	-11.091
▁실무	-11.0913
▁협조	-11.0914
▁UN	-11.0917
▁AS	-11.0918
OH	-11.0918
▁Festival	-11.0919
▁bear	-11.0919
▁protocol	-11.0919
▁server	-11.0921
▁Wilson	-11.0923
▁rotation	-11.0925
▁dear	-11.0926
▁쓸	-11.0926
▁블랙	-11.0927
▁explore	-11.0933
▁Navy	-11.0933
▁fans	-11.0935
▁usual	-11.0936
▁extension	-11.0936
▁나눔	-11.0938
▁fashion	-11.0941
▁decades	-11.0942
nu	-11.0943
▁fingers	-11.0943
▁instructions	-11.0947
)).	-11.095
▁편성	-11.0953
▁linked	-11.0954
갑	-11.0957
▁캠페인	-11.0958
▁쓴	-11.0959
▁verdict	-11.0965
▁teacher	-11.0965
▁물가	-11.0966
▁taught	-11.0967
▁Obama	-11.0969
rich	-11.097
▁품목	-11.0971
총	-11.0971
벌	-11.0972
▁remote	-11.0976
▁comment	-11.0977
▁근로	-11.0978
bb	-11.0978
▁strike	-11.0982
▁finger	-11.0984
▁링	-11.0986
▁pop	-11.0987
▁주인	-11.0987
▁Fed	-11.0992
▁Miller	-11.0992
▁Light	-11.0993
▁proved	-11.0994
▁나아가	-11.1002
▁재무	-11.1003
▁scored	-11.1003
▁###	-11.1003
water	-11.1005
▁Trans	-11.1011
▁져	-11.1012
▁이란	-11.1012
▁◇	-11.1013
▁intensity	-11.1014
▁탓	-11.1016
mal	-11.1016
▁sugar	-11.1017
▁전원	-11.1017
▁Th	-11.1018
▁갑	-11.1021
▁forest	-11.1021
▁식당	-11.1022
▁enjoy	-11.1022
▁width	-11.1023
▁examples	-11.1025
▁청장	-11.1025
▁operator	-11.1027
▁nerve	-11.1033
▁organ	-11.1034
ria	-11.1035
▁신속	-11.1039
▁Bob	-11.1041
▁그때	-11.1042
▁marked	-11.1043
▁circuits	-11.1048
▁tend	-11.1048
▁정원	-11.1049
ball	-11.1053
▁갖춘	-11.1053
▁indicating	-11.1054
▁동영상	-11.1054
▁짐	-11.1055
▁formal	-11.1056
▁해요	-11.1058
▁smart	-11.1061
▁실력	-11.1064
▁Ed	-11.1065
▁sky	-11.1066
non	-11.1067
▁representative	-11.1069
▁이행	-11.107
▁omitted	-11.1078
▁유아	-11.1078
sp	-11.108
▁criteria	-11.1084
까	-11.1084
▁보급	-11.1085
▁nodded	-11.1086
▁제어	-11.1087
▁Br	-11.1087
▁Ray	-11.1089
▁smiled	-11.1091
▁calcium	-11.1097
▁증거	-11.1097
▁pulse	-11.1097
table	-11.1102
▁diet	-11.1105
▁후반	-11.1105
vers	-11.1106
▁principle	-11.1107
▁단독	-11.1108
▁submitted	-11.111
act	-11.111
▁assistant	-11.1113
▁Corporation	-11.1116
▁massive	-11.1119
▁점수	-11.1121
▁creation	-11.1121
▁Records	-11.1126
▁node	-11.113
▁destroyed	-11.113
▁il	-11.1134
▁듯이	-11.1135
▁sum	-11.1137
▁print	-11.114
▁대안	-11.1141
▁audio	-11.1142
ef	-11.1142
▁Security	-11.1144
▁마감	-11.1146
균	-11.1147
▁놀	-11.1148
▁soil	-11.1149
Tex	-11.1151
▁헤	-11.1152
▁letters	-11.1155
▁Master	-11.1158
▁mark	-11.1158
▁대학생	-11.1159
sis	-11.1159
▁도민	-11.116
▁재배	-11.1161
▁±	-11.1162
ei	-11.1163
▁strange	-11.1164
▁강원	-11.1165
▁warrant	-11.1165
▁dans	-11.1166
▁전해	-11.1169
▁locations	-11.117
▁Major	-11.1172
▁sequences	-11.1173
▁무슨	-11.1175
▁엘	-11.1176
▁passage	-11.1184
황	-11.1185
▁wound	-11.1185
▁팀장	-11.1186
▁distributed	-11.1188
▁crowd	-11.1189
▁Pacific	-11.1191
▁빠	-11.1192
ery	-11.1194
range	-11.1194
▁촉진	-11.1195
▁기소	-11.1198
▁양국	-11.1204
좌	-11.1205
▁미만	-11.1206
▁dismissed	-11.121
▁receiver	-11.121
ets	-11.1211
lt	-11.1211
▁cognitive	-11.1212
▁증상	-11.1215
ese	-11.1216
▁Foundation	-11.1218
oid	-11.1219
work	-11.1222
▁통해서	-11.1224
▁Taylor	-11.1224
▁Gar	-11.1225
▁헌	-11.1225
▁Boston	-11.1229
▁spectrum	-11.123
▁pipe	-11.123
▁코드	-11.1234
▁저자	-11.1234
▁가공	-11.1236
▁immediate	-11.1237
▁edition	-11.1239
▁지도자	-11.1241
▁Based	-11.1242
▁Officer	-11.1246
▁increasingly	-11.1247
▁Je	-11.1248
eh	-11.1253
▁지표	-11.1254
▁Va	-11.1254
▁switching	-11.1256
App	-11.1256
▁shop	-11.1257
▁Studies	-11.1258
▁Plan	-11.126
▁id	-11.126
▁approved	-11.126
▁Yes	-11.1262
▁losing	-11.1266
▁매매	-11.1268
▁Ten	-11.1269
▁library	-11.1271
▁Prince	-11.1271
▁Network	-11.1272
▁Oh	-11.1273
▁grade	-11.1273
▁instant	-11.1274
aw	-11.1274
tte	-11.1275
▁Middle	-11.1275
ST	-11.1275
▁택시	-11.1277
혁	-11.1284
▁transistor	-11.1284
▁tip	-11.1289
▁아트	-11.1291
▁ride	-11.1292
▁relations	-11.1294
▁evolution	-11.1295
▁형사	-11.1296
▁입학	-11.1297
▁성인	-11.1298
▁(“	-11.13
▁troops	-11.1308
▁pan	-11.131
▁ID	-11.1311
▁disclosure	-11.1315
▁options	-11.1317
▁Review	-11.1319
▁simultaneously	-11.1321
▁scope	-11.1321
▁median	-11.1321
▁벽	-11.1325
▁이명	-11.1325
▁involvement	-11.1326
▁아이디어	-11.1336
▁Town	-11.1337
▁애플	-11.1338
▁inhibitors	-11.1341
▁Bur	-11.1341
▁Are	-11.1343
▁coupling	-11.1343
▁belt	-11.1345
▁gender	-11.1346
isation	-11.1347
▁석유	-11.1348
▁나선	-11.1348
oo	-11.1349
▁줄어들	-11.1349
▁견	-11.1354
hr	-11.1354
▁보관	-11.1356
▁label	-11.1359
une	-11.1362
▁commission	-11.1363
▁proceeding	-11.1363
▁가상	-11.1364
▁이슈	-11.137
웠	-11.1371
▁disposed	-11.1371
▁domestic	-11.1373
▁committee	-11.1373
▁lady	-11.1376
▁IC	-11.1378
▁Col	-11.138
▁참고	-11.1383
▁Official	-11.1384
▁noticed	-11.1384
▁大	-11.1386
▁temperatures	-11.1387
▁consisting	-11.139
ants	-11.1395
▁vertical	-11.1398
▁necessarily	-11.1399
▁Michigan	-11.1399
AD	-11.14
scale	-11.1402
▁항목	-11.1406
▁협정	-11.1407
▁accused	-11.1407
▁pages	-11.1416
▁brand	-11.1418
▁practices	-11.1422
▁instrument	-11.1425
▁metabolism	-11.1427
PD	-11.1431
▁uniform	-11.1431
▁익	-11.1431
▁yellow	-11.1433
▁branch	-11.1435
▁Four	-11.1436
▁Sec	-11.1437
▁viral	-11.1438
RA	-11.144
▁transcription	-11.1445
▁politics	-11.1448
▁select	-11.1453
▁경고	-11.1455
With	-11.1461
▁편리	-11.1461
▁날씨	-11.1461
▁뒷	-11.1465
▁시위	-11.1474
▁predetermined	-11.1475
▁캠프	-11.1475
▁confidence	-11.1476
▁신체	-11.1476
▁맥	-11.1484
▁조명	-11.1485
▁somewhere	-11.1488
var	-11.149
▁pool	-11.1494
mel	-11.1497
⁄	-11.1497
▁activated	-11.1501
▁IP	-11.1505
▁로봇	-11.1507
▁filing	-11.1508
▁경력	-11.1508
해졌	-11.151
long	-11.1512
▁taste	-11.1513
▁blocks	-11.1515
▁tracks	-11.1516
▁섭	-11.1517
▁implementation	-11.1517
▁Francisco	-11.1518
▁grown	-11.1519
▁Gi	-11.1521
▁danger	-11.1522
▁문의	-11.1523
▁Es	-11.1523
▁발달	-11.1524
lie	-11.1525
AL	-11.1525
Con	-11.1527
▁Application	-11.1528
▁워	-11.153
▁부회장	-11.153
▁올렸	-11.1532
▁Ser	-11.1533
▁제재	-11.1534
ib	-11.1535
▁emotional	-11.1543
▁cards	-11.1545
▁format	-11.1546
▁illegal	-11.1547
▁pin	-11.1548
▁재미	-11.1549
▁zero	-11.155
▁allegations	-11.1551
▁fifth	-11.1552
▁lying	-11.1553
▁greatest	-11.1554
▁weather	-11.1556
▁단어	-11.1556
다가	-11.1558
▁재생	-11.1559
://	-11.1559
▁논	-11.1561
▁publication	-11.1563
▁동반	-11.1565
▁vol	-11.1567
▁intelligence	-11.1567
까이	-11.1568
▁추구	-11.1569
▁Gold	-11.1569
▁Ag	-11.1569
▁브	-11.1573
▁SNS	-11.1575
part	-11.1575
▁compensation	-11.1575
vert	-11.1576
▁railway	-11.1579
▁이탈리아	-11.1581
▁houses	-11.1582
hen	-11.1585
▁affirm	-11.1586
▁휴대	-11.1587
▁MC	-11.1588
▁probe	-11.159
▁snow	-11.1592
▁storm	-11.1596
▁mirror	-11.1596
▁성분	-11.1596
▁Later	-11.1597
▁compare	-11.16
압	-11.1603
손	-11.1606
▁Iran	-11.1607
▁냉	-11.1609
▁differentiation	-11.161
▁알려져	-11.161
▁밝혀	-11.1617
zi	-11.1621
▁문자	-11.163
▁Eastern	-11.1634
▁고위	-11.1634
▁Asia	-11.1634
▁Mel	-11.1636
▁interior	-11.1636
▁deposition	-11.1637
van	-11.1638
▁편안	-11.164
▁위안	-11.1641
▁Fire	-11.1641
▁궁금	-11.1644
▁injured	-11.1645
▁putting	-11.1645
▁supports	-11.1647
ew	-11.1647
▁제목	-11.1648
Nothing	-11.1648
▁적자	-11.1649
▁witnesses	-11.1649
▁권한	-11.1651
▁tea	-11.1651
▁나눠	-11.1652
▁architecture	-11.1653
▁들여	-11.1656
▁framework	-11.1658
▁농산물	-11.1659
▁defeat	-11.1662
▁Book	-11.1662
▁고교	-11.1663
▁Those	-11.1673
▁captain	-11.1674
▁FA	-11.1675
▁서버	-11.1675
▁강사	-11.1676
▁유입	-11.1676
▁부실	-11.1678
▁audience	-11.1678
▁의심	-11.1682
▁Far	-11.1682
▁producer	-11.1684
▁얼	-11.1684
▁Summer	-11.1685
▁기분	-11.1685
▁western	-11.1688
▁경찰서	-11.1692
▁힘든	-11.1693
▁dedicated	-11.1693
▁Spain	-11.1694
▁선호	-11.1695
▁pe	-11.1695
▁Wall	-11.1696
▁addressed	-11.1696
wan	-11.1698
ade	-11.1698
▁모니터	-11.1704
▁£	-11.1705
▁familiar	-11.1705
▁smoke	-11.1707
테	-11.1707
▁stupid	-11.1708
▁prevention	-11.1715
▁데뷔	-11.1715
▁decline	-11.1715
▁considerable	-11.1716
▁serves	-11.1716
▁adequate	-11.1717
ob	-11.1721
▁강원도	-11.1722
▁regulatory	-11.1722
▁환율	-11.1724
▁Saturday	-11.1726
▁아도	-11.1727
▁Bell	-11.1727
▁council	-11.173
▁실내	-11.1732
▁공학	-11.1734
▁winter	-11.1734
▁bright	-11.1734
▁pictures	-11.1735
▁sharp	-11.1735
ram	-11.1745
Ha	-11.1746
▁Show	-11.1747
tive	-11.1748
▁enhance	-11.1748
▁quantum	-11.1749
▁jail	-11.1749
▁낼	-11.175
▁세포	-11.175
▁bearing	-11.175
▁Monday	-11.1753
▁mention	-11.1754
침	-11.1754
▁새벽	-11.1754
▁대만	-11.1755
▁모여	-11.1755
▁recognize	-11.1757
▁소요	-11.1759
▁reviewed	-11.1759
▁급증	-11.176
uch	-11.1763
rick	-11.1766
▁holds	-11.1766
쳤	-11.1766
▁위주	-11.1769
▁바라	-11.177
▁평생	-11.177
▁본사	-11.1772
▁intermediate	-11.1776
ES	-11.1777
▁Alex	-11.1778
▁Georgia	-11.1778
▁주차	-11.178
▁자전거	-11.1782
▁깨끗	-11.1782
▁μ	-11.1783
▁declared	-11.1784
▁loop	-11.1785
▁Columbia	-11.1788
▁Stephen	-11.1789
dan	-11.1789
ai	-11.179
▁knowing	-11.1791
▁할지	-11.1792
▁확	-11.1793
▁enforcement	-11.1793
▁서류	-11.1794
▁적합	-11.1794
▁op	-11.1795
NA	-11.1797
▁principles	-11.1798
▁집회	-11.18
▁informed	-11.1801
ä	-11.1802
town	-11.1803
▁newspaper	-11.1805
▁맘	-11.1807
▁begins	-11.1809
▁pushed	-11.1812
▁interference	-11.1814
▁비전	-11.1816
wi	-11.1816
▁Prime	-11.1817
▁유엔	-11.1817
SC	-11.1821
az	-11.1822
▁컨	-11.1823
set	-11.1823
을	-11.1826
Sure	-11.1829
▁도심	-11.1829
▁po	-11.1831
▁employer	-11.1831
▁온도	-11.1831
▁긴장	-11.1836
▁matches	-11.1839
▁회관	-11.184
▁tank	-11.1841
gu	-11.1841
▁une	-11.1842
▁capture	-11.1842
▁죽음	-11.1842
▁dogs	-11.1844
▁김정	-11.1845
▁Ill	-11.1846
▁현행	-11.1849
▁Constitution	-11.1852
▁탄생	-11.1855
▁tells	-11.1856
▁depth	-11.1861
▁mutations	-11.1861
▁meat	-11.1861
▁applying	-11.1862
▁보완	-11.1862
▁답변	-11.1863
▁합병	-11.1863
▁누가	-11.1865
▁최대한	-11.1865
CR	-11.1868
▁Dar	-11.1871
▁tournament	-11.1872
▁um	-11.1872
▁thirty	-11.1873
▁모색	-11.1877
▁공천	-11.1878
▁representation	-11.188
▁세종	-11.1883
▁utilized	-11.189
▁opposed	-11.1891
▁명령	-11.1893
▁progression	-11.1895
▁judicial	-11.1901
▁선도	-11.1902
▁Fox	-11.1904
▁chapter	-11.1904
ec	-11.1908
▁못해	-11.1911
MC	-11.1912
▁happening	-11.1913
▁놀이	-11.1913
▁installed	-11.1913
▁마시	-11.1914
ified	-11.1915
▁변동	-11.1917
▁considering	-11.1917
▁machines	-11.1918
▁advantages	-11.1918
▁spirit	-11.192
▁elevated	-11.1923
▁regulations	-11.1924
▁의도	-11.1925
▁철학	-11.1926
band	-11.1927
▁candidates	-11.1933
▁블로그	-11.1935
▁laid	-11.1937
pp	-11.1938
ati	-11.1938
▁musical	-11.1938
▁dollars	-11.194
sion	-11.1945
▁antigen	-11.1948
긴	-11.1948
▁주체	-11.1949
▁공인	-11.195
▁protective	-11.1951
▁artery	-11.1952
▁자극	-11.1954
des	-11.1955
▁교실	-11.1956
▁aged	-11.1956
▁주간	-11.1959
시범	-11.1959
▁complicated	-11.196
▁경계	-11.1962
▁rejected	-11.1967
▁files	-11.1967
▁SP	-11.1968
▁Governor	-11.1969
▁Kar	-11.1972
▁favorite	-11.1975
▁reactions	-11.1976
▁participate	-11.1977
▁suffering	-11.198
▁replied	-11.1981
cle	-11.1981
oon	-11.1983
▁점차	-11.1986
▁사무실	-11.1987
▁replace	-11.1987
▁coast	-11.199
▁quarter	-11.199
▁콜	-11.1991
▁translation	-11.1992
▁곳곳	-11.1993
▁용품	-11.1994
▁nose	-11.1994
▁식물	-11.1994
▁Lewis	-11.1995
▁ca	-11.2
▁pas	-11.2001
TH	-11.2003
tar	-11.2003
▁teaching	-11.2004
▁전투	-11.2006
▁mistake	-11.2007
▁fraud	-11.2007
▁ON	-11.2009
▁%(	-11.2014
▁채택	-11.2014
▁복잡	-11.2016
▁dismiss	-11.2016
▁서울대	-11.2017
▁돌파	-11.202
▁강하	-11.202
▁citizens	-11.2023
▁yield	-11.2026
class	-11.2027
▁텔레콤	-11.2027
▁정착	-11.2031
▁cited	-11.2032
▁faster	-11.2035
▁tight	-11.2035
om	-11.2037
▁진료	-11.2037
▁포항	-11.2039
▁identical	-11.2041
▁bringing	-11.2043
▁임원	-11.2044
▁활약	-11.2045
▁pen	-11.2045
▁징	-11.2045
▁opposition	-11.2048
▁metabolic	-11.2051
ug	-11.2053
▁variables	-11.2054
▁Twitter	-11.2057
ā	-11.2058
률	-11.2059
▁ideal	-11.206
▁weren	-11.206
▁assumed	-11.206
ans	-11.2063
▁offering	-11.2064
▁불만	-11.2064
▁nano	-11.2066
lam	-11.2067
▁연주	-11.2067
▁biggest	-11.2067
▁AT	-11.2068
▁throw	-11.2069
▁국내외	-11.2069
cia	-11.2069
▁minister	-11.207
▁잊	-11.2071
tan	-11.2073
▁involve	-11.2074
▁돌아가	-11.2077
▁depends	-11.2079
▁wet	-11.2081
AC	-11.2084
▁au	-11.2085
▁dispute	-11.2086
▁Bridge	-11.2089
▁밝힌	-11.209
▁imp	-11.2092
rk	-11.2093
▁excess	-11.2099
eg	-11.2101
▁figures	-11.2104
▁였으며	-11.2104
▁점점	-11.2106
▁예고	-11.2106
춘	-11.2108
▁중학교	-11.2108
▁FOR	-11.2109
▁취임	-11.2109
▁라운드	-11.211
#	-11.2112
▁백신	-11.2112
▁ships	-11.2114
▁realize	-11.2114
▁supplied	-11.2116
▁Rose	-11.2116
▁올려	-11.2117
SO	-11.2117
▁Conference	-11.2118
▁defeated	-11.2119
▁powers	-11.2119
▁Line	-11.2121
▁휴가	-11.2121
▁폰	-11.2121
무려	-11.2123
▁Harry	-11.2123
▁합격	-11.2125
▁alkyl	-11.2128
▁printed	-11.2132
▁치열	-11.2132
▁Elizabeth	-11.2133
▁비디오	-11.2134
▁fa	-11.2136
▁captured	-11.2137
▁Han	-11.2138
app	-11.2139
▁빠져	-11.2139
혈	-11.214
▁Battle	-11.2141
▁proliferation	-11.2142
▁kinase	-11.2146
▁대행	-11.2148
합	-11.215
▁discrimination	-11.2153
▁수지	-11.2153
ions	-11.2154
▁끼	-11.2156
ae	-11.2157
▁experiment	-11.2158
▁personnel	-11.2158
▁Nor	-11.2161
Pro	-11.2162
▁inflammatory	-11.2162
▁희생	-11.2163
▁steam	-11.2164
▁careful	-11.2167
▁Ja	-11.2175
some	-11.2177
빛	-11.2181
▁Though	-11.2181
▁Pe	-11.2183
▁결론	-11.2185
▁까	-11.2185
tes	-11.2186
BA	-11.2186
ces	-11.2191
▁immunity	-11.2193
▁Ber	-11.2193
▁segment	-11.2195
▁budget	-11.2195
idae	-11.2196
▁}	-11.2196
▁settled	-11.2198
▁overcome	-11.2199
▁leadership	-11.2201
▁talked	-11.2203
▁기다리	-11.2205
▁시티	-11.2205
▁cooling	-11.2208
ale	-11.221
▁license	-11.221
ming	-11.221
▁somebody	-11.2216
▁OK	-11.222
▁logic	-11.2221
▁늘어난	-11.2222
pin	-11.2226
▁contrary	-11.2226
▁Andrew	-11.2227
▁wake	-11.2229
룡	-11.2231
Ro	-11.2232
▁knee	-11.2232
▁fee	-11.2234
▁starts	-11.2237
▁victims	-11.2238
val	-11.2242
▁timing	-11.2243
AM	-11.2243
FA	-11.2245
▁views	-11.2245
▁Professor	-11.2248
▁lock	-11.2248
EC	-11.2251
▁한화	-11.2254
원래	-11.2257
▁대처	-11.2258
▁빌	-11.2259
▁rural	-11.2259
su	-11.226
oxy	-11.226
▁Due	-11.226
▁fired	-11.2262
▁huh	-11.2263
▁differential	-11.2264
칠	-11.2268
▁cord	-11.2269
▁earned	-11.2271
▁김영	-11.2271
▁neural	-11.2274
▁연극	-11.2274
▁전시회	-11.2275
▁aside	-11.2275
ée	-11.2275
▁화장품	-11.2276
▁좌	-11.2276
▁partially	-11.2277
ious	-11.2278
▁감시	-11.2278
▁organizations	-11.2278
▁heating	-11.2278
▁glad	-11.228
▁용역	-11.2282
▁뿌리	-11.2285
▁latest	-11.2287
▁Steve	-11.2288
▁웃음	-11.2291
▁significance	-11.2292
rm	-11.2293
▁취	-11.2294
▁일제	-11.2294
▁Jersey	-11.2297
▁correlated	-11.2304
alkyl	-11.2306
▁물건	-11.2309
ff	-11.2311
▁BBC	-11.2318
▁GM	-11.2318
나무	-11.2318
▁loan	-11.2318
▁AP	-11.2322
▁researchers	-11.2324
gel	-11.2325
▁임명	-11.2325
▁jobs	-11.2326
둔	-11.2327
she	-11.2328
af	-11.2328
mediated	-11.2328
▁authors	-11.2333
▁Sha	-11.2334
▁흑	-11.2335
._	-11.2338
▁국무	-11.2339
▁디스플레이	-11.234
▁missed	-11.2341
▁Max	-11.2341
▁찬	-11.2344
▁easier	-11.2345
▁Sal	-11.2347
▁바이	-11.2347
▁hat	-11.2348
ea	-11.235
▁Wa	-11.2351
▁알려진	-11.2352
▁Lady	-11.2354
▁폭발	-11.2359
▁pure	-11.2361
▁drinking	-11.2362
▁Clinton	-11.2362
▁사유	-11.237
▁스트레스	-11.2376
▁Arts	-11.2377
▁당하	-11.238
▁optimal	-11.238
▁근본	-11.2381
uri	-11.2384
ties	-11.2388
▁chose	-11.2391
▁planet	-11.2392
▁대학원	-11.2394
ava	-11.2395
▁Ph	-11.2397
▁god	-11.24
▁exact	-11.2401
▁strains	-11.2402
▁imposed	-11.2408
put	-11.2411
atory	-11.2411
▁선박	-11.2411
▁직무	-11.2412
▁휴대폰	-11.2415
▁Game	-11.2416
▁Mother	-11.2416
▁aimed	-11.2419
▁Alexander	-11.2419
▁기금	-11.242
▁errors	-11.242
▁유로	-11.2421
▁visible	-11.2424
▁Matt	-11.2424
▁무리	-11.2432
▁맹	-11.2432
▁경기장	-11.2433
▁동부	-11.2435
▁Asian	-11.2436
▁로써	-11.2439
메	-11.244
AR	-11.2441
▁테스트	-11.2444
▁consent	-11.2446
uck	-11.2449
▁Val	-11.2449
▁ordinary	-11.2451
▁fail	-11.2452
▁females	-11.2452
▁Ku	-11.2453
▁부탁	-11.2455
▁거기	-11.2456
▁했었	-11.246
▁tough	-11.2463
nic	-11.2463
삼	-11.2465
▁Che	-11.2466
▁honor	-11.2466
▁mountain	-11.2466
▁pulmonary	-11.2468
토대	-11.2468
▁조작	-11.2468
▁valid	-11.2469
▁designated	-11.247
del	-11.2473
회사	-11.2474
▁어떠	-11.2476
▁farm	-11.2476
▁prepare	-11.2476
▁willing	-11.2477
▁량	-11.2477
▁시인	-11.2482
▁기독교	-11.2483
▁electrodes	-11.2484
▁debt	-11.2487
▁Stone	-11.2488
▁Eric	-11.2492
▁마이크	-11.2493
▁investment	-11.2494
à	-11.2498
▁보조	-11.2499
IN	-11.25
▁들어갔	-11.2502
▁시리즈	-11.2502
▁펼쳐	-11.2504
▁bacteria	-11.2509
▁residence	-11.2509
▁는다는	-11.251
▁BC	-11.2517
▁여당	-11.2518
▁draft	-11.252
▁worst	-11.2521
▁infections	-11.2521
log	-11.2522
▁artists	-11.2522
▁테러	-11.2522
▁everybody	-11.2529
▁바닥	-11.2535
▁heads	-11.2542
ular	-11.2543
CP	-11.2545
▁폴	-11.2548
▁dust	-11.255
▁prevalence	-11.2551
▁accounts	-11.2553
버스	-11.2555
@	-11.2555
ole	-11.2556
▁개입	-11.2559
mark	-11.2559
▁법정	-11.2559
▁guns	-11.256
▁retired	-11.2564
▁Bra	-11.2567
▁truly	-11.257
▁powder	-11.2577
▁입력	-11.2579
key	-11.2582
▁ME	-11.2587
▁sand	-11.2591
▁갑자기	-11.2592
▁미사일	-11.2592
IP	-11.2593
▁슈퍼	-11.2594
▁Santa	-11.2596
▁customer	-11.2596
▁제약	-11.2596
▁dress	-11.2598
RE	-11.2599
▁crisis	-11.2602
▁라면서	-11.2602
▁Shi	-11.2603
렌	-11.2607
▁technologies	-11.2609
▁아기	-11.2609
▁purchased	-11.261
▁주소	-11.261
▁catalyst	-11.2618
▁Dutch	-11.2622
▁Services	-11.2626
HA	-11.2627
ras	-11.2628
mat	-11.2629
▁recover	-11.2632
▁시사	-11.2633
▁유출	-11.2635
▁Still	-11.2638
▁Third	-11.2639
▁Ri	-11.2642
amino	-11.2643
▁논리	-11.2645
▁Series	-11.2649
known	-11.265
▁thoughts	-11.265
kar	-11.2655
▁displayed	-11.2656
▁administered	-11.2658
▁silence	-11.2658
▁워크	-11.266
▁소중	-11.2661
fully	-11.2665
▁helping	-11.2665
ography	-11.2665
Ra	-11.2667
▁한국인	-11.2668
▁동료	-11.2675
ama	-11.2678
▁흥미	-11.2679
▁contribution	-11.2679
▁extreme	-11.2682
God	-11.2682
▁Night	-11.2685
▁광장	-11.2687
▁funny	-11.2689
▁실업	-11.2691
▁Latin	-11.2694
▁담보	-11.2694
힌	-11.2694
▁fruit	-11.2695
▁string	-11.2699
정받	-11.2703
▁refers	-11.2703
▁수수료	-11.2706
▁임직	-11.2707
▁carcinoma	-11.271
명칭	-11.2712
▁scores	-11.2712
▁Mal	-11.2716
▁treatments	-11.2716
box	-11.2719
uring	-11.2719
▁imagine	-11.2722
▁urban	-11.2722
▁칠	-11.2723
▁PM	-11.2723
▁engineering	-11.2724
▁역대	-11.2726
▁이틀	-11.2728
▁prime	-11.2728
▁chart	-11.2731
▁→	-11.2732
▁shouldn	-11.2734
▁closing	-11.2735
▁organized	-11.2736
▁생존	-11.2736
▁진흥	-11.2736
▁이래	-11.2738
▁Hu	-11.274
▁풍부	-11.274
▁클	-11.2741
▁[@	-11.2741
MP	-11.2742
▁doctrine	-11.2743
▁주행	-11.2743
▁선보이	-11.2745
▁module	-11.2747
▁연령	-11.2747
▁shook	-11.2748
▁monitor	-11.275
▁exhibit	-11.2754
▁males	-11.2755
▁DE	-11.2755
▁denial	-11.2758
▁adapted	-11.2765
▁불가피	-11.2765
EP	-11.2771
▁초대	-11.2775
▁비리	-11.2776
▁하우스	-11.2777
▁stick	-11.2778
▁음성	-11.2778
▁떨어진	-11.278
▁connecting	-11.278
▁상당히	-11.278
av	-11.2784
▁reliable	-11.2785
▁대북	-11.2787
▁pet	-11.2788
▁주주	-11.279
▁현대차	-11.279
▁질병	-11.279
▁sodium	-11.2791
lum	-11.2793
▁answered	-11.2793
▁시선	-11.2794
▁으므로	-11.2795
lu	-11.2797
▁초과	-11.28
SS	-11.2802
▁획득	-11.2802
▁Library	-11.2805
gi	-11.2806
▁Class	-11.2806
▁일대	-11.2807
▁advice	-11.2807
▁페이스북	-11.2808
▁papers	-11.2808
▁관측	-11.2809
▁calm	-11.2809
▁religion	-11.281
▁facilitate	-11.2814
▁Case	-11.2815
▁Fa	-11.2815
▁classification	-11.2816
▁peptide	-11.2816
▁어제	-11.2816
칙	-11.2817
▁Maybe	-11.2819
▁tail	-11.2819
▁totally	-11.282
▁radical	-11.2822
▁Ban	-11.2823
▁evil	-11.2826
▁불러	-11.2827
▁intake	-11.2827
▁연습	-11.2829
▁gel	-11.283
▁category	-11.2831
▁inhibitor	-11.2831
▁counts	-11.2833
▁carefully	-11.2834
NO	-11.2834
ala	-11.2837
▁hybrid	-11.2838
▁십시오	-11.2838
▁입찰	-11.2841
▁appeals	-11.2844
▁세우	-11.2844
▁induce	-11.2846
▁Tim	-11.2846
▁compositions	-11.2847
▁ni	-11.2847
▁stepped	-11.2849
▁Head	-11.285
▁Cat	-11.2851
py	-11.2851
▁학기	-11.2853
▁Non	-11.2866
▁insufficient	-11.2867
▁essentially	-11.2869
▁interval	-11.2871
원내대표	-11.2873
▁barrier	-11.2873
린다	-11.2874
▁dealing	-11.2874
맨	-11.2876
▁blow	-11.2876
▁Bre	-11.2881
ub	-11.2884
▁약간	-11.2884
star	-11.2885
견	-11.2888
▁수급	-11.2889
▁z	-11.2889
ku	-11.2892
▁Korean	-11.2893
shaped	-11.2893
▁호소	-11.2894
▁남녀	-11.2894
핑	-11.2897
농	-11.2898
▁캐나다	-11.2901
▁recommended	-11.2901
▁월드	-11.2901
▁End	-11.2903
▁성명	-11.2904
▁화려	-11.2904
먼지	-11.2905
▁응원	-11.2908
▁저축	-11.2908
▁copper	-11.2914
hand	-11.2916
▁institutions	-11.2917
▁responded	-11.2917
▁지하철	-11.292
▁eating	-11.2921
▁미니	-11.2923
▁충전	-11.2925
▁sin	-11.2928
▁email	-11.2929
▁ge	-11.2929
▁물류	-11.2929
▁테마	-11.2931
ls	-11.2934
▁facing	-11.2937
▁faces	-11.2942
▁눈물	-11.2943
▁greatly	-11.2944
▁Fort	-11.2944
▁fibers	-11.2945
▁kick	-11.2945
osis	-11.2945
▁열린다	-11.2947
협	-11.2947
▁Adam	-11.2947
▁단장	-11.2949
▁Empire	-11.295
▁Za	-11.2954
▁execution	-11.2954
▁ain	-11.2955
▁editor	-11.2958
▁expand	-11.2958
▁무시	-11.2958
▁mask	-11.2958
br	-11.296
▁launch	-11.2962
OL	-11.2964
▁»	-11.2967
▁ill	-11.2967
▁emission	-11.2969
▁논술	-11.2969
▁충	-11.2971
gon	-11.2972
▁Mer	-11.2972
▁erred	-11.2972
▁session	-11.2974
▁elections	-11.2975
▁hundreds	-11.2978
▁시급	-11.2978
tur	-11.2979
▁vector	-11.2981
만큼	-11.2981
▁é	-11.2981
▁회전	-11.2982
pt	-11.2983
▁convicted	-11.2984
▁Wales	-11.2985
▁제고	-11.2986
▁covering	-11.2989
▁somewhat	-11.299
▁improving	-11.2992
▁나올	-11.2993
▁Dad	-11.2993
▁coronary	-11.2995
▁Tour	-11.2998
▁엠	-11.2999
▁Simon	-11.3
bed	-11.3002
훼손	-11.3005
▁괴	-11.3006
▁프리미엄	-11.3007
▁초반	-11.3008
RT	-11.3009
▁introduction	-11.3009
▁las	-11.301
▁Die	-11.3012
▁arguments	-11.3013
▁assume	-11.3014
▁breach	-11.3018
▁doors	-11.3019
yo	-11.302
▁극장	-11.302
▁케이	-11.3021
▁fed	-11.3022
▁중소	-11.3024
▁worried	-11.3028
▁내일	-11.3028
cent	-11.3029
▁흔	-11.3029
DM	-11.3031
쓰	-11.3032
о	-11.3032
▁Nick	-11.3033
▁융합	-11.3033
Our	-11.3035
▁학회	-11.3035
▁스페인	-11.3038
▁명확	-11.3039
▁particle	-11.3039
▁부재	-11.304
。	-11.3042
▁behalf	-11.3043
▁entrance	-11.3043
▁streets	-11.3044
▁찾아가	-11.3045
▁survive	-11.3045
▁Bio	-11.3047
▁damn	-11.3047
▁observations	-11.3048
aj	-11.3048
▁gained	-11.3048
Cl	-11.3053
▁Information	-11.3053
▁천안	-11.3056
bu	-11.306
▁deliver	-11.3061
▁qualified	-11.3061
▁reaching	-11.3062
▁순환	-11.3065
{\	-11.3065
즌	-11.3066
mes	-11.3067
▁manage	-11.3068
▁Station	-11.3069
▁Management	-11.3069
Excuse	-11.3074
▁Del	-11.3076
sha	-11.3078
▁적발	-11.3078
rus	-11.3079
▁진실	-11.308
▁characterize	-11.3081
‘	-11.3084
▁낳	-11.3085
▁virtual	-11.3086
▁induction	-11.3087
▁버전	-11.3087
든	-11.3088
▁magic	-11.3089
▁transformation	-11.3089
▁frequent	-11.309
▁경주	-11.3092
▁Today	-11.3093
ches	-11.3096
▁decade	-11.3099
▁Control	-11.3099
▁custody	-11.31
▁콘서트	-11.31
▁sustained	-11.3101
어도	-11.3105
▁velocity	-11.3105
케	-11.3106
▁combat	-11.3108
▁그리스도	-11.3109
ses	-11.3112
귀	-11.3112
PE	-11.3113
▁Assembly	-11.3115
▁Rome	-11.3118
▁느낄	-11.3118
▁failing	-11.3118
▁jump	-11.312
▁lips	-11.3121
▁trained	-11.3125
▁영양	-11.3126
▁SO	-11.3126
▁났	-11.3127
▁Apple	-11.3129
ser	-11.3133
▁algorithm	-11.3136
궁	-11.3136
▁지출	-11.3137
gate	-11.3137
▁flexible	-11.3139
▁holes	-11.3139
▁prominent	-11.3141
▁converted	-11.3143
elli	-11.3145
▁approval	-11.3146
▁vocals	-11.3146
▁남부	-11.3147
Hold	-11.3148
▁angry	-11.3152
▁파괴	-11.3152
▁yards	-11.3153
▁journey	-11.3154
▁베스트	-11.3155
▁expanded	-11.3157
▁Mass	-11.3158
▁garden	-11.3158
cap	-11.3158
▁windows	-11.3159
▁페이지	-11.3159
die	-11.3163
▁brothers	-11.3163
▁ban	-11.3163
▁root	-11.3165
▁busy	-11.3166
DS	-11.3168
▁OS	-11.3173
Will	-11.3177
▁증진	-11.3178
%.	-11.3178
▁경선	-11.3178
▁딱	-11.3179
▁마스크	-11.318
▁alter	-11.3181
▁giant	-11.3181
녀	-11.3187
▁drawing	-11.3187
▁판사	-11.3188
▁겁니다	-11.319
▁mad	-11.3192
▁기상	-11.3192
▁http	-11.3194
▁unusual	-11.3196
▁경로	-11.3199
▁Tuesday	-11.3201
▁공시	-11.3201
dar	-11.3201
dal	-11.3202
▁generating	-11.3202
▁지연	-11.3204
▁dynamics	-11.3205
▁hide	-11.3207
▁향해	-11.3208
▁Cho	-11.3211
nan	-11.3212
폭	-11.3215
▁Back	-11.3218
▁loose	-11.3218
▁heavily	-11.3219
▁접속	-11.3219
Na	-11.322
▁벤	-11.3221
was	-11.3223
▁continuing	-11.3225
▁periods	-11.3227
▁assist	-11.3227
▁inflammation	-11.3227
▁소녀	-11.3228
▁은데	-11.3228
▁luck	-11.3228
int	-11.3229
▁hang	-11.324
▁청사	-11.3241
리아	-11.3246
▁bankruptcy	-11.3249
▁Com	-11.3253
라크	-11.3253
▁independently	-11.3254
▁reveal	-11.3255
▁difficulty	-11.3256
▁restaurant	-11.3257
▁experiences	-11.3257
ving	-11.3259
▁Anna	-11.3259
▁wedding	-11.3262
▁Business	-11.3263
▁◆	-11.3264
▁boss	-11.3269
ration	-11.327
▁payments	-11.3271
▁컨설팅	-11.3274
▁surprised	-11.3276
▁comments	-11.3277
mus	-11.3278
▁드러났	-11.3279
TS	-11.328
▁GS	-11.3282
▁투쟁	-11.3285
▁사안	-11.3285
▁착	-11.3285
▁면접	-11.3295
▁트리	-11.3296
▁Media	-11.3299
▁산림	-11.33
▁상공	-11.33
▁여유	-11.3302
cur	-11.3306
▁복귀	-11.3309
▁mix	-11.3311
럽	-11.3312
▁주차장	-11.3316
▁Page	-11.3317
▁Brian	-11.332
벽	-11.3322
▁blind	-11.3323
▁treating	-11.3324
▁Ken	-11.3324
▁debate	-11.3325
운전자	-11.3326
▁플러스	-11.3327
inter	-11.3329
▁foundation	-11.3329
▁읍	-11.333
▁markers	-11.3335
▁defects	-11.3336
▁amended	-11.3337
Ca	-11.334
▁Op	-11.334
▁buried	-11.3343
▁drama	-11.3343
▁사기	-11.3345
▁apoptosis	-11.3345
▁nm	-11.3347
▁secured	-11.3348
▁pregnancy	-11.3353
dra	-11.3354
▁scientists	-11.3355
▁둘째	-11.3356
LY	-11.3356
ened	-11.3358
▁moral	-11.3361
▁Anderson	-11.3362
now	-11.3364
▁파크	-11.3365
▁maintaining	-11.3365
▁moves	-11.3365
▁자문	-11.3366
▁기에	-11.3366
▁mar	-11.3368
▁sentencing	-11.3369
▁lunch	-11.337
▁marks	-11.3372
즘	-11.3372
▁접종	-11.3378
▁내렸	-11.3379
▁Clark	-11.3383
▁solar	-11.3383
▁유가	-11.3384
▁selling	-11.3384
▁representing	-11.3387
▁노무	-11.3388
ay	-11.3389
ele	-11.3394
▁Duke	-11.3394
ye	-11.3397
▁효	-11.3397
▁지상	-11.3397
▁tone	-11.3401
▁Any	-11.3401
▁genome	-11.3401
▁SW	-11.3401
Ch	-11.3402
▁다루	-11.3402
▁Ali	-11.3402
▁childhood	-11.3404
▁spatial	-11.3405
확충	-11.3406
▁feedback	-11.3407
▁Ford	-11.3411
껏	-11.3411
▁시청자	-11.3413
▁Carl	-11.3414
▁fund	-11.3414
▁explanation	-11.3415
▁temporary	-11.3417
▁suspension	-11.3419
▁selective	-11.342
▁맛집	-11.3423
ston	-11.3423
▁tall	-11.3424
▁Ki	-11.3425
▁struck	-11.3426
▁automatic	-11.3426
zen	-11.3427
▁lipid	-11.343
▁서민	-11.3433
▁Real	-11.3434
▁Games	-11.3435
▁선임	-11.3438
med	-11.3442
▁programming	-11.3444
▁충청	-11.3452
rie	-11.3456
▁Commissioner	-11.3462
였	-11.3466
▁falling	-11.3466
▁Harris	-11.3468
▁Il	-11.3469
san	-11.3471
▁세부	-11.3472
▁FBI	-11.3475
▁이때	-11.3481
▁금속	-11.3482
org	-11.3482
TA	-11.3485
▁saved	-11.3487
▁Centre	-11.3489
▁constitute	-11.3493
ments	-11.3494
▁훌륭	-11.3494
▁About	-11.3494
ien	-11.3496
▁bo	-11.3496
▁압박	-11.3498
Mar	-11.3498
lay	-11.3499
▁Ra	-11.3499
▁Rev	-11.35
▁transaction	-11.3501
▁Berlin	-11.3502
El	-11.3502
▁enzymes	-11.3503
▁anywhere	-11.3505
▁blade	-11.3505
▁altered	-11.3506
▁도구	-11.3506
▁disability	-11.3506
▁stayed	-11.351
▁살리	-11.3511
ox	-11.3512
▁도면	-11.3512
▁extending	-11.3515
▁맞이	-11.3516
▁Parliament	-11.3518
▁증명	-11.3519
fe	-11.3529
돈	-11.353
▁wonderful	-11.3532
▁바라보	-11.3533
▁collect	-11.3535
▁factual	-11.3536
ther	-11.3536
▁토록	-11.3536
▁implemented	-11.3537
▁assets	-11.3539
hal	-11.3541
▁Mont	-11.3546
▁genus	-11.3546
▁DO	-11.3546
▁작동	-11.3546
▁파워	-11.3547
▁Hong	-11.3549
▁automatically	-11.3549
▁reflected	-11.355
xc	-11.3552
▁fraction	-11.3554
▁tired	-11.3556
▁executed	-11.3558
▁governor	-11.3558
▁solve	-11.356
▁열정	-11.356
▁국방	-11.3567
▁예전	-11.3568
▁합동	-11.357
(-	-11.3573
▁학술	-11.3575
▁sufficiently	-11.3577
▁만남	-11.3578
▁관내	-11.3578
cor	-11.3579
▁comprehensive	-11.3581
▁감동	-11.3585
▁variations	-11.3589
▁전송	-11.359
ito	-11.3592
▁feels	-11.3592
:**	-11.3596
▁pleasure	-11.3597
▁파견	-11.3598
▁Upon	-11.3601
▁scanning	-11.3602
▁CJ	-11.3605
▁Hi	-11.3609
▁정식	-11.361
▁Wednesday	-11.361
vel	-11.3612
▁Was	-11.3612
▁situations	-11.3612
▁prosecution	-11.3613
▁flying	-11.3613
▁서구	-11.3614
▁Os	-11.3614
▁번역	-11.3614
▁빵	-11.3614
▁강연	-11.3618
▁배제	-11.3624
________________	-11.3624
▁Windows	-11.3624
▁registered	-11.3624
▁pocket	-11.3624
▁정지	-11.3627
▁체육관	-11.3629
shi	-11.3635
▁contents	-11.3635
▁kidney	-11.3635
▁시정	-11.3635
▁classified	-11.3636
His	-11.364
▁headed	-11.3641
▁키우	-11.3641
▁territory	-11.3643
▁Railway	-11.3646
▁Tony	-11.3646
▁destroy	-11.3647
▁용기	-11.3647
▁Point	-11.3649
▁을지	-11.365
room	-11.3651
DA	-11.3651
▁pot	-11.3652
▁resonance	-11.3654
▁sector	-11.3658
▁승부	-11.366
▁편집	-11.3662
▁Avenue	-11.3662
▁hip	-11.3662
▁perspective	-11.3665
▁규칙	-11.3665
▁consecutive	-11.3665
▁Win	-11.3666
▁Technology	-11.3667
▁opportunities	-11.3667
▁underwent	-11.367
수록	-11.3671
▁alongside	-11.3673
▁estimate	-11.3673
ika	-11.3674
▁valuable	-11.3676
▁resource	-11.3677
▁독특	-11.3678
▁protest	-11.3679
▁physiological	-11.3681
▁collaboration	-11.3684
▁bottle	-11.3685
such	-11.3686
▁션	-11.3687
bin	-11.3687
▁readily	-11.3687
%),	-11.3688
▁상상	-11.369
▁통보	-11.369
▁effectiveness	-11.369
▁cleaning	-11.3691
▁라이	-11.3692
▁Indeed	-11.3695
▁hormone	-11.3699
▁lift	-11.3699
▁엔터	-11.3701
▁Mor	-11.3703
▁보존	-11.3704
▁원전	-11.3705
▁moderate	-11.3705
▁dé	-11.3707
bel	-11.3709
▁warning	-11.371
▁buffer	-11.371
▁프	-11.3711
▁득점	-11.3711
▁reasonably	-11.3712
▁targeted	-11.3713
셔	-11.3713
▁invasion	-11.3719
▁다운	-11.372
▁suffer	-11.3724
▁stands	-11.3726
▁absorption	-11.3728
pm	-11.3733
▁급격	-11.3735
Ba	-11.3737
get	-11.3738
▁부당	-11.3738
▁Core	-11.3739
ates	-11.3741
▁기후	-11.3742
▁SC	-11.3744
▁Mu	-11.3745
▁specified	-11.3747
▁losses	-11.3748
겁	-11.3748
습	-11.375
▁뛰어난	-11.3753
tain	-11.3753
▁observation	-11.3753
▁심지어	-11.3758
▁fix	-11.376
▁weekend	-11.3762
TP	-11.3762
롱	-11.3769
▁coat	-11.3772
▁ST	-11.3777
▁smoking	-11.378
▁Trust	-11.378
▁vast	-11.3782
OS	-11.3783
▁seal	-11.3783
▁establishment	-11.3783
▁급여	-11.3784
],	-11.3786
▁tract	-11.3786
▁든지	-11.3787
침해	-11.3788
▁applies	-11.3788
▁희	-11.3788
▁시공	-11.379
▁경향	-11.379
▁lateral	-11.3791
▁wafer	-11.3793
▁dual	-11.3793
▁스토리	-11.3794
▁깊이	-11.3795
▁Did	-11.3796
▁duties	-11.3797
▁conductive	-11.3798
nar	-11.3799
▁infected	-11.3801
▁판정	-11.3803
▁상처	-11.3804
▁corporation	-11.3804
PR	-11.3805
▁경찰청	-11.3806
▁diverse	-11.3807
▁passes	-11.3808
효	-11.3809
▁obviously	-11.3809
▁짜리	-11.3811
▁Pen	-11.3814
▁implement	-11.3815
▁Thursday	-11.3815
▁cu	-11.3816
▁breaking	-11.3817
▁Mad	-11.3818
▁vice	-11.382
▁사법	-11.3822
▁composite	-11.3824
▁광역	-11.3824
▁throat	-11.3825
▁wing	-11.3826
▁messages	-11.3827
run	-11.3828
▁proportion	-11.3832
▁strip	-11.3833
▁BE	-11.3833
▁LCD	-11.3834
▁Dec	-11.3834
ona	-11.3837
▁drove	-11.384
ima	-11.3841
▁봐야	-11.3842
▁출판	-11.3846
▁handling	-11.3846
▁gift	-11.3846
▁Ru	-11.3851
▁김종	-11.3852
gin	-11.3857
▁결의	-11.3857
▁유동	-11.3859
▁가이드	-11.386
▁atmosphere	-11.386
▁feelings	-11.3861
▁reflect	-11.3863
▁르	-11.3865
cin	-11.3866
▁seriously	-11.3867
▁참가자	-11.3867
▁promoted	-11.3868
▁eastern	-11.3871
▁마트	-11.3871
▁bacterial	-11.3872
부터	-11.3872
▁컵	-11.3873
▁preventing	-11.3874
у	-11.3875
oh	-11.3877
Fuck	-11.3877
▁molecule	-11.3878
▁연방	-11.3879
row	-11.3881
ians	-11.3882
▁waves	-11.3882
▁pixel	-11.3883
▁copies	-11.3887
▁양산	-11.3888
▁census	-11.3888
▁개막	-11.3889
▁illness	-11.3889
od	-11.389
▁단순히	-11.3891
▁synthetic	-11.3891
▁predict	-11.3892
▁commander	-11.3893
trans	-11.3894
▁평등	-11.3895
▁Ryan	-11.3898
▁institution	-11.3898
▁사단	-11.39
▁소년	-11.39
nis	-11.3901
▁Arthur	-11.3901
▁controller	-11.3904
▁meta	-11.3906
▁belief	-11.3906
α	-11.391
▁welcome	-11.3911
▁silent	-11.3914
▁도쿄	-11.3918
▁armed	-11.392
▁returning	-11.392
▁Allen	-11.392
▁상업	-11.3921
▁Count	-11.3922
zer	-11.3925
▁nu	-11.3926
nia	-11.3926
bert	-11.3926
ectomy	-11.3926
▁hypo	-11.3928
▁인류	-11.393
▁magnitude	-11.393
▁외환	-11.393
GA	-11.3932
▁Every	-11.3933
튼	-11.3935
▁smell	-11.3937
▁tension	-11.3938
폐	-11.3938
met	-11.394
▁미군	-11.394
tis	-11.3941
▁녹색	-11.3942
회의	-11.3943
▁Coast	-11.3945
May	-11.3946
▁Doctor	-11.3946
▁vaccine	-11.3947
▁ongoing	-11.3947
▁Moore	-11.3948
▁episodes	-11.3952
▁Scotland	-11.3953
glyc	-11.3954
▁정하	-11.3955
짜	-11.3957
▁°	-11.3959
▁Maria	-11.3962
▁suspect	-11.3963
▁잠시	-11.3965
▁Kong	-11.3966
▁Bel	-11.3967
▁probability	-11.3967
▁sole	-11.3967
▁spending	-11.397
sup	-11.397
▁엄	-11.397
▁Wi	-11.3971
NC	-11.3971
▁bias	-11.3974
던	-11.3975
맥	-11.3977
LP	-11.3979
▁behavioral	-11.3979
▁predicted	-11.398
▁sensors	-11.3981
▁대리	-11.3986
▁damaged	-11.3988
▁vessels	-11.3989
Am	-11.399
▁locked	-11.3991
▁faced	-11.3994
▁민주주의	-11.3997
▁연맹	-11.3997
▁일까	-11.3998
▁routine	-11.3999
▁scared	-11.3999
▁Tar	-11.3999
▁평창	-11.4003
▁Local	-11.4005
헌	-11.4005
▁개요	-11.4005
mail	-11.4006
▁Last	-11.4007
▁scheduled	-11.4008
▁분쟁	-11.401
▁생성	-11.4012
▁cocaine	-11.4012
▁Article	-11.4012
▁키워	-11.4012
▁■	-11.4013
▁동작	-11.4013
▁participated	-11.4014
に	-11.4015
▁만난	-11.4017
och	-11.4019
▁설문	-11.4021
▁shell	-11.4021
▁선출	-11.4023
▁province	-11.4032
Ex	-11.4033
▁의학	-11.4033
▁penalty	-11.4035
▁prejudice	-11.4038
ste	-11.4038
▁detecting	-11.4039
▁Province	-11.404
▁패턴	-11.404
▁winner	-11.4043
▁물리	-11.4043
▁최신	-11.4046
▁classical	-11.4047
▁육아	-11.4051
▁fought	-11.4052
▁presentation	-11.4052
▁방어	-11.4052
IM	-11.4053
▁absolute	-11.4057
▁혼란	-11.4058
략	-11.4059
놓	-11.4061
These	-11.4061
▁seats	-11.4062
▁airport	-11.4062
yan	-11.4063
▁combustion	-11.4063
▁concrete	-11.4066
▁ch	-11.4067
from	-11.4071
TM	-11.4071
▁cohort	-11.4071
▁corporate	-11.4074
▁accompanied	-11.4074
▁Web	-11.4075
▁휴	-11.4076
▁tower	-11.4076
▁Patients	-11.4077
▁취급	-11.4077
▁Specifically	-11.4078
test	-11.4078
▁exhaust	-11.4079
▁진다	-11.4079
▁Final	-11.4082
▁investigators	-11.4083
)$	-11.4084
”.	-11.4084
▁guest	-11.4087
lor	-11.4088
▁창원	-11.4089
▁^^	-11.409
▁정서	-11.409
▁Sarah	-11.4092
▁precise	-11.4092
▁Pakistan	-11.4092
줄	-11.4092
▁pad	-11.4093
▁Use	-11.4094
▁고발	-11.4096
▁섬유	-11.4096
▁초점	-11.4097
▁attend	-11.4097
▁promotion	-11.41
▁admission	-11.4101
▁바랍니다	-11.4103
▁inform	-11.4106
▁violated	-11.4106
hole	-11.4108
eur	-11.411
▁designs	-11.4112
▁fails	-11.4114
▁세미나	-11.4114
▁열렸	-11.4115
▁선사	-11.4118
▁구하	-11.4119
계좌	-11.412
▁desk	-11.4121
▁농민	-11.4122
▁동양	-11.4122
▁Massachusetts	-11.4123
▁친절	-11.4124
cip	-11.4125
▁Next	-11.4126
▁수치	-11.4127
▁definitely	-11.4127
life	-11.4128
Open	-11.4129
MO	-11.413
른바	-11.413
▁Grant	-11.4131
▁shirt	-11.4131
▁️	-11.4132
▁Charlie	-11.4135
▁physician	-11.4136
▁Sen	-11.4137
▁Sh	-11.4137
▁축하	-11.4137
▁매주	-11.414
ml	-11.414
혀	-11.4141
▁attacked	-11.4143
어오	-11.4143
▁Family	-11.4144
▁degradation	-11.4145
▁Micro	-11.4148
박람회	-11.4148
▁schedule	-11.4149
▁춤	-11.415
▁수능	-11.4151
▁liked	-11.4152
▁종이	-11.4153
any	-11.4154
▁Awards	-11.4156
▁고유	-11.4157
▁deck	-11.4158
▁Fund	-11.4161
▁입법	-11.4161
▁Publication	-11.4161
▁invited	-11.4164
▁컬러	-11.4166
▁폐쇄	-11.4168
▁stores	-11.4169
▁entering	-11.4169
book	-11.4174
tern	-11.4176
▁Poland	-11.4176
gram	-11.4176
▁Corps	-11.4177
▁따로	-11.4179
las	-11.4179
▁studying	-11.4182
▁다이어트	-11.4183
▁거래소	-11.4186
▁Live	-11.4186
ici	-11.4188
▁토론회	-11.4188
LL	-11.4188
▁Bu	-11.4189
▁수주	-11.4189
BS	-11.4195
▁absolutely	-11.4199
position	-11.42
▁positioned	-11.42
▁변수	-11.4201
▁에요	-11.4201
겼	-11.4202
▁최적	-11.4203
▁lights	-11.4204
mic	-11.4205
▁painting	-11.4205
▁마당	-11.4206
▁beer	-11.4207
qu	-11.4208
Sir	-11.4208
▁engage	-11.4211
▁지침	-11.4211
▁노사	-11.4216
▁끝나	-11.4217
▁코스닥	-11.4218
▁CC	-11.4218
▁센서	-11.4219
▁connections	-11.422
▁진보	-11.4222
▁educational	-11.4226
top	-11.4227
▁임상	-11.4227
path	-11.423
▁tasks	-11.4231
▁족	-11.4231
▁이재	-11.4232
▁gang	-11.4232
spir	-11.4233
▁Vo	-11.4234
▁심판	-11.4235
▁conservative	-11.4235
▁homes	-11.4236
취하	-11.4241
▁influenced	-11.4241
▁SA	-11.4242
▁adhesive	-11.4243
▁mail	-11.4243
▁뮤지컬	-11.4243
▁연합회	-11.4244
▁statistical	-11.4244
▁Min	-11.4244
dic	-11.4246
▁permitted	-11.4247
▁Mom	-11.4248
LA	-11.4248
▁diagnosed	-11.425
▁abandoned	-11.425
▁subjected	-11.425
tus	-11.4251
▁Test	-11.4252
pen	-11.4252
▁취재	-11.4254
▁Community	-11.4255
а	-11.4256
sta	-11.4257
oli	-11.4258
▁manufacture	-11.4259
▁물품	-11.426
▁introduce	-11.4262
▁수십	-11.4262
▁Oxford	-11.4263
▁AC	-11.4263
▁만화	-11.4265
▁체크	-11.4265
▁창작	-11.4268
▁별로	-11.4268
▁coal	-11.4269
▁relating	-11.427
▁털	-11.4274
â	-11.4276
sia	-11.4277
▁산하	-11.4278
▁성경	-11.4278
▁plates	-11.4279
▁seasons	-11.4281
▁진화	-11.4282
▁자살	-11.4284
chen	-11.4285
▁FTA	-11.4287
▁goods	-11.429
빙	-11.429
▁nobody	-11.429
▁Children	-11.4291
ency	-11.4292
sive	-11.4295
▁Agreement	-11.4295
▁Ash	-11.4299
▁excited	-11.43
SD	-11.4302
sin	-11.4303
ert	-11.4305
▁복수	-11.4305
▁stomach	-11.4307
▁Bal	-11.431
▁anybody	-11.4315
▁조용	-11.4317
▁symbol	-11.4319
▁블	-11.4321
▁밴드	-11.4328
aka	-11.4329
▁Phil	-11.433
▁유발	-11.4332
▁실태	-11.4333
▁basketball	-11.4333
득	-11.4335
▁reviews	-11.4336
▁knife	-11.4337
▁promised	-11.434
▁한테	-11.434
▁che	-11.4346
degree	-11.4347
▁owners	-11.4349
▁compact	-11.4353
베	-11.4353
▁kinds	-11.4353
▁occurrence	-11.4356
also	-11.4356
▁브라질	-11.4357
▁이중	-11.4357
month	-11.4358
▁rely	-11.4359
▁출산	-11.4361
▁멀	-11.4363
▁flag	-11.4364
▁발사	-11.4364
동안	-11.4364
▁afford	-11.4365
▁seed	-11.4365
▁Down	-11.4367
▁beneath	-11.4368
▁네이버	-11.4369
▁paying	-11.4369
zu	-11.4371
fo	-11.4374
▁Model	-11.4376
▁quantitative	-11.4377
▁Ze	-11.4377
▁움직	-11.4378
▁레이	-11.4378
▁킹	-11.438
▁연휴	-11.4383
▁가입자	-11.4384
▁Jay	-11.4385
▁의문	-11.4388
mate	-11.4392
▁rail	-11.4393
▁할머니	-11.4394
▁증대	-11.4395
▁소프트	-11.4395
▁mutation	-11.4396
▁Philadelphia	-11.4396
▁solvent	-11.44
Ta	-11.44
▁감성	-11.44
▁거대	-11.4401
▁tradition	-11.4401
▁mi	-11.4401
ition	-11.4401
▁defect	-11.4405
▁마켓	-11.4407
RO	-11.4407
▁birds	-11.4408
▁압력	-11.4409
▁연료	-11.441
▁조달	-11.4411
cus	-11.4414
▁이뤄	-11.4414
▁기온	-11.4416
iel	-11.4419
una	-11.442
▁MI	-11.4422
▁integration	-11.4424
▁es	-11.4424
▁Creek	-11.4424
▁▷	-11.4425
▁reform	-11.4426
▁covers	-11.4426
▁임기	-11.4431
▁Fi	-11.4432
▁prices	-11.4433
▁MA	-11.4434
▁Band	-11.4434
ged	-11.4435
▁담배	-11.4435
▁crucial	-11.4436
▁Yu	-11.4438
▁paint	-11.4439
Some	-11.4441
▁complexes	-11.4442
▁ruled	-11.4443
▁굴	-11.4444
dia	-11.4446
▁teach	-11.4446
ire	-11.4447
▁biology	-11.4448
▁제조업	-11.4449
▁Son	-11.4451
▁소외	-11.4452
▁Space	-11.4453
▁default	-11.4454
▁지향	-11.4455
▁옮겨	-11.4456
▁Jews	-11.4458
▁일환	-11.446
니다	-11.446
▁te	-11.4461
▁카카오	-11.4463
▁박스	-11.4463
▁crimes	-11.4463
▁mini	-11.4466
▁contest	-11.4466
▁표면	-11.447
eb	-11.447
Even	-11.4472
▁guidelines	-11.4476
DR	-11.448
yard	-11.4482
▁feeding	-11.4487
▁mu	-11.4487
▁laughed	-11.4488
▁produces	-11.449
▁고요	-11.4492
▁문화재	-11.4494
▁suicide	-11.4495
▁느껴	-11.4497
▁actress	-11.4498
▁conspiracy	-11.4501
▁amazing	-11.4501
▁cardiovascular	-11.4501
▁item	-11.4501
▁착용	-11.4508
▁movements	-11.451
▁숙박	-11.451
▁tiny	-11.451
▁crack	-11.4511
▁Walter	-11.4512
▁파리	-11.4512
▁달려	-11.4513
▁팩	-11.4514
hydroxy	-11.4515
▁clause	-11.4516
값	-11.4517
▁minimal	-11.4523
람	-11.4523
▁Beach	-11.4525
▁psychological	-11.4525
▁baseline	-11.4526
▁	-11.4527
▁ourselves	-11.4528
▁선두	-11.453
얼	-11.4534
▁repeat	-11.4541
▁재개	-11.4543
▁respiratory	-11.4543
▁drain	-11.4543
five	-11.4543
▁Ham	-11.4544
▁u	-11.4546
▁배터리	-11.4546
▁sudden	-11.4547
▁Francis	-11.4547
▁양식	-11.4547
▁Report	-11.4548
▁consumer	-11.4548
▁Kelly	-11.455
▁정규	-11.4552
▁복원	-11.4557
▁콩	-11.4557
▁identifying	-11.4557
▁감각	-11.4557
fi	-11.4559
슬	-11.4562
▁legislation	-11.4564
ax	-11.4564
▁Had	-11.4564
▁블록	-11.4567
▁ré	-11.4567
▁tu	-11.4569
▁improvements	-11.457
▁일시	-11.4572
▁biochemical	-11.4573
▁bomb	-11.4574
lip	-11.4574
▁Gu	-11.4574
▁Commonwealth	-11.4576
▁발급	-11.4576
▁AR	-11.4577
▁hidden	-11.4579
▁Douglas	-11.4579
▁건조	-11.4583
▁타격	-11.4588
MA	-11.4589
win	-11.459
ira	-11.4592
▁소형	-11.4592
▁우리나라	-11.4593
▁질서	-11.4594
ON	-11.4594
▁Cap	-11.4595
▁NC	-11.4596
nce	-11.4596
▁gay	-11.4597
▁secretion	-11.4598
▁전지	-11.4599
▁businesses	-11.46
▁longitudinal	-11.46
▁analyze	-11.4602
페	-11.4602
▁윤리	-11.4602
UT	-11.4603
▁호남	-11.4607
▁Arizona	-11.4608
sey	-11.4609
▁acted	-11.4611
▁Bishop	-11.4612
▁개성	-11.4612
▁visited	-11.4612
▁existed	-11.4613
▁명회	-11.4613
▁atoms	-11.4614
▁Kansas	-11.4614
▁recovered	-11.4616
▁fabric	-11.4617
ben	-11.4618
TC	-11.4619
▁orientation	-11.4621
▁첫째	-11.4621
▁endothelial	-11.4623
▁맥주	-11.4626
%).	-11.4627
▁Document	-11.4629
▁내수	-11.463
Dr	-11.4632
▁냐는	-11.4634
ington	-11.4635
avi	-11.4636
▁horizontal	-11.4636
▁excessive	-11.4637
▁br	-11.4638
▁rising	-11.4639
▁www	-11.4642
▁Holy	-11.4643
ami	-11.4643
making	-11.4648
▁아빠	-11.4649
▁진로	-11.4649
나마	-11.4652
Nice	-11.4656
ash	-11.4664
▁dysfunction	-11.4667
▁tolerance	-11.4668
▁바른	-11.4669
▁regression	-11.4669
▁hardware	-11.4669
▁Global	-11.4671
▁antenna	-11.4673
▁신선	-11.4673
▁사이버	-11.4673
gra	-11.4674
▁falls	-11.4674
▁Olympics	-11.4676
two	-11.468
▁선진	-11.468
▁footballer	-11.4682
▁드러	-11.4682
▁소화	-11.4683
▁군산	-11.4684
high	-11.4687
▁passenger	-11.4688
▁hired	-11.4691
ral	-11.4692
▁엄청난	-11.4693
▁Brazil	-11.4695
▁bowl	-11.4697
▁이루어	-11.4698
LC	-11.4698
▁participation	-11.4699
MT	-11.4699
▁migration	-11.4699
▁Note	-11.4701
▁scan	-11.4702
▁Colorado	-11.4702
쉬	-11.4704
▁presents	-11.4705
ré	-11.4708
▁Key	-11.4709
▁instruments	-11.471
▁hydro	-11.471
▁inserted	-11.471
▁받아들	-11.4711
▁싱	-11.4712
▁Nu	-11.4714
▁의존	-11.4718
▁Ya	-11.4718
bound	-11.4719
▁Ltd	-11.472
▁지주	-11.472
공사	-11.472
▁간부	-11.4721
▁suppose	-11.4722
▁Fair	-11.4722
▁사무소	-11.4722
▁prospective	-11.4727
AS	-11.4728
▁fool	-11.473
▁forever	-11.4731
▁Five	-11.4734
▁LH	-11.4734
▁KB	-11.4734
▁솔	-11.4734
▁coil	-11.4735
▁네티	-11.4735
▁TR	-11.4736
▁compression	-11.474
▁intracellular	-11.4741
▁therein	-11.4743
aba	-11.4745
▁honey	-11.4745
▁baseball	-11.4745
▁동네	-11.4746
▁다운로드	-11.4747
▁modification	-11.4749
▁shortly	-11.475
▁Sky	-11.4751
sur	-11.4756
▁괜찮	-11.4756
▁trauma	-11.4757
iff	-11.4757
▁neighborhood	-11.4758
▁legislative	-11.476
ú	-11.4762
▁kiss	-11.4763
ening	-11.4763
▁slip	-11.4768
▁Mexican	-11.4769
cu	-11.4771
▁votes	-11.4772
▁interventions	-11.4773
▁롤	-11.4773
had	-11.4773
din	-11.4776
▁동참	-11.4784
▁추억	-11.4788
▁지진	-11.4788
ded	-11.4789
▁horses	-11.4789
▁Get	-11.479
emia	-11.4792
▁kr	-11.4793
▁cylinder	-11.4793
Um	-11.4794
▁Theatre	-11.4799
HT	-11.48
yr	-11.4801
PO	-11.4804
▁조언	-11.4805
bro	-11.4807
▁Reg	-11.4809
▁reporting	-11.481
▁Mount	-11.481
▁순수	-11.4814
▁vacuum	-11.4818
▁재미있	-11.4818
▁Design	-11.4818
▁DVD	-11.4819
▁일자	-11.4819
▁싫	-11.482
including	-11.482
▁룸	-11.4821
▁regardless	-11.4822
▁Den	-11.4822
▁terrible	-11.4824
▁칸	-11.4824
▁Consequently	-11.4827
▁contacts	-11.4827
”,	-11.4829
▁sad	-11.4829
▁temporal	-11.483
xi	-11.483
▁tongue	-11.483
▁rational	-11.4833
▁vary	-11.4833
▁taxes	-11.4834
ska	-11.4835
▁중대	-11.4836
▁떨어졌	-11.4836
▁억제	-11.4836
▁래	-11.4838
▁Main	-11.4839
▁Petitioner	-11.484
▁specificity	-11.484
burg	-11.4842
▁mayor	-11.4844
iti	-11.4846
▁청소	-11.4847
▁풀이	-11.4848
▁twelve	-11.4848
▁파업	-11.4849
▁zu	-11.485
▁Hal	-11.4852
aria	-11.4853
SL	-11.4854
▁officially	-11.4854
▁doses	-11.4856
▁accomplished	-11.4857
▁Ross	-11.4859
▁commitment	-11.486
▁Area	-11.486
tr	-11.4861
▁Airport	-11.4861
▁bitch	-11.4862
▁vi	-11.4863
logy	-11.4864
▁Sports	-11.4864
▁beside	-11.4866
▁유학	-11.4866
DF	-11.4869
PT	-11.487
GF	-11.4874
즉시	-11.4876
▁stuck	-11.4876
▁상환	-11.4877
▁anxiety	-11.4879
▁adjustment	-11.488
▁termination	-11.4882
국당	-11.4885
ali	-11.4886
▁competitive	-11.4886
▁infrastructure	-11.4888
▁concert	-11.4888
▁ja	-11.4888
CK	-11.489
밀	-11.4897
▁Ju	-11.49
ome	-11.4901
▁ending	-11.4901
▁환영	-11.4902
▁Pi	-11.4903
▁동향	-11.4904
▁intention	-11.4906
▁phenomenon	-11.4907
▁차관	-11.4907
▁과목	-11.4907
TO	-11.4909
▁선진국	-11.4911
▁Through	-11.4911
BP	-11.4912
▁방해	-11.4912
ising	-11.4914
▁Democrats	-11.4915
▁stating	-11.4915
▁쇼핑몰	-11.4916
▁attachment	-11.4917
who	-11.4919
▁cook	-11.4919
▁JP	-11.4919
▁상무	-11.4921
▁학자	-11.4922
AF	-11.4924
▁개봉	-11.4926
AT	-11.4926
▁mo	-11.4927
▁국방부	-11.4927
▁correction	-11.4928
▁reduces	-11.493
▁onset	-11.4934
▁유치원	-11.4935
▁solo	-11.4936
▁다리	-11.4938
▁모듈	-11.4941
sel	-11.4941
▁mounting	-11.4944
▁contributions	-11.4946
▁dielectric	-11.4947
▁processor	-11.4949
▁litigation	-11.495
▁promising	-11.495
글	-11.495
ense	-11.4952
CI	-11.4952
▁Motion	-11.4953
matic	-11.4954
eng	-11.4956
HR	-11.4956
ique	-11.4958
▁curve	-11.4958
▁소스	-11.4959
▁universe	-11.4962
chy	-11.4963
▁tears	-11.4963
▁썼	-11.4967
▁hardly	-11.4968
▁NY	-11.4968
▁pregnant	-11.4971
업자	-11.4971
▁상생	-11.4973
▁응용	-11.4973
▁Specific	-11.4975
▁occurring	-11.4975
▁금메달	-11.4978
nal	-11.4978
▁voters	-11.4979
▁일원	-11.4981
▁utility	-11.4981
▁HD	-11.4982
힐	-11.4983
▁completion	-11.4984
▁전세	-11.4985
eo	-11.4987
▁꾸	-11.4988
▁홈런	-11.4991
▁listening	-11.4992
▁보험료	-11.4994
▁moments	-11.4996
▁parameter	-11.4997
▁Early	-11.4998
▁Howard	-11.4998
▁아이템	-11.5
▁MD	-11.5002
▁아예	-11.5002
▁log	-11.5003
▁proud	-11.5005
š	-11.5007
bus	-11.5008
ili	-11.5009
▁parking	-11.501
▁racial	-11.5011
▁왼쪽	-11.5012
Two	-11.5014
IV	-11.5015
ient	-11.5015
▁expenses	-11.5016
ess	-11.5018
Her	-11.502
▁Hotel	-11.502
▁denying	-11.5021
HS	-11.5023
▁Toronto	-11.5025
▁충돌	-11.5025
▁substrates	-11.5026
▁풍경	-11.5026
▁jet	-11.5027
tru	-11.5028
▁rec	-11.5028
▁내린	-11.5031
▁requests	-11.5031
gli	-11.5033
▁threatened	-11.5033
▁temple	-11.5034
▁Jane	-11.5034
osa	-11.5036
▁Cambridge	-11.5036
After	-11.5038
▁confirm	-11.5038
▁Study	-11.5038
▁cream	-11.504
▁favorable	-11.5041
▁computers	-11.5043
▁Muslim	-11.5045
IR	-11.5045
LO	-11.5046
▁toxicity	-11.5047
▁Clinical	-11.5048
ico	-11.505
characterization	-11.5052
nch	-11.5052
▁Morgan	-11.5053
▁Results	-11.5053
▁connect	-11.5054
▁떨	-11.5055
▁그쳤	-11.5057
▁납부	-11.5058
▁skill	-11.5059
▁championship	-11.5061
▁북미	-11.5062
▁viewed	-11.5067
▁punishment	-11.5069
▁diversity	-11.5072
ographic	-11.5075
▁표정	-11.5076
▁활	-11.5077
ith	-11.5079
▁fatty	-11.5079
▁cloud	-11.508
PP	-11.5081
▁CP	-11.5082
▁household	-11.5084
▁Indiana	-11.5084
▁utilizing	-11.5084
진다	-11.5086
▁노후	-11.5088
▁관찰	-11.5088
▁Given	-11.509
▁AM	-11.5091
▁epi	-11.5091
▁무게	-11.5094
▁links	-11.5096
▁가져	-11.5098
▁directions	-11.5099
▁supplies	-11.51
DD	-11.5102
▁removing	-11.5104
eth	-11.511
▁defend	-11.5111
▁공고	-11.5112
▁reversed	-11.5112
▁DA	-11.5113
▁acquisition	-11.5116
▁colour	-11.5117
▁lab	-11.5119
▁flowers	-11.5119
▁묵	-11.512
action	-11.512
▁banks	-11.5121
▁Cr	-11.5124
pers	-11.5127
rat	-11.5127
▁exit	-11.5128
갈수록	-11.5128
▁Nos	-11.5128
▁medal	-11.5129
▁휴식	-11.513
▁isolation	-11.5131
▁complexity	-11.5132
▁공포	-11.5135
▁lucky	-11.5137
eau	-11.5137
▁투수	-11.5137
dent	-11.5138
▁laugh	-11.5139
▁MR	-11.5139
ual	-11.5141
▁Victoria	-11.5144
anti	-11.5147
▁Rob	-11.5147
—"	-11.5149
▁교과서	-11.5151
▁circle	-11.5151
pr	-11.5151
▁아이폰	-11.5151
OC	-11.5152
▁착수	-11.5153
▁Play	-11.5156
▁worldwide	-11.5158
▁RE	-11.5159
▁bass	-11.5159
▁Similarly	-11.5159
▁라디오	-11.516
▁agencies	-11.516
▁flash	-11.5161
▁VI	-11.5162
▁기재	-11.5163
▁중계	-11.5163
▁보냈	-11.5164
▁김치	-11.5164
å	-11.5165
▁inspired	-11.5166
▁mit	-11.5167
▁mixing	-11.5172
▁Char	-11.5176
▁authorized	-11.5177
▁정밀	-11.5177
▁Forest	-11.5178
▁추적	-11.5178
웅	-11.5178
▁패키지	-11.5179
▁lake	-11.5181
▁나설	-11.5181
▁Run	-11.5182
ello	-11.5182
▁샤	-11.5185
▁전제	-11.5186
▁패널	-11.5186
▁declined	-11.5189
▁Sydney	-11.5191
▁동력	-11.5191
▁Patrick	-11.5191
▁liberal	-11.5192
▁원리	-11.5192
▁historic	-11.5195
▁cultures	-11.5195
▁강도	-11.5199
▁인용	-11.5201
널	-11.5206
▁threw	-11.5211
▁systemic	-11.5212
▁Arab	-11.5213
▁숫자	-11.5214
▁상세	-11.5216
cing	-11.522
▁CR	-11.5221
▁아닌가	-11.5222
▁Type	-11.5223
▁burn	-11.5225
▁Heart	-11.5225
▁동생	-11.5226
uro	-11.5228
▁returns	-11.5229
▁그리스	-11.5229
▁Photo	-11.5229
▁당했	-11.523
▁뜨거운	-11.523
▁각자	-11.523
▁potent	-11.523
ath	-11.5231
▁Albert	-11.5232
십	-11.5235
▁구단	-11.5238
▁deaths	-11.5239
bal	-11.5241
▁한정	-11.5243
▁dying	-11.5245
IS	-11.5245
▁hasn	-11.5245
▁ocean	-11.5246
▁준공	-11.5246
▁birthday	-11.525
▁ju	-11.5251
▁부산시	-11.5252
▁demands	-11.5253
▁창의	-11.5254
▁trend	-11.5255
▁Sur	-11.5256
MAN	-11.5257
ante	-11.5258
▁영장	-11.5258
▁engines	-11.5261
▁가계	-11.5264
대로	-11.5264
▁engagement	-11.5267
▁Jeff	-11.527
▁fate	-11.5272
▁Title	-11.5272
qua	-11.5273
▁moon	-11.5274
mor	-11.5275
▁봐	-11.5275
▁sending	-11.5275
▁Food	-11.5276
▁rank	-11.5277
▁거치	-11.5277
▁enhancement	-11.5278
▁partners	-11.5278
라도	-11.5287
▁Boy	-11.5288
▁탑	-11.5288
▁rooms	-11.5289
▁violent	-11.529
▁weird	-11.529
▁bigger	-11.529
▁faculty	-11.5291
념	-11.5292
▁presidential	-11.5296
▁건전	-11.5297
Li	-11.5297
cause	-11.5298
▁waited	-11.5299
itch	-11.5301
▁anger	-11.5301
▁경상	-11.5305
▁떠	-11.5306
▁destruction	-11.5307
▁경비	-11.531
▁이스라엘	-11.531
▁복구	-11.5314
▁무용	-11.5314
cio	-11.5315
▁Ministry	-11.5317
▁Anne	-11.5317
▁acceptable	-11.5319
és	-11.532
▁SM	-11.532
▁versions	-11.532
▁한글	-11.5321
hy	-11.5322
▁classic	-11.5322
list	-11.5324
fin	-11.5324
SI	-11.5325
bury	-11.5326
▁Call	-11.5326
▁슬	-11.5332
▁risks	-11.5334
장착	-11.5334
▁내달	-11.5336
▁Ger	-11.5337
▁dated	-11.5337
under	-11.5338
▁consisted	-11.5338
ía	-11.534
▁북부	-11.5343
ys	-11.5343
▁명절	-11.5343
ign	-11.5346
vid	-11.5346
▁전파	-11.5346
▁upset	-11.5347
▁SE	-11.5348
▁implications	-11.5349
▁기원	-11.535
ison	-11.5352
혜	-11.5352
▁emphasis	-11.5352
zy	-11.5353
▁링크	-11.5354
▁lease	-11.5354
혔	-11.5354
fen	-11.5356
▁당일	-11.5357
▁건수	-11.5362
▁명품	-11.5363
▁aqueous	-11.5365
▁engineer	-11.5365
▁떨어져	-11.5368
ved	-11.537
▁custom	-11.5371
▁Bor	-11.5372
▁상가	-11.5374
▁contributed	-11.5376
죄	-11.5377
▁고문	-11.5378
▁quantity	-11.5381
▁satisfied	-11.5382
▁Cook	-11.5382
▁하드	-11.5383
▁거두	-11.5386
▁춘천	-11.5387
▁Ol	-11.539
▁differ	-11.539
lis	-11.539
pan	-11.5391
group	-11.5392
▁debtor	-11.5392
▁객실	-11.5395
▁셋	-11.5396
▁Maryland	-11.5396
▁건의	-11.5399
▁Add	-11.5401
▁contemporary	-11.5401
▁tra	-11.5401
아보	-11.5401
▁restricted	-11.5403
CL	-11.5406
▁분명히	-11.5406
▁누군가	-11.5407
렛	-11.5407
tle	-11.5408
▁inhibited	-11.5411
▁Des	-11.5411
▁신중	-11.5412
▁abnormal	-11.5412
▁혈	-11.5413
▁Meanwhile	-11.5414
▁Without	-11.5419
▁Right	-11.5421
plo	-11.5421
~	-11.5421
ites	-11.5422
▁suspended	-11.5423
▁Hand	-11.5424
▁Scottish	-11.5424
▁해제	-11.5425
▁"...	-11.543
kan	-11.5431
▁상임	-11.5431
▁rubber	-11.5433
▁assays	-11.5434
▁Mid	-11.5434
spect	-11.5436
▁utilize	-11.5438
각국	-11.5438
Would	-11.5438
▁배려	-11.5439
▁Kevin	-11.544
▁accumulation	-11.544
foot	-11.544
▁equally	-11.5442
▁Way	-11.5443
▁레스토랑	-11.5443
▁absent	-11.5443
▁exhibited	-11.5444
▁Between	-11.5444
▁언	-11.5446
▁드러나	-11.5448
▁기법	-11.5448
▁campus	-11.5449
▁tied	-11.5451
▁automobile	-11.5453
▁stronger	-11.5454
▁서부	-11.5455
▁IMF	-11.5456
▁register	-11.5456
BC	-11.5457
▁김성	-11.5458
▁케이블	-11.5459
▁와인	-11.5459
associated	-11.5461
▁killer	-11.5462
▁cousin	-11.5463
▁교통사고	-11.5463
중공업	-11.5464
▁회수	-11.5466
▁띄	-11.5466
▁barely	-11.5466
▁landing	-11.5466
▁hence	-11.5467
▁cavity	-11.5468
▁비행	-11.5471
▁dimensions	-11.5471
▁Rights	-11.5472
▁epithelial	-11.5472
aff	-11.5473
▁municipality	-11.5477
▁grave	-11.5477
▁respondent	-11.5478
pha	-11.548
Wow	-11.5481
▁bra	-11.5481
▁odd	-11.5483
▁구상	-11.5483
▁drew	-11.5483
▁equation	-11.5484
via	-11.5485
▁pitch	-11.5489
ass	-11.549
▁beach	-11.5492
▁sentenced	-11.5492
다른	-11.5492
▁중구	-11.5493
what	-11.5494
▁유권	-11.5495
▁뛰어	-11.5495
▁mess	-11.5495
▁Perhaps	-11.5496
view	-11.5496
▁싸움	-11.5498
▁신종	-11.5502
▁employ	-11.5503
▁retained	-11.5512
▁주기	-11.5515
ough	-11.5515
leg	-11.5517
▁randomized	-11.5519
NP	-11.552
▁징역	-11.5525
▁Mountain	-11.5526
▁퇴직	-11.553
▁살인	-11.5531
▁벌써	-11.5531
▁심장	-11.5533
▁nodes	-11.5536
▁아프리카	-11.5536
▁습관	-11.5538
▁Work	-11.5539
▁resist	-11.554
▁admit	-11.554
▁establishing	-11.5541
▁Missouri	-11.5541
aries	-11.5543
▁loading	-11.5545
▁Minnesota	-11.5545
mis	-11.5546
▁serial	-11.5548
▁beauty	-11.5548
▁해졌	-11.5549
▁mere	-11.5549
▁mild	-11.555
bra	-11.555
▁타임	-11.5551
▁varying	-11.5552
▁와서	-11.5553
▁McC	-11.5553
▁불교	-11.556
▁negligence	-11.5561
▁prevented	-11.5561
▁수렴	-11.5563
▁어르신	-11.5564
▁좁	-11.5567
▁도서	-11.5567
▁commit	-11.5568
▁reflection	-11.5569
콘	-11.557
▁clients	-11.5571
▁수리	-11.5572
ér	-11.5576
▁oxidation	-11.5578
aga	-11.5579
▁hoping	-11.5579
▁트위터	-11.5581
▁대단	-11.5583
▁Anthony	-11.5584
rid	-11.5584
yer	-11.5586
▁배달	-11.5588
ural	-11.5588
▁addresses	-11.5589
▁museum	-11.5589
▁elderly	-11.559
▁주위	-11.5591
▁대금	-11.5591
▁proven	-11.5592
▁실수	-11.5592
요건	-11.5592
power	-11.5592
▁remembered	-11.5593
▁동구	-11.5595
닉스	-11.5595
▁연관	-11.5595
phi	-11.5597
▁Med	-11.5599
▁precisely	-11.56
▁Res	-11.56
cut	-11.5601
▁severity	-11.5601
▁delayed	-11.5603
iya	-11.5604
rous	-11.5605
▁꾼	-11.5607
▁정치인	-11.5607
▁vital	-11.5607
▁파트너	-11.5607
▁터미널	-11.5607
▁입증	-11.561
▁reliability	-11.5611
▁gross	-11.5614
▁categories	-11.5614
▁ions	-11.5615
▁Dun	-11.5617
▁못할	-11.5619
▁Fred	-11.5621
자리	-11.5622
▁입지	-11.5622
tha	-11.5623
▁affirmed	-11.5626
▁담긴	-11.5627
ulation	-11.5628
Great	-11.5629
Very	-11.5629
▁extract	-11.563
▁Gas	-11.563
▁struggle	-11.5631
▁두산	-11.5632
▁amplitude	-11.5632
▁무상	-11.5634
ME	-11.5635
▁적응	-11.5637
oni	-11.5637
▁이어질	-11.5637
ité	-11.5638
▁입시	-11.5641
▁원활	-11.5641
▁묘	-11.5643
▁behaviour	-11.5647
▁regarded	-11.5647
▁retirement	-11.5648
▁pack	-11.5648
▁aging	-11.5648
▁dominant	-11.5649
▁타당	-11.5651
▁PS	-11.5651
▁rescue	-11.5652
▁쥐	-11.5654
▁consequence	-11.5654
cr	-11.5655
tric	-11.5655
사관	-11.5655
엽	-11.5655
▁millions	-11.5656
his	-11.5657
▁destination	-11.5657
▁앞장	-11.5659
▁fairly	-11.566
▁regulate	-11.5661
anda	-11.5661
▁seeks	-11.5662
burn	-11.5665
▁modulation	-11.5666
▁텍	-11.567
▁충족	-11.5671
▁internet	-11.5672
▁edges	-11.5672
▁champion	-11.5673
▁regulated	-11.5675
ify	-11.5677
late	-11.5681
▁grass	-11.5681
▁answers	-11.5682
LD	-11.5682
▁Walker	-11.5684
▁appellate	-11.5684
▁쉬운	-11.5685
▁직전	-11.5686
▁sport	-11.5686
▁커뮤니티	-11.5687
▁테이블	-11.5687
▁repeatedly	-11.5689
▁서명	-11.5693
▁안녕	-11.5693
▁reputation	-11.5694
▁cry	-11.5695
▁contracts	-11.5695
SM	-11.5695
fall	-11.5697
▁bands	-11.5697
▁Atlantic	-11.5697
▁shoes	-11.5698
hour	-11.5698
▁대결	-11.5698
▁bird	-11.57
rac	-11.5701
▁comparable	-11.5701
its	-11.5701
lation	-11.5701
▁Alan	-11.5703
▁Nations	-11.5704
▁nitrogen	-11.5705
▁marry	-11.5706
▁difficulties	-11.5706
Ka	-11.5707
▁arrival	-11.5707
▁싱가포르	-11.5707
▁교과	-11.571
▁Stat	-11.571
▁블루	-11.5711
▁자사	-11.5711
▁roller	-11.5714
▁포스코	-11.5715
▁compliance	-11.5715
▁communicate	-11.5721
▁mood	-11.5722
▁떼	-11.5724
	-11.5725
▁comfortable	-11.5725
▁Ball	-11.5727
▁아마	-11.573
▁Kan	-11.573
▁bedroom	-11.5731
が	-11.5731
▁급식	-11.5732
▁stack	-11.5733
▁competed	-11.5733
▁deficiency	-11.5734
▁한데	-11.5734
▁memories	-11.5734
▁piano	-11.5735
▁magnet	-11.5737
▁bulk	-11.574
▁progressive	-11.574
▁mold	-11.5745
▁출장	-11.5746
▁correctly	-11.5747
sensitive	-11.5748
▁toxic	-11.575
▁spinal	-11.575
vit	-11.5751
”)	-11.5753
▁fusion	-11.5756
▁Golden	-11.5757
▁inquiry	-11.5758
▁격려	-11.5763
lig	-11.5764
▁지부	-11.5764
▁총괄	-11.5765
▁sing	-11.5766
▁brings	-11.5767
▁끊임없	-11.5768
▁infants	-11.5768
▁부위	-11.5769
▁affects	-11.5769
▁mutant	-11.5769
▁Cancer	-11.5772
▁boundary	-11.5772
▁Polish	-11.5772
▁걸리	-11.5773
딩	-11.5774
▁pit	-11.5775
▁탑재	-11.5775
▁dismissal	-11.5775
▁occasion	-11.5775
▁deny	-11.5776
▁뜨	-11.5776
containing	-11.5777
▁illustrated	-11.5777
▁Lin	-11.5778
▁더라	-11.5778
▁올린	-11.5779
▁approached	-11.578
▁조각	-11.5781
▁Wisconsin	-11.5781
▁languages	-11.5782
lee	-11.5783
▁cerebral	-11.5785
▁메모리	-11.5789
▁Jason	-11.579
▁prostate	-11.5796
▁유용	-11.5798
col	-11.5801
탕	-11.5805
▁somehow	-11.5805
‐	-11.5805
▁Mur	-11.5808
▁objection	-11.5808
▁Bush	-11.5808
▁끝난	-11.5809
▁centers	-11.5809
▁́	-11.5809
▁experts	-11.5811
▁Philip	-11.5812
▁흡수	-11.5813
▁증권사	-11.5814
▁sheets	-11.5815
▁굉장	-11.5815
Un	-11.5816
▁PI	-11.5816
▁rod	-11.5816
▁Olympic	-11.5817
었	-11.5817
▁Bas	-11.5818
sie	-11.5818
▁델	-11.5818
OT	-11.5819
▁Unfortunately	-11.5821
▁위탁	-11.5821
rio	-11.5821
▁adhesion	-11.5822
▁journalist	-11.5824
▁appointment	-11.5824
▁진주	-11.5825
▁challenging	-11.5825
▁button	-11.5826
▁domains	-11.5826
▁적정	-11.5829
▁wavelength	-11.583
▁작전	-11.5833
▁Gene	-11.5835
플	-11.5838
▁태국	-11.5838
▁업소	-11.5839
▁Place	-11.5843
▁손상	-11.5844
▁poet	-11.5844
RC	-11.5847
▁보조금	-11.5847
yne	-11.5849
▁rough	-11.585
▁멋진	-11.5851
▁Premier	-11.5852
▁베이징	-11.5852
▁소셜	-11.5852
▁appearances	-11.5853
eva	-11.5855
▁cert	-11.5856
▁강릉	-11.5858
탁	-11.5859
▁록	-11.5859
▁심화	-11.5862
▁yesterday	-11.5866
▁Mil	-11.5867
·	-11.5869
▁조항	-11.5869
From	-11.5871
▁저항	-11.5872
▁chicken	-11.5872
▁Bureau	-11.5873
▁의뢰	-11.5876
▁Alabama	-11.5876
▁Tre	-11.588
▁featuring	-11.5881
▁LG	-11.5882
▁Tennessee	-11.5883
▁cluster	-11.5884
▁diffusion	-11.5885
▁comprise	-11.5885
▁도덕	-11.5886
▁대가	-11.5886
TT	-11.5886
▁무한	-11.5886
▁revolution	-11.5887
▁regularly	-11.5888
▁chemotherapy	-11.589
phase	-11.5891
▁Auto	-11.5892
▁Les	-11.5892
▁surveillance	-11.5893
を	-11.5894
▁된다면	-11.5894
▁핫	-11.5894
ela	-11.5895
▁Sar	-11.5896
▁Turkey	-11.5897
▁참조	-11.5904
BM	-11.5904
▁naturally	-11.5905
틀	-11.5905
▁휘	-11.5906
▁computing	-11.5907
▁uncle	-11.591
▁frequencies	-11.591
▁manual	-11.5911
▁hypertension	-11.5914
▁tie	-11.5916
▁adaptation	-11.5917
▁습니까	-11.5921
By	-11.5922
▁prosecutor	-11.5923
▁rent	-11.5926
ily	-11.5927
▁Sta	-11.5927
▁burning	-11.5928
▁Jordan	-11.5928
▁진술	-11.5929
▁Ste	-11.5932
▁앙	-11.5933
▁detector	-11.5934
▁Championships	-11.5935
gle	-11.5937
니까	-11.5939
▁청문	-11.5939
▁teachers	-11.5941
▁의류	-11.5943
▁Jacob	-11.5944
▁음료	-11.5948
▁briefly	-11.5948
this	-11.5948
▁용어	-11.5951
MD	-11.5953
▁preparing	-11.5955
▁bits	-11.5955
▁accurately	-11.5957
▁Six	-11.5957
▁ya	-11.5958
▁plug	-11.596
▁hook	-11.5962
▁강세	-11.5963
장르	-11.5964
▁begun	-11.5968
▁Standard	-11.5969
▁spiritual	-11.5971
▁수산	-11.5972
ked	-11.5972
▁MRI	-11.5972
▁import	-11.5973
▁전담	-11.5976
시안	-11.5977
란히	-11.5978
▁양상	-11.5981
▁exclusive	-11.5981
nn	-11.5985
▁allegedly	-11.5985
▁occupied	-11.5986
▁보전	-11.5989
▁regime	-11.5992
ern	-11.5992
▁bars	-11.5992
“	-11.5994
▁Iowa	-11.5995
▁수록	-11.5995
▁pursue	-11.5996
iva	-11.5996
▁crossed	-11.5998
▁둘러싼	-11.5999
kt	-11.6
";	-11.6001
dor	-11.6002
▁fi	-11.6004
▁partnership	-11.6004
ón	-11.6009
RS	-11.6009
▁산업단지	-11.601
ori	-11.6011
▁Houston	-11.6011
ender	-11.6011
gri	-11.6013
▁호응	-11.6014
▁tracking	-11.6016
▁피하	-11.6017
bre	-11.6018
▁상금	-11.6019
▁rendered	-11.6019
▁stared	-11.602
▁mill	-11.6021
▁Ci	-11.6022
pel	-11.6023
▁fifteen	-11.6024
vy	-11.6024
▁Gor	-11.6024
단체장	-11.6027
▁잇따라	-11.6028
▁화폐	-11.6032
▁loud	-11.6032
▁군민	-11.6033
▁alignment	-11.6035
▁마친	-11.6035
Po	-11.6036
▁squad	-11.6037
AND	-11.6038
▁Islamic	-11.6039
▁분노	-11.604
▁scoring	-11.604
▁VR	-11.6041
ching	-11.6043
▁해상	-11.6043
PL	-11.6045
▁sake	-11.6045
▁resolve	-11.6047
ō	-11.6047
ー	-11.6048
▁업데이트	-11.6048
RP	-11.6049
▁특화	-11.6049
▁예요	-11.6049
ban	-11.605
▁wealth	-11.6051
▁screw	-11.6051
▁amendment	-11.6052
▁script	-11.6054
▁인천시	-11.6054
▁Marine	-11.6054
▁highway	-11.6058
ML	-11.6058
Keep	-11.606
▁발전소	-11.6061
style	-11.6061
phenyl	-11.6062
hill	-11.6062
▁analog	-11.6064
▁편지	-11.6065
▁Administration	-11.6065
VI	-11.6066
▁기지	-11.6067
century	-11.6067
▁spoken	-11.6067
▁remand	-11.6068
▁Age	-11.6068
꽤	-11.6069
▁cheese	-11.6069
post	-11.6069
▁운송	-11.6069
▁whereby	-11.6071
▁var	-11.6072
▁선행	-11.6073
▁medication	-11.6073
▁excuse	-11.6076
▁발매	-11.6078
ister	-11.6079
▁제휴	-11.608
▁uptake	-11.608
▁ser	-11.6081
▁사원	-11.6082
ensis	-11.6084
▁추출물	-11.6087
먹	-11.609
흥	-11.6091
▁phrase	-11.6092
▁NFL	-11.6092
▁sword	-11.6094
▁신임	-11.6103
▁probable	-11.6103
▁런던	-11.6103
EL	-11.6104
▁어려워	-11.6104
▁qua	-11.6108
▁needle	-11.6109
▁영화제	-11.611
і	-11.611
stage	-11.6112
ø	-11.6112
▁Ly	-11.6113
▁alarm	-11.6114
렬	-11.6116
mas	-11.6117
▁용도	-11.6117
▁가게	-11.6118
▁대외	-11.6119
그룹	-11.6121
▁races	-11.6121
▁ultimate	-11.6123
▁폴리	-11.6124
try	-11.6125
▁뮤직	-11.6128
eno	-11.6128
▁secretary	-11.6129
▁closure	-11.6129
깔	-11.613
DO	-11.6131
▁채무	-11.6131
aging	-11.6132
▁당한	-11.6133
lot	-11.6133
▁해명	-11.6134
▁RF	-11.6134
ogenic	-11.6134
▁Iraq	-11.6135
▁조화	-11.6136
▁영광	-11.6138
▁지내	-11.6138
▁Medicine	-11.6138
▁pending	-11.6139
▁Der	-11.6141
▁Nevertheless	-11.6142
▁보육	-11.6142
▁asks	-11.6143
▁possess	-11.6143
▁마이	-11.6144
▁점심	-11.6145
ila	-11.6146
사회	-11.6147
▁ta	-11.6147
bor	-11.6147
▁지대	-11.6148
▁landscape	-11.6149
▁프레임	-11.6149
▁Israeli	-11.615
▁deeply	-11.6152
척	-11.6154
▁주자	-11.6154
▁Agency	-11.6155
▁Ram	-11.6156
▁sharing	-11.6156
▁Castle	-11.6157
▁위축	-11.6157
▁Para	-11.6163
▁&;	-11.6164
▁vitamin	-11.6166
▁과세	-11.6166
▁멋	-11.6167
▁마크	-11.6167
▁구청	-11.6168
Fe	-11.6168
▁Bad	-11.617
▁transform	-11.6171
▁graduated	-11.6171
tie	-11.6172
▁flows	-11.6173
▁Camp	-11.6173
▁부작용	-11.6173
▁아닙니다	-11.6173
▁joy	-11.6174
▁Ve	-11.6176
▁lands	-11.6177
▁impression	-11.6178
▁limitation	-11.6178
▁emerged	-11.6179
▁유해	-11.618
▁고속	-11.6181
▁계절	-11.6181
▁출력	-11.6181
▁pairs	-11.6182
▁derivatives	-11.6182
▁신한	-11.6183
▁privacy	-11.6184
▁푸드	-11.6184
▁joke	-11.6185
four	-11.6185
▁신입	-11.6186
▁entity	-11.6188
▁surrounded	-11.6189
▁배포	-11.6189
▁craft	-11.6189
▁thinks	-11.619
▁namely	-11.6191
▁Lieutenant	-11.6192
▁chi	-11.6195
▁국어	-11.6195
▁청약	-11.6197
▁장식	-11.6199
▁joining	-11.6199
▁옵션	-11.6202
▁neuronal	-11.6205
▁Bible	-11.6205
LE	-11.6207
▁theoretical	-11.6207
cul	-11.6208
▁honest	-11.621
augh	-11.6211
▁construct	-11.6212
▁초래	-11.6212
▁화장실	-11.6212
▁peri	-11.6214
▁prize	-11.6215
대구시	-11.6218
CM	-11.622
▁cop	-11.6223
▁Unit	-11.6223
▁단말기	-11.6223
▁화물	-11.6224
▁최소한	-11.6228
gal	-11.6229
▁Building	-11.623
클	-11.623
▁Energy	-11.6231
sum	-11.6231
▁placement	-11.6233
▁돌려	-11.6235
▁founder	-11.6235
▁impairment	-11.6236
▁solely	-11.6236
▁steady	-11.6244
▁reporter	-11.6246
▁Ter	-11.6246
▁미술관	-11.6246
▁personality	-11.6247
▁encourage	-11.6247
▁대거	-11.6248
▁형제	-11.6251
▁줘	-11.6251
▁Egypt	-11.6251
▁급등	-11.6253
lle	-11.6255
gun	-11.6256
▁situated	-11.6258
▁capacitor	-11.626
▁prefer	-11.6261
▁시트	-11.6261
▁ultra	-11.6262
▁sleeping	-11.6263
곳	-11.6264
TE	-11.6264
quoting	-11.6265
▁광주시	-11.6268
▁reception	-11.6269
▁lifetime	-11.6269
▁genuine	-11.627
▁comfort	-11.6273
▁구비	-11.6274
▁nurse	-11.6274
til	-11.6274
▁갤럭시	-11.6275
납	-11.628
phone	-11.6281
ois	-11.6281
▁suspected	-11.6282
▁innocent	-11.6283
▁유전자	-11.6283
▁Defense	-11.6283
▁drum	-11.6283
▁Low	-11.6284
▁connector	-11.6285
▁colors	-11.6289
▁mile	-11.6292
▁탄소	-11.6292
▁colon	-11.6295
▁compete	-11.6296
▁targeting	-11.6296
most	-11.6299
▁microscopy	-11.63
MR	-11.6301
▁Tra	-11.6301
cast	-11.6303
▁매도	-11.6305
▁전후	-11.6306
amide	-11.6308
▁FM	-11.6309
▁gray	-11.6311
▁shoulders	-11.6312
rian	-11.6313
▁aluminum	-11.6314
hor	-11.6315
▁밟	-11.6316
▁가시	-11.6317
▁raw	-11.6317
ux	-11.6319
▁helps	-11.632
ui	-11.6321
▁sc	-11.6322
▁존중	-11.6323
▁ventricular	-11.6324
▁DJ	-11.6325
▁Take	-11.6326
▁Lincoln	-11.6327
▁핀	-11.6329
▁지불	-11.633
▁theme	-11.6332
▁depend	-11.6333
▁satellite	-11.6333
먼	-11.6334
BL	-11.6335
En	-11.6336
▁안팎	-11.6336
▁장학금	-11.634
▁affecting	-11.6341
▁void	-11.6341
▁Thompson	-11.6343
▁portable	-11.6343
Star	-11.6343
김	-11.6351
Lo	-11.6352
점포	-11.6354
▁태풍	-11.6354
▁모른다	-11.6356
▁Khan	-11.6356
DP	-11.6357
▁trail	-11.6357
▁breathing	-11.6358
protein	-11.6358
▁writ	-11.6358
법무부	-11.636
▁셔서	-11.636
▁resistant	-11.6362
Damn	-11.6364
▁alien	-11.6367
▁멘	-11.6368
dr	-11.6368
▁인테리어	-11.6372
▁둘러	-11.6373
▁focusing	-11.6373
▁짜	-11.6375
▁priority	-11.6375
▁#"	-11.6376
▁contention	-11.6376
▁initiated	-11.6376
▁클라우드	-11.6379
▁clubs	-11.638
gas	-11.638
▁crossing	-11.6382
찰	-11.6382
▁Tor	-11.6383
»	-11.6384
▁pressed	-11.6384
▁일으	-11.6384
▁교장	-11.6386
▁plenty	-11.6386
EE	-11.6386
▁hoped	-11.6388
▁포스트	-11.6389
▁anterior	-11.6389
▁myocardial	-11.639
▁inhibit	-11.6391
▁muscles	-11.6391
▁grid	-11.6393
St	-11.6393
▁processed	-11.6394
▁perfectly	-11.6396
▁Highway	-11.6396
▁transportation	-11.6397
▁나중	-11.6399
▁Come	-11.6399
▁capability	-11.6401
chan	-11.6403
▁바꿔	-11.6403
▁회의실	-11.6406
▁motions	-11.6407
dom	-11.6409
▁sons	-11.6409
▁Rather	-11.641
▁창립	-11.6412
vent	-11.6412
wick	-11.6416
▁distal	-11.6416
▁charging	-11.6417
▁eliminate	-11.642
▁교통부	-11.642
용량	-11.6423
▁tunnel	-11.6424
Which	-11.6425
▁markets	-11.6426
bol	-11.6426
▁notable	-11.6426
▁liable	-11.6426
▁항공사	-11.6428
▁bath	-11.6429
▁그럴	-11.6429
▁당사자	-11.6429
▁eggs	-11.643
▁배정	-11.6431
▁unlike	-11.6432
▁sixth	-11.6433
▁랜드	-11.6433
▁rarely	-11.6434
▁Jimmy	-11.6436
▁egg	-11.6437
quin	-11.6437
▁ABC	-11.6438
▁WE	-11.644
▁넘어	-11.644
▁insulating	-11.6444
▁태양	-11.6445
▁believes	-11.6446
▁fewer	-11.6446
▁ears	-11.6447
▁예금	-11.6448
imi	-11.645
야말로	-11.6451
▁ease	-11.6451
▁SS	-11.6452
▁lip	-11.6454
▁단축	-11.6454
▁Dave	-11.6457
uz	-11.646
ifying	-11.6461
▁Analysis	-11.6461
▁어린이집	-11.6463
▁meetings	-11.6464
▁royal	-11.6465
받	-11.6465
▁“[	-11.6466
▁doctors	-11.6466
▁bid	-11.6466
▁신앙	-11.6467
▁결승	-11.6469
▁Carter	-11.6471
▁encoding	-11.6473
PM	-11.6473
▁coli	-11.6473
kh	-11.6474
▁transplantation	-11.6476
▁grabbed	-11.6476
▁burst	-11.6477
▁연설	-11.6477
▁heading	-11.6479
승진	-11.6479
▁photos	-11.6482
hold	-11.6482
재원	-11.6483
▁차세대	-11.6483
▁개척	-11.6484
▁공략	-11.6484
▁pa	-11.6488
▁bleeding	-11.6489
SU	-11.6489
▁페스티벌	-11.649
▁asserted	-11.6492
▁mediated	-11.6492
DE	-11.6497
렁	-11.6501
▁widespread	-11.6501
▁삭제	-11.6502
cat	-11.6503
where	-11.6504
ats	-11.6504
▁ml	-11.6506
▁Gordon	-11.6507
▁Senior	-11.6508
▁인도네시아	-11.6508
▁filling	-11.6509
▁healing	-11.651
▁packet	-11.6511
▁lifted	-11.6512
▁포털	-11.6512
▁arise	-11.6514
order	-11.6515
▁defensive	-11.6516
▁Again	-11.6517
▁dressed	-11.652
▁assignment	-11.6521
▁posted	-11.6523
д	-11.6524
▁상인	-11.6526
▁usage	-11.6526
▁동해	-11.6526
▁centuries	-11.6527
▁operates	-11.6527
▁Silver	-11.6528
gor	-11.6529
▁installation	-11.6529
▁enjoyed	-11.6529
und	-11.653
▁guidance	-11.653
▁WO	-11.6531
▁handed	-11.6532
센터	-11.6533
mont	-11.6534
Ho	-11.6535
▁조합원	-11.6535
▁timely	-11.6536
▁cholesterol	-11.6536
▁Command	-11.6537
▁settings	-11.6537
▁acoustic	-11.6538
▁extraction	-11.6539
교육감	-11.6539
▁operational	-11.6539
▁universal	-11.654
▁개통	-11.654
▁med	-11.6541
▁기조	-11.6542
м	-11.6542
▁priest	-11.6543
▁PR	-11.6543
▁obtaining	-11.6544
▁receives	-11.6544
▁https	-11.6545
▁terminals	-11.6546
▁blame	-11.6546
tant	-11.6546
▁Cl	-11.6546
▁Phase	-11.6549
▁주부	-11.655
Miss	-11.6552
stein	-11.6552
▁Amazon	-11.6552
▁icon	-11.6552
▁Dean	-11.6555
▁리조트	-11.6556
▁instances	-11.6559
▁CF	-11.6559
▁과도	-11.6559
Bo	-11.656
▁adjusted	-11.656
▁클릭	-11.6563
▁다섯	-11.6563
ory	-11.6566
▁perceived	-11.6568
▁marker	-11.657
▁Foreign	-11.6571
β	-11.6572
▁Having	-11.6572
▁Prize	-11.6575
mb	-11.6575
EA	-11.6578
▁bread	-11.6579
▁chairman	-11.658
izer	-11.658
▁로마	-11.658
▁나선다	-11.6581
원하	-11.6581
▁수신	-11.6582
ando	-11.6582
▁버렸	-11.6584
▁케이스	-11.6585
▁파티	-11.6587
▁Natural	-11.6587
▁해진	-11.6587
pos	-11.6588
▁merit	-11.6588
▁안타	-11.659
▁NH	-11.6593
▁흥원	-11.6594
▁trigger	-11.6595
▁가질	-11.6595
▁opera	-11.66
▁raising	-11.6603
▁personally	-11.6603
▁hanging	-11.6606
▁위성	-11.6606
▁rotor	-11.6606
▁proceed	-11.661
▁고도	-11.6611
Put	-11.6612
▁NA	-11.6613
▁、	-11.6613
▁Modern	-11.6614
▁HE	-11.662
▁Within	-11.662
▁manufactured	-11.662
step	-11.6621
▁integrity	-11.6621
낸	-11.6623
▁놀라	-11.6623
bble	-11.6626
▁데이	-11.6626
▁애니메이션	-11.6629
▁permission	-11.663
Shut	-11.6631
▁Historic	-11.6633
▁고양이	-11.6634
▁reveals	-11.6638
▁preserve	-11.6638
▁poll	-11.6639
▁OR	-11.6639
▁Ce	-11.664
IA	-11.6641
▁노하우	-11.6644
▁Louisiana	-11.6644
▁라이프	-11.6645
▁obligation	-11.6646
▁Moon	-11.6647
▁thereafter	-11.6647
eri	-11.665
▁신장	-11.6652
▁investigations	-11.6652
▁configured	-11.6653
▁developmental	-11.6653
ão	-11.6658
read	-11.6658
▁돼지	-11.666
ache	-11.6662
ivity	-11.6662
▁Senator	-11.6663
▁environments	-11.6663
▁indictment	-11.6666
▁gr	-11.6666
▁Rad	-11.6667
▁모았	-11.6669
ters	-11.667
▁배상	-11.6673
▁Las	-11.6674
▁Story	-11.6674
▁hill	-11.6674
▁artificial	-11.6675
▁pathogenesis	-11.6677
▁계정	-11.668
▁fleet	-11.6683
gene	-11.6686
▁peptides	-11.6686
▁shares	-11.6688
▁청원	-11.6688
▁Samuel	-11.6688
▁칩	-11.669
▁Fr	-11.6693
▁varied	-11.6694
▁das	-11.6694
▁배당	-11.6695
▁dreams	-11.6696
▁maternal	-11.6699
▁estimates	-11.6699
oy	-11.67
▁Islands	-11.6702
page	-11.6703
▁offensive	-11.6705
▁marine	-11.6706
▁relied	-11.6707
▁응급	-11.6707
▁neutral	-11.6707
▁challenged	-11.6708
▁간접	-11.6708
ike	-11.6708
▁수강	-11.6709
kel	-11.671
▁Moscow	-11.671
▁연봉	-11.6713
▁cre	-11.6713
▁suppress	-11.6713
▁rotating	-11.6714
▁전당	-11.6714
▁references	-11.6715
utter	-11.6715
uv	-11.6715
▁찬성	-11.6716
mut	-11.6721
▁lap	-11.6722
▁profit	-11.6723
▁고전	-11.6724
▁equipped	-11.6725
▁캠퍼스	-11.6725
▁creates	-11.6726
ova	-11.6727
흘	-11.6727
▁segments	-11.673
▁한층	-11.6731
text	-11.6735
▁advances	-11.6735
▁닫	-11.6737
▁돌입	-11.6737
▁Ron	-11.6738
▁distinction	-11.6738
inch	-11.6739
è	-11.6739
!'	-11.6741
▁Vice	-11.6743
▁availability	-11.6743
▁wooden	-11.6744
▁ownership	-11.6744
▁pulling	-11.6746
▁electrically	-11.6746
▁ranging	-11.6747
pass	-11.6747
ibility	-11.6748
▁위생	-11.675
▁임신	-11.675
▁fin	-11.6751
▁appreciate	-11.6752
▁recall	-11.6752
▁호흡	-11.6753
▁substituted	-11.6753
라인	-11.6754
Time	-11.6755
부각	-11.6756
▁메인	-11.6756
ander	-11.6757
▁fiction	-11.6757
▁듀	-11.6758
▁interact	-11.6758
.'"	-11.6758
▁뷰티	-11.6758
▁validity	-11.676
▁힘입	-11.676
▁bench	-11.6761
Bye	-11.6762
▁Rep	-11.6764
▁titled	-11.6764
Got	-11.6767
rel	-11.6767
▁theatre	-11.6768
▁폭행	-11.6768
▁배송	-11.6769
▁즐	-11.6769
▁soldier	-11.6769
▁가속	-11.6772
▁minority	-11.6772
▁Fo	-11.6773
▁다녀	-11.6774
▁문헌	-11.6774
▁comply	-11.6776
▁loaded	-11.6776
▁suppression	-11.6781
▁Deputy	-11.6784
▁Oregon	-11.6784
▁부총리	-11.6784
als	-11.6785
▁능	-11.6786
hel	-11.6791
존	-11.6791
▁ob	-11.6791
▁이어졌	-11.6792
world	-11.6793
▁generator	-11.6793
▁CH	-11.6794
올	-11.6794
otic	-11.6799
▁부사장	-11.6799
▁lowest	-11.6804
▁Hot	-11.6804
▁alterations	-11.6805
▁hero	-11.6805
▁affinity	-11.6806
▁어른	-11.6806
럴	-11.6811
▁부착	-11.6811
▁Books	-11.6813
▁소환	-11.6815
▁attempting	-11.6815
▁공헌	-11.6815
▁권고	-11.6816
▁wondered	-11.6818
▁similarly	-11.6819
▁unclear	-11.6819
▁intellectual	-11.682
▁Bol	-11.682
▁\\	-11.682
citing	-11.6821
▁Whether	-11.6821
▁MB	-11.6821
▁substances	-11.6822
▁투기	-11.6822
▁는다고	-11.6823
▁lots	-11.6823
PH	-11.6826
▁ethnic	-11.6827
▁신화	-11.6828
▁지위	-11.6829
▁Register	-11.6829
teen	-11.6831
한다	-11.6831
▁wore	-11.6832
week	-11.6833
▁감상	-11.6834
▁Multi	-11.6835
▁Bon	-11.6836
▁notion	-11.6836
▁여서	-11.6836
▁Kennedy	-11.6837
▁담당자	-11.6837
웨이	-11.6838
▁sizes	-11.684
▁ou	-11.684
▁displays	-11.6841
▁시원	-11.6841
press	-11.6842
▁Respondent	-11.6844
▁cave	-11.6845
present	-11.6846
▁manifest	-11.6846
▁Roll	-11.6846
▁닭	-11.6848
Car	-11.6848
▁포트	-11.6848
▁탁	-11.6849
т	-11.6849
▁Wright	-11.6851
▁고시	-11.6854
ua	-11.6855
▁트렌드	-11.6855
▁수비	-11.6856
▁merits	-11.6857
▁stolen	-11.6858
▁Care	-11.6858
▁sleeve	-11.6859
▁허위	-11.6859
RF	-11.6859
treated	-11.6859
▁열차	-11.6861
▁Fourth	-11.6861
▁beneficial	-11.6861
▁recommend	-11.6861
▁Gra	-11.6863
▁cortex	-11.6863
▁이메일	-11.6863
▁voted	-11.6864
▁도약	-11.6864
▁deemed	-11.6865
▁Engineering	-11.6866
▁specimens	-11.6866
▁달라	-11.6867
▁Microsoft	-11.6867
▁×	-11.6867
싱	-11.6871
▁Ty	-11.6873
ill	-11.6873
▁discover	-11.6873
ook	-11.6873
▁headquarters	-11.6874
▁자라	-11.6874
ista	-11.6875
▁physically	-11.6876
▁생물	-11.6876
▁Assistant	-11.6878
▁marijuana	-11.6878
▁일방	-11.688
▁Dor	-11.6881
▁conjunction	-11.6882
▁sensing	-11.6882
▁만날	-11.6883
▁나요	-11.6885
▁면허	-11.6885
▁탄핵	-11.6885
▁지닌	-11.6886
▁titles	-11.6887
▁대량	-11.6887
Ar	-11.689
▁스타트업	-11.6893
▁mat	-11.6893
▁attractive	-11.6894
jan	-11.6894
▁succeeded	-11.6895
▁disadvantage	-11.6895
요원	-11.6895
▁collective	-11.6896
숍	-11.69
▁선보였	-11.69
▁singing	-11.6901
▁rice	-11.6902
▁세무	-11.6902
▁darkness	-11.6904
comp	-11.6906
▁돌아	-11.6907
▁Regiment	-11.6908
▁징계	-11.6909
eta	-11.691
▁Syria	-11.6911
$,	-11.6912
First	-11.6912
▁disappeared	-11.6913
mos	-11.6914
boy	-11.6915
▁인공지능	-11.6916
▁Trade	-11.6917
▁gotten	-11.6918
▁쌍	-11.6919
▁complement	-11.6919
▁arterial	-11.692
▁필름	-11.692
HL	-11.692
▁Hell	-11.692
▁drunk	-11.6921
Di	-11.6921
▁castle	-11.6922
▁heaven	-11.6922
▁Death	-11.6923
▁dimension	-11.6924
▁trace	-11.6924
▁UV	-11.6925
Ti	-11.6925
▁랩	-11.6927
▁축산	-11.6928
조건	-11.6928
Ga	-11.6928
▁Yo	-11.6929
away	-11.693
▁과일	-11.6933
▁criticism	-11.6935
▁Tax	-11.6935
▁survived	-11.6935
kov	-11.6936
▁Oklahoma	-11.6938
▁reconstruction	-11.6943
▁det	-11.6946
▁Sand	-11.6949
▁roughly	-11.6951
▁dependence	-11.6953
tone	-11.6954
▁pounds	-11.6958
닝	-11.696
▁crash	-11.696
▁everywhere	-11.6962
▁lamp	-11.6964
▁유튜브	-11.6965
Shit	-11.6965
meter	-11.6967
fish	-11.6968
▁obesity	-11.6969
▁awards	-11.697
앙	-11.6971
▁adopt	-11.6971
▁위상	-11.6972
▁그럼에도	-11.6972
ically	-11.6973
how	-11.6976
▁gaze	-11.6977
▁Vietnam	-11.6979
▁ED	-11.6979
wer	-11.6981
▁permits	-11.6983
forming	-11.6983
▁continuously	-11.6984
▁Swedish	-11.6984
▁뭔가	-11.6984
▁Labour	-11.6984
▁hey	-11.6984
▁oh	-11.6986
▁settle	-11.6989
▁gathered	-11.6989
▁센	-11.6991
▁형상	-11.6991
▁Dick	-11.6994
▁offices	-11.6995
▁plot	-11.6995
▁Robinson	-11.6996
aro	-11.6996
▁Song	-11.6999
▁mitochondrial	-11.7002
▁pal	-11.7003
▁즐거운	-11.7003
▁foregoing	-11.7003
RI	-11.7003
▁drivers	-11.7005
oph	-11.7005
▁inspection	-11.7007
ump	-11.7007
▁worker	-11.7008
▁Cell	-11.701
▁Labor	-11.7011
랐	-11.7011
▁meal	-11.7012
턴	-11.7014
▁크림	-11.7014
▁모드	-11.7014
▁◎	-11.7014
▁satisfy	-11.7015
stra	-11.7015
▁전역	-11.7018
▁올바른	-11.7018
▁decreases	-11.7018
▁지휘	-11.7019
▁촌	-11.7022
▁朴	-11.7022
▁shadow	-11.7024
NT	-11.7025
▁keys	-11.7031
ALL	-11.7031
▁fifty	-11.7033
▁therapies	-11.7033
DI	-11.7033
티브	-11.7034
▁Adams	-11.7035
▁fallen	-11.7035
▁워싱턴	-11.7037
ight	-11.7037
▁기름	-11.704
▁controversy	-11.7041
▁천연	-11.7042
▁junction	-11.7043
onic	-11.7044
▁농구	-11.7045
▁nucleus	-11.705
▁이성	-11.7052
▁vapor	-11.7052
▁Em	-11.7053
III	-11.7057
▁objectives	-11.7059
CE	-11.7059
vol	-11.706
▁지도부	-11.706
▁원자력	-11.7061
▁SD	-11.7062
▁lit	-11.7062
▁phosphorylation	-11.7063
▁수여	-11.7064
▁Wal	-11.7066
▁residual	-11.7068
▁bathroom	-11.7068
LS	-11.707
gg	-11.7072
▁올라가	-11.7072
탑	-11.7074
▁피고	-11.7075
▁extends	-11.7075
▁생겼	-11.7077
▁방학	-11.7078
▁부자	-11.7078
▁Farm	-11.7078
▁구원	-11.7079
▁늘어났	-11.7079
▁girlfriend	-11.7081
▁평양	-11.7082
▁냄새	-11.7083
▁향한	-11.7085
OP	-11.7085
▁shorter	-11.7085
▁끝내	-11.7086
▁expense	-11.7086
▁뚜렷	-11.7087
▁상관	-11.7087
▁시중	-11.7087
▁소지	-11.7092
▁consumers	-11.7092
▁factory	-11.7092
▁update	-11.7098
▁보인	-11.7098
は	-11.7099
▁blog	-11.7099
▁안심	-11.71
▁resolved	-11.71
face	-11.71
▁한도	-11.71
▁departure	-11.7103
▁conclusions	-11.7104
▁그치	-11.7104
aire	-11.7105
Never	-11.7106
▁static	-11.7107
cre	-11.7108
▁fl	-11.7108
▁divorce	-11.7108
▁만났	-11.7112
▁span	-11.7114
▁burned	-11.7116
▁오류	-11.7117
▁Hamilton	-11.7118
▁방치	-11.7119
▁그저	-11.7119
마트	-11.712
▁bike	-11.712
넘	-11.7121
▁honour	-11.7126
▁insight	-11.7129
▁postoperative	-11.7129
▁신학	-11.7129
▁guilt	-11.7129
▁Ontario	-11.7129
▁착공	-11.7129
▁예선	-11.7132
▁yours	-11.7133
mol	-11.7135
inger	-11.714
▁architect	-11.714
▁스키	-11.7142
hood	-11.7143
pra	-11.7143
genic	-11.7143
bl	-11.7144
▁Rules	-11.7144
▁conducting	-11.7146
▁내내	-11.7149
▁prediction	-11.715
▁dates	-11.7154
▁야외	-11.7155
▁bull	-11.7155
▁벗	-11.7155
▁patch	-11.7156
▁원주	-11.7162
▁여의도	-11.7164
▁attributed	-11.7165
ators	-11.7166
▁타이	-11.7168
space	-11.7168
▁enables	-11.7168
aya	-11.717
ı	-11.7171
▁clothing	-11.7171
▁arising	-11.7172
▁oxidative	-11.7175
▁해안	-11.7177
itz	-11.7178
ICE	-11.7178
▁집권	-11.7179
pet	-11.7185
▁흥	-11.7186
▁만기	-11.7187
▁collagen	-11.7189
rt	-11.7189
▁유의	-11.719
▁torque	-11.7192
▁Unlike	-11.7193
▁fracture	-11.7196
▁발주	-11.7196
▁Channel	-11.7196
▁friendly	-11.7199
Any	-11.72
▁협업	-11.72
▁타자	-11.72
HC	-11.7201
욕	-11.7201
▁인치	-11.7201
▁여권	-11.7202
ere	-11.7203
▁diabetic	-11.7204
▁미칠	-11.7205
▁NOT	-11.7206
▁챔피언	-11.7207
▁신축	-11.7207
▁sampling	-11.7209
밭	-11.721
▁본질	-11.7211
구청장	-11.7217
▁pr	-11.722
lich	-11.7221
다면	-11.7221
ides	-11.7222
▁Route	-11.7222
▁기쁨	-11.7224
▁용인	-11.7226
horn	-11.7227
▁맑	-11.7228
▁Poly	-11.723
▁situ	-11.7231
▁Ac	-11.7232
open	-11.7233
▁객	-11.7235
▁dental	-11.7235
선배	-11.7236
▁graft	-11.7238
▁즉각	-11.7239
▁comparing	-11.7239
shire	-11.724
RR	-11.7242
▁observe	-11.7243
▁자면	-11.7243
Th	-11.7244
▁lawsuit	-11.7244
▁households	-11.7244
▁distress	-11.7246
▁intact	-11.7246
▁입원	-11.7247
▁이기	-11.725
▁Winter	-11.725
ear	-11.7252
EF	-11.7252
▁convinced	-11.7252
▁Baker	-11.7252
▁Recent	-11.7253
ident	-11.7254
▁Mas	-11.7254
▁attitude	-11.7254
play	-11.7256
är	-11.7256
▁intense	-11.7257
▁유연	-11.7257
▁Digital	-11.7258
▁quit	-11.726
▁efficiently	-11.7262
▁개헌	-11.7263
▁cake	-11.7264
og	-11.7264
▁placing	-11.7265
People	-11.7266
▁separately	-11.7267
▁드림	-11.7269
▁어려울	-11.7269
VE	-11.7271
ν	-11.7271
▁encountered	-11.7272
▁Au	-11.7273
ann	-11.7274
▁Morris	-11.7275
▁replication	-11.7278
▁slot	-11.728
▁Earl	-11.7284
▁마쳤	-11.7286
ait	-11.7287
▁checked	-11.7287
▁stretch	-11.7288
▁functioning	-11.7289
▁Diego	-11.729
ema	-11.729
▁α	-11.729
▁中	-11.7291
▁marketing	-11.7291
▁ceramic	-11.7293
▁staying	-11.7294
ogen	-11.7295
▁como	-11.7295
▁floating	-11.7297
▁rings	-11.7298
▁philosophy	-11.7301
CS	-11.7302
▁부도	-11.7303
▁protecting	-11.7303
닫	-11.7304
▁Read	-11.7304
gamma	-11.7304
▁한지	-11.7307
cation	-11.7307
▁Islam	-11.7309
▁흔들	-11.731
엄	-11.731
▁고령	-11.7312
▁rolled	-11.7312
▁opinions	-11.7314
east	-11.7314
▁COURT	-11.7316
▁벌였	-11.7317
▁고기	-11.7318
▁자고	-11.7318
므로	-11.7319
Huh	-11.7319
vic	-11.732
sse	-11.732
Move	-11.7324
▁CS	-11.7325
▁på	-11.7327
SON	-11.7327
▁Executive	-11.7328
▁순이익	-11.7328
▁코스피	-11.7329
с	-11.733
▁지명	-11.733
name	-11.7331
지만	-11.7331
▁coding	-11.7331
CF	-11.7334
▁MO	-11.7334
▁promoter	-11.7335
▁cure	-11.7336
▁Table	-11.7343
▁남기	-11.7344
▁Please	-11.7345
ude	-11.7347
▁disclose	-11.7348
▁breakfast	-11.7348
▁distant	-11.7348
wide	-11.7352
▁Ocean	-11.7356
▁corn	-11.7356
▁우울	-11.7357
▁정성	-11.7358
▁aggressive	-11.7358
▁spaces	-11.7359
▁붕괴	-11.736
▁submit	-11.736
알	-11.7361
worth	-11.7361
▁복음	-11.7361
▁grab	-11.7366
▁belong	-11.7367
▁익숙	-11.7368
▁버린	-11.7369
▁residues	-11.7369
▁movies	-11.7371
▁fluorescence	-11.7371
▁systematic	-11.7373
▁theater	-11.7374
▁Member	-11.7374
▁저작	-11.7375
▁몰려	-11.7376
▁Pu	-11.7377
ack	-11.7378
▁정확히	-11.7379
new	-11.7379
▁asserts	-11.7381
ech	-11.7382
▁오버	-11.7384
▁touched	-11.7385
▁Dist	-11.7385
will	-11.7386
▁turbine	-11.7387
▁Make	-11.7388
grad	-11.7388
▁소감	-11.7388
▁들어서	-11.739
▁Colonel	-11.739
▁spectral	-11.7391
▁oldest	-11.7391
▁Pr	-11.7394
▁건너	-11.7394
▁grip	-11.7394
▁꼬	-11.7395
positive	-11.7396
pic	-11.7396
▁내지	-11.7397
▁blocked	-11.7397
▁타이틀	-11.7399
▁Bla	-11.74
ace	-11.74
▁객관	-11.74
▁혜	-11.74
▁의결	-11.7403
▁Pop	-11.7403
▁Procedure	-11.7403
▁decree	-11.7404
▁behaviors	-11.7405
▁awareness	-11.7405
rit	-11.7407
▁cartridge	-11.7407
▁affidavit	-11.741
▁som	-11.741
나름	-11.7412
ción	-11.7416
▁Bruce	-11.7418
▁trap	-11.7418
▁스크린	-11.7419
▁Cy	-11.742
▁insertion	-11.7421
▁코너	-11.7421
▁attorneys	-11.7423
▁creative	-11.7423
▁음주	-11.7423
▁valley	-11.7423
▁나노	-11.7424
▁envelope	-11.7424
▁쏘	-11.7427
mond	-11.7427
$.	-11.7427
▁RT	-11.7428
▁Mayor	-11.7428
콤	-11.743
▁이자	-11.7431
▁Ye	-11.7431
ware	-11.7431
몇	-11.7433
▁roads	-11.7433
▁유력	-11.7434
▁Revolution	-11.7435
▁Affairs	-11.7436
▁limiting	-11.7439
▁나타냈	-11.7439
▁Austin	-11.744
▁Recently	-11.744
Only	-11.7441
▁어깨	-11.7446
▁bore	-11.7447
▁transparent	-11.7447
▁disposition	-11.7447
▁근대	-11.745
▁소수	-11.7451
▁dem	-11.7451
ending	-11.7452
▁Sciences	-11.7454
▁festival	-11.7454
▁GDP	-11.7454
▁Roger	-11.7455
냈	-11.7456
▁팝	-11.7459
▁minimize	-11.7461
nik	-11.7461
▁drives	-11.7462
▁elevation	-11.7463
made	-11.7464
▁felony	-11.7464
▁없애	-11.7464
▁fishing	-11.7465
▁조심	-11.7467
$-	-11.7467
▁polymers	-11.7468
?”	-11.7469
▁출입	-11.747
▁에스	-11.747
▁malignant	-11.7473
▁narrative	-11.7475
▁명시	-11.7476
▁중동	-11.7476
rod	-11.7477
▁Roy	-11.7478
▁membranes	-11.7478
▁modes	-11.7479
Help	-11.7479
▁impaired	-11.7482
▁independence	-11.7482
▁높여	-11.7482
▁catheter	-11.7482
wise	-11.7483
▁amplifier	-11.7484
▁갤러리	-11.7487
▁circular	-11.7487
▁flux	-11.7488
▁gradually	-11.7488
PI	-11.7489
▁춘	-11.749
▁Blood	-11.7491
ail	-11.7492
▁자식	-11.7492
Si	-11.7493
▁흉	-11.7493
▁유행	-11.7493
▁레드	-11.7494
▁voting	-11.7495
▁expertise	-11.7495
▁Ur	-11.7496
▁머물	-11.7497
▁arbitration	-11.7499
▁지니	-11.75
▁인공	-11.75
▁체력	-11.7501
으면	-11.7502
▁Antonio	-11.7502
▁Turkish	-11.7502
▁음식점	-11.7506
▁relate	-11.7506
▁programme	-11.7506
▁duct	-11.7507
oper	-11.7508
▁멀리	-11.7509
▁inclusion	-11.751
▁시가	-11.7514
ote	-11.7515
▁foam	-11.7515
bot	-11.7516
▁부활	-11.7516
▁Pur	-11.7517
▁Billy	-11.7517
▁signature	-11.7518
▁adjust	-11.7519
AA	-11.7522
▁journal	-11.7523
}}	-11.7525
▁Republicans	-11.7529
▁당분	-11.753
▁confused	-11.753
▁eliminated	-11.753
▁Mis	-11.7531
▁hospitals	-11.7531
▁근육	-11.7531
uma	-11.7531
▁이뤄졌	-11.7531
▁methyl	-11.7532
▁shelter	-11.7534
ied	-11.7534
▁Twenty	-11.7537
▁rolling	-11.7537
▁palm	-11.7538
▁조리	-11.7539
nel	-11.754
▁golf	-11.7541
▁comedy	-11.7542
▁bow	-11.7542
▁Appeal	-11.7542
▁legislature	-11.7543
и	-11.7543
▁명단	-11.7544
▁병행	-11.7545
▁Image	-11.7545
▁resident	-11.7546
▁providers	-11.7546
els	-11.7547
▁electricity	-11.7547
▁disaster	-11.7547
▁재해	-11.7547
▁precision	-11.7547
▁Cooper	-11.7551
▁mortgage	-11.7551
▁후속	-11.7555
▁Margaret	-11.7555
▁일관	-11.7557
master	-11.7558
▁〈	-11.7559
▁granting	-11.7559
▁capabilities	-11.7559
▁bonds	-11.756
▁substitute	-11.7562
▁Short	-11.7562
▁Qu	-11.7563
▁Hollywood	-11.7563
▁urine	-11.7564
▁Temple	-11.7564
▁Fu	-11.7566
Everything	-11.7566
ore	-11.7566
다수	-11.7566
▁믿음	-11.7567
just	-11.7568
▁이뤄지	-11.7568
행보	-11.7569
▁체포	-11.7569
▁신분	-11.757
▁리스트	-11.7571
▁graduate	-11.7572
▁꺼	-11.7573
▁donor	-11.7573
▁branches	-11.7576
▁줄여	-11.7577
▁Bowl	-11.7578
▁표명	-11.7579
▁메이저	-11.758
▁firing	-11.758
▁theories	-11.758
▁Juan	-11.7581
▁관세	-11.7582
dale	-11.7584
▁매달	-11.7585
▁Alice	-11.7586
▁franchise	-11.7587
갔	-11.759
lio	-11.7594
▁대장	-11.7594
▁철회	-11.7595
▁멕시코	-11.7595
▁ticket	-11.7596
▁감지	-11.7596
▁carriers	-11.7597
▁fetal	-11.76
▁Township	-11.76
と	-11.76
hol	-11.7601
oz	-11.7603
▁interviews	-11.7606
▁덮	-11.7607
]{}	-11.7608
▁상향	-11.7608
▁profiles	-11.7608
▁composer	-11.761
▁intensive	-11.761
▁공주	-11.7611
▁공제	-11.7612
▁그래	-11.7613
Jo	-11.7614
▁towns	-11.7614
▁volumes	-11.7615
▁EC	-11.7615
▁nursing	-11.7616
▁legitimate	-11.7616
▁붉	-11.7617
▁부패	-11.7617
▁reader	-11.7618
▁웨	-11.7618
버그	-11.7619
▁hydraulic	-11.762
없	-11.762
▁Square	-11.7621
▁Sara	-11.7623
tim	-11.7623
▁violations	-11.7623
cra	-11.7624
▁reactive	-11.7626
▁racing	-11.7628
▁Action	-11.7629
▁Sel	-11.7632
▁probation	-11.7632
▁필리핀	-11.7632
▁cooking	-11.7632
▁maps	-11.7632
base	-11.7634
lit	-11.7634
▁Gre	-11.7634
▁deposited	-11.7634
Does	-11.7634
것	-11.7635
▁넷	-11.7636
▁forty	-11.7636
▁교원	-11.7638
▁os	-11.7638
▁버튼	-11.764
iness	-11.7641
▁exclusively	-11.7642
▁김동	-11.7643
솟	-11.7644
▁brick	-11.7649
▁Child	-11.7651
▁재벌	-11.7651
▁Sweden	-11.7652
▁일각	-11.7654
고향	-11.7655
load	-11.7655
▁ineffective	-11.7655
▁statistically	-11.7655
aged	-11.7658
▁Hence	-11.766
▁마침	-11.7662
▁flu	-11.7663
▁Have	-11.7665
▁달했	-11.7666
▁개시	-11.7666
▁recombinant	-11.7668
▁주재	-11.767
sil	-11.767
▁민감	-11.7671
▁철강	-11.7671
▁Luke	-11.7671
▁collapse	-11.7671
▁그게	-11.7672
▁칭	-11.7672
▁색상	-11.7673
▁lord	-11.7673
nor	-11.7674
▁în	-11.7676
▁affairs	-11.7676
▁헤어	-11.7676
▁junior	-11.7677
▁집안	-11.7677
▁검출	-11.7678
▁critics	-11.7678
Make	-11.7679
▁striking	-11.7681
▁아카데미	-11.7681
▁대대	-11.7681
▁나쁜	-11.7682
▁곧바	-11.7683
▁bet	-11.7684
▁iso	-11.7684
▁Military	-11.7684
Vi	-11.7684
loss	-11.7685
▁Russell	-11.7685
▁줘야	-11.7685
Se	-11.7687
té	-11.7689
▁데일리	-11.7689
▁Dream	-11.7689
▁indication	-11.769
▁높였	-11.7691
sar	-11.7692
▁클래식	-11.7697
▁shake	-11.7698
▁Video	-11.77
lim	-11.7701
▁VII	-11.7701
Mi	-11.7702
times	-11.7702
▁Tan	-11.7702
▁던지	-11.7703
▁panels	-11.7704
▁Netherlands	-11.7705
넘치	-11.7707
▁선전	-11.7708
▁variants	-11.7708
▁Market	-11.7709
even	-11.7709
ε	-11.771
▁폐기물	-11.771
▁관광지	-11.7711
▁화합	-11.7711
▁극대	-11.7712
▁극단	-11.7712
piece	-11.7712
rig	-11.7712
▁emerging	-11.7713
▁게재	-11.7714
▁pale	-11.7716
▁transient	-11.7718
DU	-11.7719
▁clinically	-11.7719
▁발효	-11.7719
▁prisoners	-11.7719
▁transmit	-11.772
▁아르	-11.7721
▁로드	-11.7722
▁talent	-11.7724
▁strict	-11.7725
TER	-11.7731
▁DB	-11.7731
▁lighting	-11.7731
▁arrive	-11.7732
▁gamma	-11.7732
▁belonging	-11.7733
rn	-11.7734
▁integral	-11.7737
특강	-11.7739
▁Country	-11.7739
olo	-11.7739
▁美	-11.7739
▁수영	-11.774
▁wounded	-11.7741
▁김해	-11.7741
▁constantly	-11.7742
▁ceiling	-11.7742
▁Miami	-11.7742
▁예능	-11.7743
▁유효	-11.7743
▁쏠	-11.7749
meth	-11.775
ct	-11.7751
▁Warren	-11.7752
▁ligand	-11.7753
▁학위	-11.7753
▁precedent	-11.7754
▁중순	-11.7755
응	-11.7756
▁신인	-11.7756
IF	-11.7757
▁Born	-11.7757
▁passengers	-11.7757
▁nations	-11.7757
▁후기	-11.7758
▁tele	-11.776
weight	-11.776
▁converter	-11.7764
▁Ct	-11.7765
풀	-11.7766
▁whenever	-11.7766
▁구도	-11.7767
ENT	-11.7767
▁claiming	-11.7769
▁책임자	-11.7772
▁함유	-11.7772
▁Lou	-11.7772
RM	-11.7774
났	-11.7774
▁일반인	-11.7775
▁bandwidth	-11.7775
▁꼴	-11.7776
UD	-11.7777
esh	-11.7779
▁케어	-11.7779
▁엄격	-11.7779
▁slight	-11.7781
hir	-11.7781
▁ka	-11.7782
행정부	-11.7783
▁소음	-11.7783
애플리케이션	-11.7783
▁cal	-11.7786
John	-11.7786
UR	-11.7786
lands	-11.7787
▁Emperor	-11.7787
▁Kentucky	-11.7787
▁벨	-11.7789
acetyl	-11.779
▁Sk	-11.779
▁분산	-11.7792
▁Typically	-11.7793
▁embodiments	-11.7794
lies	-11.7794
▁혼합	-11.7797
▁중부	-11.7798
▁오바마	-11.78
▁twin	-11.7803
▁reward	-11.7803
▁Stewart	-11.7804
▁환경부	-11.7804
ancy	-11.7804
▁Graham	-11.7804
▁Liberal	-11.7804
ethyl	-11.7804
▁orbit	-11.7804
▁Ren	-11.7805
▁Memorial	-11.7808
▁chips	-11.7808
▁searching	-11.7809
front	-11.7809
▁ranked	-11.781
▁dozen	-11.781
DT	-11.7811
▁Tex	-11.7812
▁Ana	-11.7813
▁trick	-11.7814
▁샷	-11.7814
▁rigid	-11.7817
▁Guide	-11.7818
▁Lan	-11.7819
pal	-11.7819
▁베이	-11.7819
▁Has	-11.7824
▁enemies	-11.7824
layer	-11.7826
▁경매	-11.7826
Something	-11.7828
▁rating	-11.7828
▁뱅크	-11.7828
▁한때	-11.7829
▁elsewhere	-11.7829
▁reserve	-11.7831
▁Nat	-11.7832
▁농장	-11.7833
▁Marie	-11.7833
▁스님	-11.7836
exp	-11.7836
▁Federation	-11.7837
▁mature	-11.7838
AG	-11.7839
▁Cro	-11.784
▁tap	-11.7841
▁reservoir	-11.7841
there	-11.7841
▁라이브	-11.7841
▁fra	-11.7841
▁펜	-11.7842
▁궁	-11.7842
▁수험	-11.7843
▁phenotype	-11.7847
take	-11.7855
care	-11.7856
▁목숨	-11.7858
▁선보인다	-11.786
▁ignore	-11.7861
ación	-11.7861
pes	-11.7861
▁농림	-11.7863
▁담겨	-11.7865
▁ein	-11.7866
▁hung	-11.7867
ics	-11.7868
▁학문	-11.7869
▁selectively	-11.787
Sc	-11.7871
▁chains	-11.7871
▁Christopher	-11.7872
▁occasions	-11.7872
▁Mag	-11.7873
▁alert	-11.7874
▁drill	-11.7875
▁Generally	-11.7877
night	-11.7878
승용차	-11.7878
▁transactions	-11.7881
▁bypass	-11.7881
▁인민	-11.7882
▁Mississippi	-11.7882
▁들어간	-11.7883
Say	-11.7883
RNA	-11.7884
▁slide	-11.7885
EM	-11.7885
site	-11.7885
▁demanded	-11.7886
▁원료	-11.7886
▁메일	-11.7887
▁---	-11.7888
▁trains	-11.7889
binding	-11.7892
▁jacket	-11.7892
rap	-11.7894
▁extracellular	-11.7895
▁납품	-11.7895
▁태양광	-11.7895
▁자격증	-11.7897
uc	-11.7899
▁arts	-11.7899
▁Nelson	-11.79
Ad	-11.79
▁쳐	-11.7901
▁Rio	-11.7902
▁ER	-11.7905
▁Pope	-11.7905
▁(@	-11.7906
▁재능	-11.7909
SH	-11.791
human	-11.7913
▁상품권	-11.7913
▁bind	-11.7914
▁mate	-11.7915
sten	-11.7917
▁projection	-11.7917
▁Bat	-11.7918
▁불량	-11.7919
▁GB	-11.792
의약품	-11.792
▁오랫	-11.792
▁김태	-11.7921
▁withdrawal	-11.7923
▁clearance	-11.7923
▁이혼	-11.7924
▁츠	-11.7925
▁동계	-11.7926
▁reject	-11.7928
▁kingdom	-11.7929
▁건축물	-11.7929
▁visits	-11.793
▁warned	-11.7931
▁disagree	-11.7936
레스	-11.7936
▁고소	-11.7936
▁톱	-11.7938
▁tag	-11.794
▁likelihood	-11.7941
fu	-11.7941
▁harder	-11.7942
derived	-11.7944
▁om	-11.7944
▁weekly	-11.7944
▁writers	-11.7944
▁inches	-11.7946
▁citizen	-11.7946
▁인터	-11.7947
な	-11.7948
▁런	-11.7949
▁poorly	-11.7949
▁늘어날	-11.7949
▁실망	-11.7951
▁Small	-11.7952
▁Comp	-11.7957
▁trading	-11.7958
▁공통	-11.796
▁사무총장	-11.7962
eller	-11.7962
▁공업	-11.7965
▁Stadium	-11.7966
▁Agent	-11.7967
오프라인	-11.7967
UL	-11.7969
▁Lor	-11.797
▁cameras	-11.7971
▁떠오	-11.7971
▁golden	-11.7973
▁sink	-11.7973
igan	-11.7974
▁enormous	-11.7974
▁scenes	-11.7975
Bu	-11.7977
round	-11.7977
▁Matthew	-11.7977
▁reaches	-11.7978
▁면제	-11.7982
▁investigator	-11.7983
▁Hay	-11.7985
fire	-11.7985
▁타인	-11.7986
▁맞서	-11.7987
▁wins	-11.7988
Hmm	-11.7988
▁vulnerable	-11.7991
▁Wind	-11.7994
▁protocols	-11.7994
▁pushing	-11.7995
▁수소	-11.7996
▁phases	-11.7996
▁Mill	-11.7996
▁partly	-11.7997
▁placebo	-11.7997
▁Lawrence	-11.7997
▁ab	-11.7998
▁butter	-11.7999
▁Gal	-11.8
Was	-11.8001
▁noble	-11.8001
itt	-11.8001
rum	-11.8003
▁stairs	-11.8004
Mm	-11.8006
ult	-11.8006
▁advised	-11.8007
▁infant	-11.8009
▁도모	-11.801
▁spine	-11.801
▁accessible	-11.801
▁railroad	-11.8012
▁exhibits	-11.8013
▁virtually	-11.8016
▁가리	-11.8017
▁toner	-11.8017
▁대법원	-11.8018
▁렌	-11.8019
랄	-11.8019
▁급속	-11.8019
nit	-11.802
sson	-11.802
▁swear	-11.802
▁Dark	-11.8022
▁일찍	-11.8023
▁sees	-11.8024
▁마주	-11.8025
▁pace	-11.8025
nk	-11.8027
며	-11.8029
시아	-11.803
control	-11.803
▁macro	-11.803
▁remedy	-11.8033
▁Junior	-11.8034
▁swing	-11.8035
▁Kal	-11.8035
▁확신	-11.8035
▁shopping	-11.8036
▁arguing	-11.8038
▁스위스	-11.8038
▁은퇴	-11.8038
왜곡	-11.8038
▁보강	-11.8041
▁favour	-11.8043
▁Mat	-11.8044
▁뼈	-11.8044
▁Examples	-11.8046
▁paragraph	-11.8046
▁knees	-11.8047
▁None	-11.8047
▁Guard	-11.805
▁purified	-11.805
▁음반	-11.8051
▁renamed	-11.8051
dem	-11.8052
슈	-11.8055
▁Hunt	-11.8057
▁react	-11.8058
_{\	-11.8058
입구	-11.8058
▁hiding	-11.8059
▁perception	-11.806
▁restrictions	-11.806
국비	-11.8065
▁차기	-11.8066
▁진학	-11.8067
date	-11.8067
카드	-11.8067
▁registration	-11.8067
▁har	-11.8067
lag	-11.8068
▁translated	-11.8069
▁discharged	-11.807
で	-11.8072
지원금	-11.8073
▁Gary	-11.8075
▁Rick	-11.8075
▁Village	-11.8076
▁Insurance	-11.8076
▁Campbell	-11.8076
▁orange	-11.808
tron	-11.8081
텔	-11.8083
▁offset	-11.8084
▁강점	-11.8085
▁Neuro	-11.8085
▁CE	-11.8089
lia	-11.8089
AV	-11.8091
stan	-11.8091
▁한국어	-11.8091
▁pepper	-11.8097
▁concepts	-11.81
▁intervals	-11.81
▁click	-11.8102
▁Wild	-11.8102
uf	-11.8102
▁Oil	-11.8102
▁범행	-11.8102
▁성실	-11.8103
eus	-11.8103
육	-11.8104
▁Parker	-11.8105
▁성남	-11.8109
켓	-11.8109
▁crying	-11.8109
▁Pra	-11.8109
▁으려	-11.811
▁dating	-11.8113
▁retain	-11.8113
Actually	-11.8114
▁intestinal	-11.8114
▁Oct	-11.8114
▁performances	-11.8117
▁asleep	-11.8117
arm	-11.8118
▁robbery	-11.8119
code	-11.8122
ional	-11.8122
▁Spirit	-11.8125
▁탄력	-11.8125
▁bonding	-11.8126
▁Mun	-11.8128
$^{	-11.8129
▁antigens	-11.8129
▁mineral	-11.8132
▁불가	-11.8133
▁fluorescent	-11.8135
cum	-11.8135
▁ceremony	-11.8139
lus	-11.8141
▁주석	-11.8141
▁치유	-11.8142
▁PCR	-11.8144
▁전산	-11.8146
▁순서	-11.8148
bri	-11.8148
▁fragments	-11.8148
▁undergoing	-11.8149
▁목록	-11.815
▁pig	-11.8151
▁painter	-11.8152
Call	-11.8153
▁이렇	-11.8154
▁공익	-11.8154
MB	-11.8155
▁membership	-11.8156
둥	-11.8158
▁〉	-11.8158
▁황금	-11.8159
cht	-11.8159
▁발간	-11.8161
▁견해	-11.8162
▁정해	-11.8163
▁Watch	-11.8163
▁st	-11.8163
▁Sound	-11.8167
▁promoting	-11.8168
thio	-11.8169
▁gastric	-11.817
▁철거	-11.8172
erson	-11.8173
▁Def	-11.8174
▁Policy	-11.8174
een	-11.8175
▁빠진	-11.8175
Dad	-11.8176
▁Hard	-11.8177
TR	-11.8177
mine	-11.8178
▁Charlotte	-11.8179
▁Cre	-11.818
igh	-11.8181
main	-11.8181
▁advertising	-11.8182
▁revenue	-11.8184
▁자발	-11.8184
▁hosted	-11.8185
far	-11.8185
+)	-11.8186
▁에어	-11.8187
▁Ward	-11.8188
▁Counsel	-11.819
▁티켓	-11.8191
▁knock	-11.8191
YOU	-11.8192
▁항만	-11.8194
▁accommodate	-11.8194
▁Harvard	-11.8195
▁mountains	-11.8197
lat	-11.8197
▁Ry	-11.8198
▁transmitter	-11.8198
▁shower	-11.82
▁unlikely	-11.8201
▁거점	-11.8201
▁좌우	-11.8202
sectional	-11.8203
▁Native	-11.8206
▁lovely	-11.8206
speed	-11.8207
▁Tech	-11.8208
▁빌딩	-11.8208
▁lu	-11.8209
▁Laid	-11.821
▁재고	-11.821
▁걸음	-11.8212
▁complaints	-11.8212
▁agricultural	-11.8212
▁abnormalities	-11.8213
iso	-11.8214
person	-11.8215
▁conductor	-11.8215
▁강경	-11.8216
▁residential	-11.8217
▁밝혀졌	-11.8217
▁장사	-11.8217
▁낮추	-11.8218
▁HA	-11.8222
▁physicians	-11.8223
▁cabinet	-11.8223
ars	-11.8225
▁chromatography	-11.8225
▁poetry	-11.8226
▁Regional	-11.8226
▁Angel	-11.8227
game	-11.8228
▁psycho	-11.8228
▁finance	-11.8228
▁치매	-11.8229
▁일치	-11.8229
▁사로잡	-11.823
▁세워	-11.823
▁Hart	-11.8231
▁지혜	-11.8231
inal	-11.8231
▁남겨	-11.8232
▁터치	-11.8232
AN	-11.8234
hl	-11.8235
▁marrow	-11.8235
▁transistors	-11.8239
+/-	-11.8239
graph	-11.8241
▁침대	-11.8241
▁보낸	-11.8242
ego	-11.8243
ridge	-11.8243
▁Hy	-11.8243
para	-11.8245
▁forum	-11.8245
▁bunch	-11.8247
리스크	-11.8248
▁metallic	-11.8249
UM	-11.8249
oke	-11.8249
▁tort	-11.8253
▁holder	-11.8255
▁restored	-11.8256
▁Sy	-11.8256
▁stake	-11.8256
arch	-11.8256
▁mining	-11.8257
▁이게	-11.8258
▁간편	-11.8259
▁ᄒᄒ	-11.826
▁미소	-11.826
▁grain	-11.8261
▁wheels	-11.8262
▁항공기	-11.8262
▁조세	-11.8264
▁특유	-11.8266
▁Systems	-11.8267
▁일선	-11.8267
▁Gil	-11.8268
▁colleagues	-11.8269
▁합류	-11.827
▁닷컴	-11.827
▁조만	-11.8272
▁robust	-11.8272
▁av	-11.8272
▁arrangements	-11.8278
UC	-11.8279
▁보일	-11.8279
▁주류	-11.828
▁진심	-11.8281
lly	-11.8281
▁Jon	-11.8283
▁Sometimes	-11.8284
IG	-11.8285
몬	-11.8285
▁chloride	-11.8285
▁eligible	-11.8286
▁traveling	-11.8286
▁persistent	-11.8286
▁흑자	-11.8286
▁Johnny	-11.8288
▁controversial	-11.829
▁balls	-11.8291
▁Mah	-11.8292
▁커버	-11.8295
▁blocking	-11.8296
rant	-11.8297
▁막대	-11.8297
▁tin	-11.8297
▁Current	-11.8297
▁독도	-11.8297
▁Fall	-11.8297
▁변하	-11.8298
▁샵	-11.8298
▁investigating	-11.8299
AB	-11.8299
▁infusion	-11.8299
hin	-11.8303
▁Sim	-11.8305
▁Kin	-11.8307
▁떡	-11.8307
®	-11.8307
▁painted	-11.8311
▁Sin	-11.8313
▁편입	-11.8314
MG	-11.8315
▁간다	-11.8316
▁brake	-11.8318
▁군인	-11.8318
Fine	-11.8318
▁pole	-11.8318
ings	-11.8319
ş	-11.832
▁leaf	-11.832
▁Sanders	-11.8321
▁Express	-11.8323
▁fake	-11.8324
▁코치	-11.8324
▁ought	-11.8325
TL	-11.8325
▁지인	-11.8326
▁인쇄	-11.8328
▁분할	-11.833
▁옮	-11.8331
▁CL	-11.8332
▁prescribed	-11.8332
▁변신	-11.8332
▁포스	-11.8333
than	-11.8335
imp	-11.8336
▁lowered	-11.8337
▁진영	-11.8339
etta	-11.8339
▁acquire	-11.8341
▁diagram	-11.8342
▁CNN	-11.8343
Stay	-11.8343
EST	-11.8344
여금	-11.8345
ges	-11.8346
risk	-11.8346
▁prop	-11.8348
▁municipal	-11.835
▁presenting	-11.835
▁download	-11.835
▁잠재	-11.835
▁pediatric	-11.8351
scribe	-11.8351
▁Gallery	-11.8355
▁Seven	-11.8356
▁glanced	-11.8356
▁wash	-11.8358
▁evident	-11.8359
▁procedural	-11.836
gent	-11.8365
▁thread	-11.8367
께	-11.8368
▁한미	-11.8368
▁pile	-11.8368
▁출석	-11.8368
▁prisoner	-11.8369
FT	-11.837
▁손님	-11.8371
▁좋아	-11.8373
자재	-11.8373
▁Gun	-11.8374
▁연예인	-11.8374
wed	-11.8376
▁roots	-11.8377
▁Motor	-11.838
awn	-11.8384
Whoa	-11.8388
▁위로	-11.8388
▁Victor	-11.8388
▁Pass	-11.8389
▁encounter	-11.839
▁tooth	-11.8391
cc	-11.8391
▁blast	-11.8391
▁cement	-11.8393
▁CPU	-11.8393
▁가중	-11.8394
pri	-11.8395
い	-11.8395
관행	-11.8395
▁원고	-11.8395
▁몽	-11.8398
▁downstream	-11.8401
▁bases	-11.8401
▁queen	-11.8402
▁districts	-11.8403
▁원가	-11.8404
▁구요	-11.8406
▁lymph	-11.8406
▁귀하	-11.8406
▁writes	-11.8408
etti	-11.8408
▁여수	-11.8408
▁catalytic	-11.841
▁도청	-11.8411
▁튀	-11.8412
▁parish	-11.8412
GC	-11.8412
▁화성	-11.8416
vant	-11.8417
▁mapping	-11.8419
num	-11.842
▁cancers	-11.8421
▁satisfaction	-11.8421
▁dam	-11.8423
▁ethanol	-11.8424
▁inherent	-11.8425
▁Carr	-11.8427
▁genomic	-11.8427
▁든다	-11.8432
▁och	-11.8432
▁hepatic	-11.8433
▁Cam	-11.8433
▁immigration	-11.8434
▁staring	-11.8434
metric	-11.8435
▁AL	-11.8436
Har	-11.8437
▁acknowledged	-11.8438
비정규직	-11.8438
▁arc	-11.8439
▁흐	-11.844
▁스튜디오	-11.8443
▁confusion	-11.8443
▁Ros	-11.8443
▁Marshall	-11.8447
ا	-11.8447
뇌	-11.8448
▁explains	-11.8448
(+)	-11.845
▁Karl	-11.8451
▁차장	-11.8452
▁juvenile	-11.8452
▁Organization	-11.8452
곤	-11.8453
▁개장	-11.8454
▁distinguished	-11.8455
▁비핵화	-11.8456
▁사물	-11.8456
▁describing	-11.8457
▁Hunter	-11.8458
▁아닐	-11.8458
IE	-11.8459
▁절실	-11.8461
▁터키	-11.8462
▁Region	-11.8463
정작	-11.8464
▁자민	-11.8464
▁atom	-11.8464
▁힐	-11.8465
▁동화	-11.8466
mun	-11.8466
▁기울이	-11.8466
▁sessions	-11.8467
▁fragment	-11.8468
▁switched	-11.8468
^{	-11.8468
▁Date	-11.8468
▁waiver	-11.8469
▁Cur	-11.847
▁dietary	-11.8471
▁claimant	-11.8474
MM	-11.8474
▁부시	-11.8475
▁심한	-11.8476
▁novo	-11.8476
▁단백	-11.8477
▁acceptance	-11.8479
▁mal	-11.848
▁Gro	-11.848
bas	-11.8481
▁Nov	-11.8486
종사자	-11.8486
▁steal	-11.8486
▁Commander	-11.8487
gr	-11.8487
▁letting	-11.8487
▁lesion	-11.8488
▁restore	-11.8488
ERS	-11.8489
▁rhythm	-11.8489
▁managing	-11.849
▁inhibitory	-11.849
생활	-11.849
▁invasive	-11.849
▁Cape	-11.8491
▁그려	-11.8491
char	-11.8492
▁야간	-11.8494
ket	-11.8494
ast	-11.8496
GE	-11.8497
▁comp	-11.8498
▁desert	-11.8499
▁tries	-11.8499
▁comprised	-11.85
▁rid	-11.8501
▁occasionally	-11.8504
Welcome	-11.8505
▁imprisonment	-11.8505
Isn	-11.8507
▁accomplish	-11.8507
▁Gr	-11.8508
▁electromagnetic	-11.8509
▁flesh	-11.8509
▁이건	-11.8512
▁Access	-11.8512
▁Jonathan	-11.8514
▁margin	-11.8514
▁guards	-11.8515
▁codes	-11.8515
▁Nothing	-11.8519
▁뷰	-11.852
los	-11.852
▁요양	-11.8521
▁겨냥	-11.8522
▁exciting	-11.8523
bat	-11.8523
▁엘리	-11.8526
▁비타민	-11.8527
▁SR	-11.8529
▁publicly	-11.8529
▁상실	-11.8529
▁wings	-11.8529
▁역전	-11.8529
▁tear	-11.8531
tas	-11.8532
▁김정은	-11.8532
▁heated	-11.8534
bla	-11.8534
mission	-11.8535
CN	-11.8536
▁YouTube	-11.8536
rated	-11.8536
▁riding	-11.8537
▁prolonged	-11.8539
▁가방	-11.8539
▁modeling	-11.8541
▁focuses	-11.8542
짓	-11.8543
▁visitors	-11.8543
▁Kor	-11.8544
▁Capital	-11.8545
▁coefficient	-11.8545
▁타운	-11.8548
▁cur	-11.8549
igo	-11.8549
▁injected	-11.855
▁욕구	-11.8553
sized	-11.8557
▁군대	-11.8557
▁Monte	-11.8557
▁jumped	-11.8558
west	-11.8558
▁cuts	-11.8559
▁똑같	-11.8559
hab	-11.8559
▁shame	-11.8562
▁재학	-11.8562
▁associations	-11.8562
▁Arm	-11.8562
▁김대중	-11.8563
렵	-11.8563
▁healthcare	-11.8563
▁matching	-11.8563
▁View	-11.8566
륜	-11.8566
▁simulation	-11.8567
▁Hor	-11.8576
▁흘러	-11.8577
▁hits	-11.8577
▁종시	-11.8577
맛	-11.8578
잔	-11.8579
vor	-11.8579
▁행진	-11.8581
▁내외	-11.8581
▁statistics	-11.8581
▁documentary	-11.8582
▁용지	-11.8582
▁circulation	-11.8585
▁slave	-11.8585
▁transformed	-11.8586
NS	-11.8586
소리	-11.8588
▁Detroit	-11.8589
▁Evidence	-11.8589
▁owe	-11.8589
▁ages	-11.859
▁meters	-11.859
logical	-11.859
▁dye	-11.8591
mean	-11.8592
▁새해	-11.8592
▁이종	-11.8594
▁shots	-11.8595
▁interpreted	-11.8596
▁Independent	-11.8596
▁worship	-11.8598
HD	-11.8598
▁반려	-11.8599
KA	-11.86
▁페이	-11.86
▁상하	-11.8601
▁collateral	-11.8603
IVE	-11.8603
Sa	-11.8603
tens	-11.8603
▁영웅	-11.8603
▁땀	-11.8605
▁consistently	-11.8605
hard	-11.8605
▁susceptibility	-11.8607
▁생긴	-11.8608
grade	-11.8608
hem	-11.861
▁competing	-11.8611
단점	-11.8613
▁boost	-11.8613
▁retail	-11.8614
elo	-11.8618
rup	-11.8619
▁Daily	-11.8619
▁Gri	-11.862
통증	-11.8621
▁싱글	-11.8621
▁documented	-11.8621
has	-11.8622
낼	-11.8622
▁regulating	-11.8622
▁테크	-11.8623
▁헤드	-11.8623
▁constitutes	-11.8623
▁중독	-11.8625
▁Bri	-11.8626
▁드린다	-11.8627
tom	-11.8628
▁explosion	-11.8629
▁bastard	-11.8629
▁큐	-11.8631
▁실습	-11.8631
got	-11.8631
▁정통	-11.8632
▁sal	-11.8633
▁recurrence	-11.8634
▁venture	-11.8634
▁shifted	-11.8636
▁hub	-11.8638
tech	-11.864
▁는다면	-11.8641
▁bones	-11.8641
active	-11.8643
▁passion	-11.8644
▁패배	-11.8644
▁익산	-11.8645
▁WL	-11.8647
▁og	-11.8647
▁patrol	-11.8647
▁interfere	-11.8648
▁아프	-11.8649
▁선교	-11.8649
▁modify	-11.8652
▁excluded	-11.8652
▁Sol	-11.8654
섬	-11.8655
я	-11.8656
▁wondering	-11.8656
General	-11.8657
▁권위	-11.8657
▁basically	-11.866
▁shaped	-11.866
▁리라	-11.866
▁줄어든	-11.8661
▁Communist	-11.8661
▁공중	-11.8663
큐	-11.8663
스터	-11.8663
▁cargo	-11.8663
▁Common	-11.8664
▁Supp	-11.8664
▁outlet	-11.8665
ske	-11.8665
▁($	-11.8666
▁상용	-11.8666
▁모자	-11.8667
▁thyroid	-11.8667
▁곽	-11.8668
▁rape	-11.8669
▁poverty	-11.867
▁morbidity	-11.867
▁해군	-11.8672
▁평범	-11.8672
▁그랬	-11.8672
frame	-11.8673
▁BA	-11.8674
▁엄청	-11.8675
경영자	-11.8676
▁종종	-11.8676
▁occupation	-11.8678
▁bladder	-11.8679
▁lesser	-11.8679
▁boundaries	-11.8679
▁시상식	-11.868
ific	-11.8682
▁자제	-11.8683
▁모형	-11.8685
▁finishing	-11.8685
▁bags	-11.8686
▁외면	-11.8689
FS	-11.8689
idine	-11.8689
▁출원	-11.8689
▁saving	-11.869
▁judges	-11.8691
▁Figure	-11.8691
▁김진	-11.8691
eli	-11.8692
▁거든요	-11.8692
BR	-11.8693
kill	-11.8694
UN	-11.8695
▁Kam	-11.8697
gh	-11.8699
▁fatal	-11.87
킨	-11.8701
▁triple	-11.8701
▁clutch	-11.8701
▁Chem	-11.8702
▁젠	-11.8702
▁passive	-11.8703
rr	-11.8703
▁TF	-11.8703
▁가난	-11.8704
Fi	-11.8704
▁bis	-11.8708
▁메이	-11.8708
▁보편	-11.8709
▁chemistry	-11.8711
▁CBS	-11.8711
▁habit	-11.8711
▁climb	-11.8712
cru	-11.8712
▁preserved	-11.8713
▁끼리	-11.8713
▁충실	-11.8716
▁필터	-11.8717
▁THAT	-11.8719
▁urinary	-11.8719
▁Fan	-11.872
▁Nature	-11.8721
▁쏟아	-11.8721
▁Besides	-11.8722
▁신부	-11.8723
▁waters	-11.8723
▁그래픽	-11.8724
묘	-11.8725
▁insert	-11.8726
▁소위	-11.8726
▁privilege	-11.8726
ering	-11.8728
▁공모전	-11.8728
▁서양	-11.8728
▁Ukraine	-11.8729
▁automated	-11.8729
▁드러냈	-11.8729
▁흐르	-11.8729
▁reign	-11.8732
verse	-11.8733
▁wrist	-11.8733
▁락	-11.8734
▁gut	-11.8735
▁대립	-11.8735
▁공산	-11.8737
▁algorithms	-11.8737
▁동맹	-11.8738
▁cha	-11.8739
▁figured	-11.874
▁reply	-11.874
▁arch	-11.874
▁Spring	-11.8741
rov	-11.8741
▁Manchester	-11.8742
only	-11.8744
▁SH	-11.8744
▁절약	-11.8746
uh	-11.8749
wave	-11.875
EN	-11.8751
▁deputy	-11.8751
▁basal	-11.8753
▁rope	-11.8754
▁ter	-11.8754
▁화이트	-11.8756
SF	-11.8756
▁에겐	-11.8759
▁unnecessary	-11.876
▁decay	-11.8761
▁느라	-11.8761
▁testify	-11.8761
vir	-11.8763
▁틱	-11.8766
▁설득	-11.8769
ended	-11.877
▁differently	-11.8772
▁posterior	-11.8773
▁귀국	-11.8773
▁adequately	-11.8775
▁frames	-11.8776
cate	-11.8777
▁publications	-11.8777
▁employing	-11.8778
bridge	-11.8778
▁defence	-11.8779
▁Various	-11.8779
▁proceeds	-11.878
▁DM	-11.8782
ered	-11.8784
▁시계	-11.8785
▁appellee	-11.8787
▁synthesized	-11.8787
▁dramatic	-11.8788
▁photographs	-11.8788
ille	-11.8791
▁hetero	-11.8791
▁piston	-11.8792
▁wiring	-11.8792
▁villages	-11.8793
판매량	-11.8793
▁김용	-11.8795
▁wider	-11.8796
▁Helen	-11.8798
▁peer	-11.8798
▁중반	-11.8799
▁pi	-11.8799
▁finite	-11.88
짐	-11.8801
▁Rat	-11.8807
▁달한다	-11.8808
▁PE	-11.8808
nc	-11.8809
cker	-11.881
▁Mitchell	-11.881
▁옳	-11.881
▁asthma	-11.8811
▁logical	-11.8811
평균	-11.8812
▁민생	-11.8812
adi	-11.8813
▁Grace	-11.8813
▁암호	-11.8815
▁auf	-11.8815
▁가끔	-11.8815
▁fr	-11.8815
▁juice	-11.8815
▁insights	-11.8816
▁ignored	-11.8816
▁spray	-11.8819
능	-11.8819
▁choices	-11.8821
nom	-11.8821
uli	-11.8822
▁가사	-11.8823
nell	-11.8824
▁updated	-11.8824
▁Seattle	-11.8824
▁provider	-11.8827
▁thrown	-11.8827
▁tubes	-11.8829
▁positioning	-11.8831
▁shore	-11.8832
▁브리핑	-11.8833
▁readers	-11.8834
▁全	-11.8834
▁법령	-11.8835
▁organs	-11.8835
ür	-11.8835
thy	-11.8836
▁Saudi	-11.8836
NE	-11.8837
▁보여준다	-11.8838
▁§§	-11.8838
ET	-11.8841
▁Stan	-11.8841
Out	-11.8843
▁keeps	-11.8845
nen	-11.8845
▁트랙	-11.8845
▁guests	-11.8845
self	-11.8845
▁chromosome	-11.8846
ake	-11.8847
▁댄스	-11.8848
엘	-11.8849
▁베이스	-11.885
▁Reserve	-11.8851
▁SU	-11.8853
▁cor	-11.8853
▁earn	-11.8853
▁laughing	-11.8855
ctic	-11.8855
▁웨이	-11.8855
▁Zi	-11.8856
▁Conservative	-11.8856
▁젖	-11.8857
▁deeper	-11.8858
Love	-11.8859
they	-11.8861
▁Off	-11.8863
▁Norman	-11.8864
cept	-11.8864
아끼	-11.8865
입국	-11.8865
▁gravity	-11.8867
랜드	-11.8867
▁Tam	-11.8868
Mom	-11.8868
ume	-11.8868
▁manufacturer	-11.8869
link	-11.887
.**	-11.887
▁literary	-11.887
마디	-11.8871
▁convention	-11.8872
▁helpful	-11.8872
▁운명	-11.8872
second	-11.8872
▁표창	-11.8873
뒷받침	-11.8874
▁Trial	-11.8875
팔	-11.8876
▁routes	-11.8877
▁pur	-11.8878
▁fence	-11.8879
▁constituted	-11.8879
▁사라	-11.888
duc	-11.888
▁학부	-11.8881
▁CB	-11.8881
▁matched	-11.8882
▁사이즈	-11.8883
uda	-11.8883
▁Mars	-11.8883
▁drag	-11.8885
▁ladies	-11.8885
▁quietly	-11.8886
▁implant	-11.8887
▁Bus	-11.8887
▁sh	-11.8887
▁reviewing	-11.8887
▁tends	-11.8888
▁injunction	-11.8889
mie	-11.8891
▁flood	-11.8894
혼	-11.8894
▁calculations	-11.8894
▁videos	-11.8895
ils	-11.8896
ogenesis	-11.8896
▁낚시	-11.8897
▁opposing	-11.8898
▁Gray	-11.8898
혹	-11.89
▁Tower	-11.89
▁어찌	-11.8902
▁중도	-11.8903
▁Kir	-11.8903
▁파이	-11.8904
▁하위	-11.8904
▁beating	-11.8905
▁statutes	-11.8905
chin	-11.8907
amo	-11.8907
▁유저	-11.8908
ink	-11.8909
▁buying	-11.8909
▁Season	-11.8909
ced	-11.8911
▁improper	-11.8911
▁computational	-11.8911
▁Ky	-11.8911
▁wrapped	-11.8911
emic	-11.8911
Everybody	-11.8912
▁돌아오	-11.8913
▁력	-11.8918
▁visiting	-11.8918
▁rush	-11.8919
▁상자	-11.892
▁비례	-11.892
▁NBA	-11.8922
▁선거구	-11.8923
▁fur	-11.8923
▁Mich	-11.8923
real	-11.8925
▁떠올	-11.8925
▁확률	-11.8925
▁comic	-11.8927
▁고개	-11.8927
ο	-11.8928
▁cultured	-11.8928
blo	-11.8929
▁dirty	-11.8929
▁밀려	-11.8929
▁Puerto	-11.893
▁고서	-11.8933
AU	-11.8934
▁convictions	-11.8936
▁extracted	-11.8936
▁sealing	-11.8938
▁creature	-11.8939
▁pseudo	-11.8939
▁비행기	-11.8944
▁매월	-11.8945
▁역임	-11.8947
hip	-11.8948
▁Greece	-11.8948
▁han	-11.8949
▁Wil	-11.895
▁경관	-11.8951
▁render	-11.8952
▁engaging	-11.8953
숙소	-11.8953
▁진상	-11.8954
▁김경	-11.8954
▁펴	-11.8954
gro	-11.8955
phy	-11.8956
▁developer	-11.8956
▁talks	-11.8958
▁Form	-11.8958
▁Pl	-11.8958
▁pointing	-11.8962
▁FIFA	-11.8962
▁Support	-11.8962
▁tire	-11.8963
▁lists	-11.8964
▁Lane	-11.8964
▁VA	-11.8964
▁Cole	-11.8965
▁출자	-11.8966
▁abortion	-11.8967
▁Ob	-11.8967
pu	-11.8968
iii	-11.8968
▁탈락	-11.8969
▁MT	-11.8969
sley	-11.8969
▁Magazine	-11.8971
}\	-11.8973
▁도중	-11.8973
rink	-11.8975
▁다이	-11.8976
say	-11.8977
▁Evans	-11.8977
NR	-11.8978
▁combinations	-11.8978
▁operative	-11.8979
▁pharmaceutical	-11.8979
cycl	-11.898
▁assertion	-11.898
▁Collins	-11.8981
▁canal	-11.8982
나치	-11.8982
▁구나	-11.8984
MI	-11.8985
▁치르	-11.8985
▁농도	-11.8985
▁exclusion	-11.8986
▁무관	-11.8986
▁수상자	-11.8986
▁넘겨	-11.8986
▁여파	-11.8991
▁funded	-11.8993
▁HO	-11.8993
▁spectra	-11.8996
▁justify	-11.8996
з	-11.8996
▁홀로	-11.8998
▁촉	-11.8999
▁cab	-11.8999
▁사후	-11.9
PCR	-11.9
▁tr	-11.9
▁viewing	-11.9
▁threats	-11.9001
▁combine	-11.9002
리스트	-11.9002
▁flowing	-11.9003
▁cycles	-11.9004
yu	-11.9006
SR	-11.9006
▁자국	-11.9008
▁윈	-11.9011
ρ	-11.9011
ester	-11.9011
▁나타난	-11.9011
▁hollow	-11.9013
▁signing	-11.9014
▁Zo	-11.9015
▁stent	-11.9016
▁그만	-11.9017
▁인연	-11.9017
홀	-11.9017
▁늘려	-11.9018
▁suspicion	-11.9018
▁Technical	-11.9018
▁재정부	-11.902
▁horror	-11.9023
▁멀티	-11.9023
West	-11.9024
▁Baltimore	-11.9027
IST	-11.9029
minute	-11.9029
ines	-11.9031
▁Singapore	-11.9032
▁hungry	-11.9033
밥	-11.9034
우스	-11.9036
Up	-11.9038
operative	-11.904
▁Look	-11.9041
산업	-11.9041
▁Mus	-11.9041
left	-11.9042
▁displacement	-11.9042
▁Currently	-11.9042
▁ratios	-11.9044
▁assembled	-11.9045
FC	-11.9046
▁spectroscopy	-11.9046
ン	-11.9046
Ne	-11.9048
▁Tro	-11.9049
▁tetra	-11.9049
pit	-11.9053
▁플레이어	-11.9054
▁Por	-11.9054
▁허리	-11.9055
▁recommendations	-11.9055
▁resort	-11.9056
▁clinic	-11.9057
resistant	-11.9057
▁funeral	-11.906
▁mammalian	-11.906
▁cam	-11.9062
HF	-11.9062
▁localization	-11.9063
▁Treatment	-11.9065
▁Jerry	-11.9065
▁ATP	-11.9065
▁anchor	-11.9066
FL	-11.9067
▁crown	-11.9068
▁sweat	-11.9068
끄	-11.9069
▁Dev	-11.9069
볍	-11.9069
▁premises	-11.907
▁formerly	-11.9073
롭	-11.9074
▁Math	-11.9074
▁Bernard	-11.9074
▁띠	-11.9077
▁패스	-11.9077
▁ICT	-11.9077
▁구제	-11.9079
ī	-11.9083
▁unfair	-11.9084
▁referring	-11.9084
Every	-11.9086
bell	-11.9087
▁수당	-11.9087
▁참사	-11.9089
▁pink	-11.909
▁예배	-11.9093
州	-11.9093
▁비하	-11.9094
ière	-11.9094
▁monthly	-11.9094
▁Him	-11.9095
▁뒤집	-11.9095
▁stops	-11.9096
Anyway	-11.9096
▁speaker	-11.9098
▁Training	-11.9099
▁influences	-11.9099
▁limb	-11.91
▁disadvantages	-11.91
▁bite	-11.91
▁instructed	-11.9101
▁소문	-11.9101
▁für	-11.9103
▁retention	-11.9103
▁Andy	-11.9104
pl	-11.9106
▁마산	-11.9106
▁ultrasound	-11.9107
wal	-11.911
▁trunk	-11.9112
▁bin	-11.9112
miss	-11.9113
body	-11.9113
아버지	-11.9114
▁encouraged	-11.9115
hm	-11.9116
berry	-11.9117
▁움	-11.9117
="	-11.9118
▁Judges	-11.9118
▁문장	-11.9119
▁carries	-11.9119
▁오피스	-11.9119
RL	-11.9121
▁커플	-11.9122
▁literally	-11.9122
▁Iron	-11.9123
oe	-11.9123
▁cache	-11.9124
▁Alfred	-11.9124
▁tobacco	-11.9126
▁murdered	-11.9126
릿	-11.9127
LM	-11.9127
웨어	-11.9128
▁viruses	-11.9129
▁bare	-11.9129
propyl	-11.913
▁운항	-11.9131
▁Dep	-11.9133
▁모범	-11.9135
onia	-11.9135
▁bent	-11.9138
▁march	-11.9138
TX	-11.9139
멸	-11.9141
п	-11.9142
▁유망	-11.9142
к	-11.9144
▁demonstrates	-11.9144
▁기판	-11.9146
ean	-11.9147
GS	-11.9147
▁explored	-11.9147
▁Danny	-11.9147
hon	-11.9148
▁spontaneous	-11.9149
▁봅니다	-11.9149
sal	-11.9152
RY	-11.9152
▁고대	-11.9153
▁TNF	-11.9159
hara	-11.9159
▁Susan	-11.916
▁김기	-11.9161
cm	-11.9161
▁원유	-11.9161
▁동아리	-11.9161
▁할까	-11.9162
▁박지	-11.9163
shot	-11.9163
ente	-11.9164
▁specialized	-11.9164
▁frozen	-11.9164
▁신발	-11.9164
▁혈액	-11.9165
▁bishop	-11.9168
Per	-11.9169
▁활력	-11.917
mod	-11.9172
▁Dallas	-11.9172
▁Number	-11.9173
č	-11.9173
ttle	-11.9174
▁cheap	-11.9174
HI	-11.9175
rine	-11.9175
▁defining	-11.9177
ying	-11.9178
▁earliest	-11.9178
▁emissions	-11.918
Those	-11.9182
▁hockey	-11.9182
▁entertainment	-11.9183
ès	-11.9184
▁CIA	-11.9184
track	-11.9187
▁펼쳤	-11.9187
▁successor	-11.9188
▁elastic	-11.919
ij	-11.919
▁supporters	-11.9191
▁shield	-11.9192
▁thermo	-11.9192
▁바르	-11.9192
▁packaging	-11.9192
▁consist	-11.9192
▁gases	-11.9194
▁ᅲᅲ	-11.9194
nate	-11.9195
▁이념	-11.9195
▁Wolf	-11.9196
▁nest	-11.9197
▁enrolled	-11.9199
▁Gulf	-11.9199
▁forgotten	-11.9202
▁가로	-11.9202
three	-11.9203
gue	-11.9203
uel	-11.9204
▁합성	-11.9206
▁에어컨	-11.9206
▁Frederick	-11.9207
▁addressing	-11.9207
▁susceptible	-11.9208
▁아닐까	-11.9208
▁volunteers	-11.9212
▁sacrifice	-11.9212
sus	-11.9213
울리	-11.9216
ota	-11.9217
▁dys	-11.9217
▁총무	-11.9217
anna	-11.9217
HU	-11.9218
▁yard	-11.9219
FM	-11.9219
▁tender	-11.922
▁topic	-11.9222
▁전무	-11.9222
▁Franklin	-11.9223
▁Jerusalem	-11.9226
▁predictive	-11.9226
[...]
