<unk>	0
<s>	0
</s>	0
ng	-0
▁t	-1
an	-2
▁क	-3
▁c	-4
▁m	-5
▁s	-6
▁đ	-7
▁ह	-8
▁k	-9
▁b	-10
▁d	-11
្រ	-12
er	-13
▁n	-14
▁p	-15
▁l	-16
▁स	-17
▁म	-18
ak	-19
▁th	-20
ាន	-21
ar	-22
ang	-23
en	-24
▁v	-25
▁h	-26
▁है	-27
at	-28
▁प	-29
al	-30
ah	-31
្ន	-32
ារ	-33
in	-34
▁ch	-35
em	-36
ya	-37
▁ब	-38
▁nh	-39
ें	-40
am	-41
या	-42
ខ្	-43
▁ज	-44
ने	-45
▁g	-46
nh	-47
▁ल	-48
el	-49
ជា	-50
▁के	-51
▁tr	-52
it	-53
▁अ	-54
ार	-55
as	-56
▁kh	-57
ុំ	-58
បាន	-59
្ត	-60
▁त	-61
ik	-62
ការ	-63
eng	-64
▁di	-65
ដែ	-66
▁se	-67
▁r	-68
्र	-69
ប្រ	-70
ឹង	-71
un	-72
ad	-73
uk	-74
▁द	-75
ញុំ	-76
▁व	-77
ខ្ញុំ	-78
▁कर	-79
▁ng	-80
ាក	-81
▁में	-82
▁ph	-83
▁T	-84
ាំ	-85
▁S	-86
ông	-87
▁न	-88
▁y	-89
▁आ	-90
ता	-91
akan	-92
ap	-93
ên	-94
▁K	-95
▁र	-96
▁A	-97
on	-98
▁yang	-99
ស់	-100
ना	-101
▁इ	-102
ប់	-103
▁कि	-104
▁ti	-105
ុង	-106
▁men	-107
ិន	-108
▁là	-109
នៅ	-110
ម្	-111
ដែល	-112
ើយ	-113
is	-114
ों	-115
មាន	-116
ai	-117
▁j	-118
र्	-119
▁C	-120
ិត	-121
▁औ	-122
▁को	-123
ោះ	-124
us	-125
▁và	-126
▁और	-127
▁ber	-128
្វ	-129
▁gi	-130
▁से	-131
kan	-132
▁की	-133
au	-134
េះ	-135
ហើយ	-136
▁च	-137
▁dan	-138
ượ	-139
ាយ	-140
ុន	-141
ैं	-142
ung	-143
▁हो	-144
or	-145
▁có	-146
iệ	-147
ទៅ	-148
ូវ	-149
ទេ	-150
िए	-151
▁इस	-152
ោយ	-153
▁mem	-154
qu	-155
ong	-156
es	-157
្យ	-158
ត្រ	-159
▁per	-160
▁qu	-161
ही	-162
▁ए	-163
្ល	-164
il	-165
्य	-166
▁M	-167
▁मैं	-168
អា	-169
▁हैं	-170
▁उ	-171
nya	-172
ình	-173
▁य	-174
▁x	-175
ते	-176
និ	-177
ing	-178
ាប់	-179
ag	-180
ược	-181
▁भ	-182
ក្រ	-183
ác	-184
ាក់	-185
▁không	-186
ới	-187
▁ग	-188
ពី	-189
▁thì	-190
▁ke	-191
្នក	-192
िक	-193
អ្នក	-194
itu	-195
ay	-196
▁được	-197
्या	-198
▁B	-199
▁sa	-200
ពេ	-201
ada	-202
នេះ	-203
តែ	-204
ត់	-205
▁1	-206
▁का	-207
ul	-208
្នុង	-209
▁P	-210
ថា	-211
▁एक	-212
▁đi	-213
▁(	-214
▁N	-215
ក្នុង	-216
▁ខ្ញុំ	-217
▁जा	-218
ih	-219
▁मु	-220
▁ख	-221
ày	-222
▁2	-223
ur	-224
ស្	-225
et	-226
ួយ	-227
ir	-228
មិន	-229
នឹង	-230
▁đã	-231
स्	-232
▁H	-233
ại	-234
▁ter	-235
ari	-236
រប	-237
ាល	-238
ấy	-239
ដោយ	-240
▁in	-241
engan	-242
▁ប	-243
ើង	-244
ol	-245
ời	-246
per	-247
हा	-248
▁meng	-249
dak	-250
▁पर	-251
हीं	-252
ले	-253
▁ak	-254
ga	-255
ាង	-256
▁akan	-257
▁dengan	-258
िन	-259
ôi	-260
ទី	-261
▁थ	-262
ពេល	-263
ti	-264
गा	-265
▁नहीं	-266
▁तो	-267
▁"	-268
ूँ	-269
क्	-270
▁सा	-271
របស់	-272
ត្រូវ	-273
▁प्र	-274
មួយ	-275
ch	-276
um	-277
ង់	-278
▁củ	-279
▁sẽ	-280
ến	-281
ាំង	-282
▁của	-283
▁मुझ	-284
▁tidak	-285
ết	-286
ất	-287
ải	-288
ញ្	-289
▁फ	-290
ũng	-291
▁អ	-292
និង	-293
▁मुझे	-294
ut	-295
▁D	-296
ek	-297
▁ini	-298
ណា	-299
វា	-300
tuk	-301
▁ạ	-302
▁cũng	-303
ान	-304
▁स्	-305
िल	-306
▁aku	-307
▁भी	-308
▁un	-309
៊ី	-310
ដូ	-311
ित	-312
▁ត	-313
im	-314
ड़	-315
បន	-316
ផ្	-317
ंग	-318
្ង	-319
ồi	-320
िय	-321
eb	-322
▁V	-323
▁như	-324
▁दे	-325
eg	-326
សម	-327
से	-328
▁ले	-329
▁mà	-330
ần	-331
ដែរ	-332
▁untuk	-333
ធ្វ	-334
ូល	-335
ara	-336
ena	-337
ាន់	-338
▁यह	-339
មក	-340
▁និង	-341
ột	-342
uố	-343
ភា	-344
▁'	-345
alau	-346
▁L	-347
ធ្វើ	-348
uy	-349
ដូច	-350
ម្ម	-351
arena	-352
▁J	-353
री	-354
▁cho	-355
ama	-356
▁mình	-357
វិ	-358
ती	-359
ku	-360
ំណ	-361
ाह	-362
▁nên	-363
▁लिए	-364
ង្	-365
▁श	-366
▁आप	-367
▁itu	-368
▁rồi	-369
ាម	-370
ាត់	-371
▁một	-372
ướ	-373
▁हूँ	-374
anh	-375
uga	-376
អាច	-377
▁ហើយ	-378
ाल	-379
ều	-380
ita	-381
៉ុន	-382
▁với	-383
ម៉	-384
▁này	-385
លើ	-386
▁mel	-387
▁क्या	-388
▁तु	-389
ười	-390
▁juga	-391
िया	-392
ល់	-393
▁Ch	-394
ចឹង	-395
▁ស	-396
▁các	-397
anya	-398
▁bi	-399
ud	-400
▁लग	-401
ែន	-402
asi	-403
▁ngh	-404
adi	-405
ក៏	-406
ថ្ង	-407
▁memb	-408
ថ្ងៃ	-409
គ្រ	-410
iên	-411
ខ្ល	-412
ukan	-413
▁đó	-414
▁phải	-415
▁बा	-416
के	-417
▁ने	-418
គេ	-419
▁सम	-420
úng	-421
ua	-422
वा	-423
▁w	-424
ល្	-425
ước	-426
inya	-427
គឺ	-428
▁người	-429
ំព	-430
eo	-431
ây	-432
▁सक	-433
elah	-434
▁vào	-435
da	-436
ស្រ	-437
ậy	-438
▁तुम	-439
សារ	-440
▁हम	-441
ើល	-442
▁seper	-443
▁G	-444
▁bis	-445
▁Đ	-446
च्	-447
▁I	-448
ុម	-449
▁đến	-450
alu	-451
នោះ	-452
ែង	-453
ái	-454
ia	-455
▁cả	-456
▁thể	-457
▁अप	-458
ot	-459
ika	-460
gi	-461
ភាព	-462
▁kita	-463
सा	-464
ận	-465
▁trong	-466
▁पह	-467
មើល	-468
án	-469
ật	-470
ូរ	-471
ឹក	-472
रा	-473
ành	-474
ja	-475
ikan	-476
ân	-477
▁ở	-478
ăn	-479
ana	-480
नी	-481
ក្រុម	-482
▁करने	-483
▁kam	-484
ំន	-485
្ទ	-486
ដើ	-487
ला	-488
▁20	-489
▁ada	-490
▁3	-491
iện	-492
ầu	-493
ếu	-494
ួន	-495
ិច	-496
▁bisa	-497
▁tah	-498
▁ra	-499
▁karena	-500
ोग	-501
ro	-502
▁saya	-503
ep	-504
ាស	-505
▁ट	-506
▁pen	-507
▁seb	-508
យើង	-509
रे	-510
ậu	-511
ào	-512
▁लेक	-513
សេ	-514
ok	-515
ारी	-516
▁beg	-517
▁tôi	-518
▁dari	-519
ुत	-520
▁था	-521
▁ड	-522
សម្រ	-523
គ្ន	-524
▁tớ	-525
च्छ	-526
alah	-527
ob	-528
▁Aku	-529
▁begitu	-530
ែក	-531
ព្រ	-532
▁ba	-533
्ट	-534
id	-535
▁मे	-536
▁នៅ	-537
alam	-538
api	-539
▁बह	-540
ali	-541
लिए	-542
ហ៊	-543
ើន	-544
िर	-545
ain	-546
▁किया	-547
▁अच्छ	-548
▁lại	-549
យ៉	-550
ាញ	-551
បី	-552
ៀត	-553
▁चाह	-554
ản	-555
▁តើ	-556
▁देख	-557
aya	-558
▁Th	-559
▁thế	-560
om	-561
ិត្ត	-562
▁बहुत	-563
▁pada	-564
ực	-565
uh	-566
▁बार	-567
si	-568
ant	-569
▁sek	-570
ចូល	-571
▁सं	-572
▁वि	-573
ល្អ	-574
▁लेकिन	-575
कर	-576
ុក	-577
angan	-578
ក់	-579
▁har	-580
apa	-581
àn	-582
ហ៊ុន	-583
▁साथ	-584
មែន	-585
្ឋ	-586
▁इसलिए	-587
ơn	-588
ឆ្ន	-589
ति	-590
▁nă	-591
ent	-592
ទៀត	-593
▁ក	-594
▁ច	-595
emb	-596
▁रह	-597
aan	-598
▁công	-599
សិន	-600
ùng	-601
क्ष	-602
ườ	-603
ức	-604
នៃ	-605
ត្រូវបាន	-606
up	-607
▁làm	-608
▁nhé	-609
▁ដែល	-610
orang	-611
▁nó	-612
្ធ	-613
▁đấy	-614
ường	-615
ជាមួយ	-616
ằng	-617
कि	-618
्ह	-619
ោក	-620
បើ	-621
iều	-622
សា	-623
▁ngày	-624
៉ុន្ត	-625
ेश	-626
▁लगता	-627
angg	-628
ច្រ	-629
▁mer	-630
▁ăn	-631
▁seperti	-632
agai	-633
wa	-634
▁ही	-635
ក្	-636
▁हु	-637
បញ្	-638
ួល	-639
ihat	-640
៉ុន្តែ	-641
▁ऐ	-642
កម្ម	-643
▁khi	-644
▁Kalau	-645
ज़	-646
त्	-647
▁ដូច	-648
ណ៍	-649
▁वा	-650
▁tố	-651
ក្រុមហ៊ុន	-652
ួរ	-653
ឆ្នាំ	-654
ebih	-655
▁bị	-656
ដ្ឋ	-657
▁បាន	-658
âu	-659
▁để	-660
▁सु	-661
ươ	-662
áng	-663
័យ	-664
enar	-665
▁अग	-666
▁Y	-667
▁An	-668
tr	-669
▁ដោយ	-670
និយ	-671
▁độ	-672
▁nào	-673
▁từ	-674
ल्	-675
ោង	-676
ឱ្យ	-677
▁खा	-678
iệc	-679
ហ្	-680
▁जो	-681
▁kamu	-682
ូន	-683
គិត	-684
ណាស់	-685
▁makan	-686
ữa	-687
▁E	-688
ắc	-689
ឲ្យ	-690
ương	-691
▁ប្រ	-692
▁gì	-693
▁इसे	-694
àng	-695
ផល	-696
▁ប៉ុន្តែ	-697
ंद	-698
▁कार	-699
▁đang	-700
angat	-701
ơi	-702
and	-703
▁cậu	-704
ឡើង	-705
បង្	-706
គ្នា	-707
ចិត្ត	-708
ích	-709
ाइ	-710
át	-711
▁tet	-712
ចេ	-713
ài	-714
▁कु	-715
▁Tr	-716
सी	-717
ập	-718
agi	-719
ोज	-720
▁họ	-721
▁चल	-722
tinya	-723
ao	-724
▁xem	-725
ពិត	-726
▁បើ	-727
▁रहा	-728
្នេះ	-729
ច្រើន	-730
លោក	-731
▁mới	-732
▁5	-733
ន្ត	-734
▁việc	-735
▁फिर	-736
iể	-737
និយាយ	-738
នុ	-739
गे	-740
មុន	-741
ទាំង	-742
▁mas	-743
▁pergi	-744
▁harus	-745
udah	-746
យ៉ាង	-747
00	-748
▁Anda	-749
▁ad	-750
▁biết	-751
▁sự	-752
ាល់	-753
amb	-754
ạn	-755
▁đị	-756
amp	-757
ंत	-758
្វី	-759
▁năm	-760
▁ho	-761
ន្ល	-762
ចង់	-763
ពិ	-764
्यों	-765
▁thấy	-766
ម្ល	-767
ែល	-768
▁meny	-769
▁पहले	-770
गी	-771
ền	-772
▁dalam	-773
▁về	-774
▁गया	-775
ស្ស	-776
▁tetapi	-777
▁trước	-778
▁tahun	-779
▁पा	-780
▁khác	-781
any	-782
▁vậy	-783
▁jadi	-784
akukan	-785
úc	-786
ទេស	-787
akah	-788
ली	-789
▁Se	-790
▁sangat	-791
តាម	-792
▁đầu	-793
हाँ	-794
ដល់	-795
ính	-796
ើរ	-797
▁nhiều	-798
tu	-799
▁W	-800
का	-801
▁नि	-802
भी	-803
ំប	-804
emp	-805
▁orang	-806
▁ដូច្នេះ	-807
ូប	-808
्व	-809
▁lebih	-810
▁đây	-811
ាស់	-812
្ប	-813
វិញ	-814
▁lu	-815
atan	-816
inh	-817
eh	-818
សម្រាប់	-819
▁peng	-820
ững	-821
▁chỉ	-822
▁sau	-823
▁कुछ	-824
ម្រ	-825
ញ្ចឹង	-826
ổi	-827
លេ	-828
ịch	-829
▁kalau	-830
ូម	-831
िस	-832
▁sel	-833
ចេញ	-834
्म	-835
áo	-836
▁समय	-837
▁lalu	-838
្ម	-839
▁f	-840
ដែរ។	-841
▁adalah	-842
▁nhưng	-843
ត្ត	-844
តិ	-845
▁R	-846
▁उस	-847
ជី	-848
▁bah	-849
्री	-850
▁बाद	-851
स्त	-852
▁Q	-853
ूप	-854
▁nói	-855
▁do	-856
ឿង	-857
គាត់	-858
▁số	-859
▁anh	-860
▁4	-861
▁उन	-862
स्ट	-863
ội	-864
▁hơn	-865
▁hari	-866
▁lần	-867
▁em	-868
ទេ។	-869
▁क्यों	-870
រួ	-871
គ្	-872
ម្បី	-873
apat	-874
▁मा	-875
▁cái	-876
្នាក់	-877
▁chúng	-878
ub	-879
को	-880
អ្វី	-881
atu	-882
ảng	-883
្ថ	-884
▁sudah	-885
▁In	-886
▁ទ	-887
▁tại	-888
òng	-889
▁saja	-890
▁đồ	-891
ắt	-892
▁अध	-893
លើក	-894
▁छ	-895
បែ	-896
ប៉	-897
ុះ	-898
ju	-899
ati	-900
ាត	-901
▁तक	-902
▁វា	-903
▁sed	-904
▁अच्छा	-905
▁giờ	-906
▁दो	-907
▁Nh	-908
នា	-909
ata	-910
នៅក្នុង	-911
▁हा	-912
បន្ត	-913
ំពុង	-914
▁pert	-915
▁những	-916
▁रहे	-917
▁अन	-918
ណ្	-919
दा	-920
▁telah	-921
▁nữa	-922
▁sem	-923
ទិ	-924
ối	-925
anyak	-926
▁quá	-927
ដឹង	-928
▁घ	-929
▁या	-930
▁tiế	-931
▁होगा	-932
ចាំ	-933
▁U	-934
ហែល	-935
मा	-936
▁Ap	-937
▁set	-938
ផង	-939
ưa	-940
cara	-941
iệu	-942
ហ្វ	-943
▁अगर	-944
▁करना	-945
isi	-946
▁पू	-947
▁करते	-948
យក	-949
េច	-950
អី	-951
end	-952
ंड	-953
ắm	-954
▁रूप	-955
uốc	-956
▁terl	-957
ុខ	-958
▁मैंने	-959
òn	-960
▁thôi	-961
▁hàng	-962
ញ៉	-963
គួរ	-964
ខ្លួន	-965
▁cùng	-966
ab	-967
▁जब	-968
រៀ	-969
út	-970
▁អ្នក	-971
ទួល	-972
ខាង	-973
▁menj	-974
ដើម្បី	-975
ढ़	-976
ặt	-977
▁sao	-978
▁सकते	-979
ក្រោយ	-980
ảo	-981
▁to	-982
uộ	-983
ចាប់	-984
ोड़	-985
ore	-986
aw	-987
ហើយ។	-988
ed	-989
▁jika	-990
ប្រក	-991
រយ	-992
▁định	-993
ingin	-994
▁कहा	-995
िंग	-996
ផ្ត	-997
▁अपने	-998
ួក	-999
ខ្លាំង	-1000
▁at	-1001
▁ដោយសារ	-1002
៊ីចឹង	-1003
មេ	-1004
▁chứ	-1005
▁mend	-1006
ăng	-1007
ហ្ន	-1008
ैसे	-1009
▁O	-1010
ទទួល	-1011
ện	-1012
ិក	-1013
os	-1014
hir	-1015
បន្ទ	-1016
▁còn	-1017
▁Saya	-1018
ន្លែង	-1019
▁Karena	-1020
▁Nếu	-1021
▁Tớ	-1022
▁thử	-1023
េត	-1024
ើប	-1025
ពួក	-1026
▁Vậy	-1027
▁quan	-1028
uốn	-1029
ផ្ល	-1030
▁pro	-1031
asa	-1032
ញ៉ាំ	-1033
▁nhà	-1034
की	-1035
▁सब	-1036
▁201	-1037
▁menc	-1038
alan	-1039
▁स्थ	-1040
▁thật	-1041
aik	-1042
▁banyak	-1043
êu	-1044
▁cứ	-1045
▁nhỉ	-1046
▁10	-1047
▁ऐसा	-1048
▁thành	-1049
ទិញ	-1050
ឹម	-1051
êm	-1052
ពិតជា	-1053
▁वह	-1054
ាច	-1055
empat	-1056
ục	-1057
េស	-1058
arang	-1059
▁bers	-1060
▁थी	-1061
▁nhất	-1062
▁F	-1063
▁saat	-1064
▁chuy	-1065
aj	-1066
▁चाहिए	-1067
ीक	-1068
ជាង	-1069
▁तर	-1070
ហ្នឹង	-1071
▁ការ	-1072
ដំណ	-1073
▁thời	-1074
▁मिल	-1075
▁quy	-1076
▁mua	-1077
▁क्योंकि	-1078
eri	-1079
▁ingin	-1080
ំនួន	-1081
▁pem	-1082
▁muốn	-1083
▁thích	-1084
គិតថា	-1085
ẫn	-1086
▁học	-1087
ुर	-1088
oba	-1089
▁qua	-1090
▁trên	-1091
▁ខ្ញុំនឹង	-1092
▁Kh	-1093
ạo	-1094
ip	-1095
រដ្ឋ	-1096
ទឹក	-1097
ផ្ទ	-1098
▁Quốc	-1099
int	-1100
៉េ	-1101
▁baik	-1102
រក	-1103
kat	-1104
▁ta	-1105
▁melakukan	-1106
ភ្ល	-1107
អស់	-1108
ឯង	-1109
uộc	-1110
▁दिन	-1111
ធី	-1112
ष्ट	-1113
्रा	-1114
▁tốt	-1115
▁១	-1116
ẩm	-1117
▁कोई	-1118
▁apa	-1119
▁viên	-1120
ặc	-1121
ib	-1122
ចំណ	-1123
▁रा	-1124
ែម	-1125
▁dự	-1126
▁bahwa	-1127
▁bel	-1128
កន្លែង	-1129
▁chị	-1130
ូង	-1131
សិនបើ	-1132
ूस	-1133
▁ठ	-1134
्स	-1135
▁kel	-1136
▁២	-1137
िश	-1138
គី	-1139
ជ្	-1140
▁គឺ	-1141
▁स्ट	-1142
▁rằng	-1143
usah	-1144
ारा	-1145
បែប	-1146
lah	-1147
ियों	-1148
▁जाए	-1149
▁chi	-1150
▁लोग	-1151
oleh	-1152
មនុ	-1153
ដាក់	-1154
ini	-1155
▁6	-1156
ុត	-1157
្ច	-1158
▁động	-1159
▁तुम्ह	-1160
le	-1161
uất	-1162
ưở	-1163
ọi	-1164
▁रही	-1165
ដូចជា	-1166
▁pas	-1167
ន្ធ	-1168
មានការ	-1169
ोट	-1170
▁kho	-1171
កំពុង	-1172
▁melihat	-1173
▁vì	-1174
ôn	-1175
រយៈ	-1176
ប្រទេស	-1177
▁कोर	-1178
ក្នុងការ	-1179
▁lên	-1180
ưởng	-1181
पा	-1182
agaim	-1183
aran	-1184
យន្ត	-1185
▁won	-1186
▁rất	-1187
▁ऑ	-1188
▁nhận	-1189
បច	-1190
ើស	-1191
▁वाल	-1192
▁tháng	-1193
▁हुए	-1194
▁setelah	-1195
atang	-1196
▁Kore	-1197
ទ្ធ	-1198
ेल	-1199
âm	-1200
អារ	-1201
▁ay	-1202
ព័	-1203
ic	-1204
▁hành	-1205
ថ្ងៃទី	-1206
▁सी	-1207
प्	-1208
ॉन	-1209
ើត	-1210
▁अधिक	-1211
ើញ	-1212
ấp	-1213
សាក	-1214
▁sản	-1215
▁tangg	-1216
ter	-1217
ेंट	-1218
▁đâu	-1219
▁कम	-1220
▁उत्	-1221
▁Ng	-1222
शन	-1223
दि	-1224
ac	-1225
មុខ	-1226
▁ध	-1227
aktu	-1228
▁Korea	-1229
▁बे	-1230
▁lain	-1231
▁lagi	-1232
▁सकता	-1233
ករ	-1234
ជន	-1235
ាប	-1236
▁lo	-1237
មនុស្ស	-1238
्यू	-1239
▁ngo	-1240
ार्	-1241
-1	-1242
annya	-1243
uống	-1244
▁chắc	-1245
▁thu	-1246
ंट	-1247
អារម្ម	-1248
ស្ត	-1249
▁sepertinya	-1250
▁करें	-1251
▁tanggal	-1252
▁ap	-1253
ធាន	-1254
▁7	-1255
aru	-1256
ulan	-1257
▁điều	-1258
▁tu	-1259
वि	-1260
ánh	-1261
▁kali	-1262
▁मेरे	-1263
ụng	-1264
▁उप	-1265
▁बना	-1266
សិ	-1267
ផលិត	-1268
ចំនួន	-1269
▁Mình	-1270
តើ	-1271
ợp	-1272
▁។	-1273
▁तरह	-1274
▁ấy	-1275
ूर	-1276
ូរ៉េ	-1277
▁बात	-1278
▁ជា	-1279
▁सो	-1280
▁merek	-1281
ាញ់	-1282
ស៊	-1283
ừa	-1284
ដំណើរ	-1285
ប្រើ	-1286
▁តោះ	-1287
ाय	-1288
▁cơ	-1289
sung	-1290
▁अनु	-1291
ឃើញ	-1292
▁theo	-1293
ន់	-1294
ian	-1295
រឿង	-1296
▁hợp	-1297
ចុះ	-1298
▁Tôi	-1299
▁bert	-1300
oo	-1301
ូត	-1302
បន្តិច	-1303
agaimana	-1304
▁chính	-1305
ee	-1306
दी	-1307
ព្រោះ	-1308
▁थोड़	-1309
▁ហ	-1310
▁menjadi	-1311
អារម្មណ៍	-1312
ungk	-1313
▁चलो	-1314
▁ty	-1315
អត់	-1316
ថាន	-1317
▁phát	-1318
ួត	-1319
ប្រហែល	-1320
▁thông	-1321
▁trường	-1322
▁nay	-1323
enang	-1324
ទុក	-1325
ុល	-1326
▁xuất	-1327
ទៅ។	-1328
▁bạn	-1329
aks	-1330
▁satu	-1331
▁ayo	-1332
ុយ	-1333
ôm	-1334
▁tahu	-1335
ណ្ត	-1336
កើត	-1337
▁ខ	-1338
▁hiện	-1339
uka	-1340
រួម	-1341
atakan	-1342
▁पि	-1343
▁xe	-1344
▁hay	-1345
▁វ	-1346
ển	-1347
▁ना	-1348
ंप	-1349
នេះ។	-1350
ីឡ	-1351
श्	-1352
000	-1353
▁ker	-1354
िख	-1355
▁nghĩ	-1356
▁Seo	-1357
▁tempat	-1358
▁nếu	-1359
▁साल	-1360
uat	-1361
ថ្ម	-1362
ạt	-1363
▁ठीक	-1364
▁អញ្ចឹង	-1365
▁cách	-1366
▁खरी	-1367
),	-1368
▁thực	-1369
▁bảo	-1370
▁thi	-1371
ុស	-1372
ोल	-1373
▁giá	-1374
គ្គ	-1375
duk	-1376
ारे	-1377
អំ	-1378
▁lắm	-1379
▁dib	-1380
ម្ត	-1381
បង្ហ	-1382
तर	-1383
▁Kim	-1384
ម៉ោង	-1385
▁उन्ह	-1386
▁datang	-1387
ាន់តែ	-1388
esar	-1389
▁Seper	-1390
ស៊ី	-1391
▁आपको	-1392
▁होने	-1393
▁कोरिया	-1394
▁व्य	-1395
ống	-1396
▁lúc	-1397
▁hanya	-1398
ूल	-1399
art	-1400
▁nhân	-1401
▁वाले	-1402
▁tập	-1403
▁आज	-1404
ìn	-1405
ហារ	-1406
▁nước	-1407
រី	-1408
कार	-1409
▁kep	-1410
iệt	-1411
▁sini	-1412
▁ser	-1413
ãy	-1414
ដំប	-1415
▁សូម	-1416
▁berb	-1417
ម្លៃ	-1418
्रे	-1419
▁gia	-1420
▁tuy	-1421
▁waktu	-1422
▁benar	-1423
anj	-1424
ấn	-1425
▁kon	-1426
▁dụng	-1427
លេង	-1428
ត្តិ	-1429
ន្ទ	-1430
▁hình	-1431
▁तारी	-1432
កាល	-1433
ấu	-1434
ạng	-1435
op	-1436
ាក់ទ	-1437
▁điện	-1438
ាប់ពី	-1439
▁bag	-1440
वी	-1441
▁Sepertinya	-1442
ដែលមាន	-1443
usahaan	-1444
ulu	-1445
▁sebagai	-1446
សេង	-1447
▁तारीख	-1448
▁ប្រសិនបើ	-1449
▁Ti	-1450
▁មាន	-1451
ផ្សេង	-1452
▁លោក	-1453
ưng	-1454
ễn	-1455
▁ची	-1456
ុប	-1457
ទ្រ	-1458
ាវ	-1459
▁क्	-1460
ửa	-1461
▁thứ	-1462
▁8	-1463
ानी	-1464
ណាស់។	-1465
នៅពេល	-1466
ដំបូង	-1467
▁kan	-1468
▁खरीद	-1469
ुन	-1470
जी	-1471
ពិន	-1472
▁हाँ	-1473
▁Jika	-1474
ធ្វើការ	-1475
संद	-1476
est	-1477
▁dis	-1478
र्व	-1479
eong	-1480
▁जिस	-1481
▁दिया	-1482
▁phẩm	-1483
-19	-1484
▁लगा	-1485
्यादा	-1486
gun	-1487
aga	-1488
ិច្ច	-1489
ảnh	-1490
ỏi	-1491
កូរ៉េ	-1492
▁रख	-1493
▁अभी	-1494
ជូន	-1495
su	-1496
▁पसंद	-1497
ắng	-1498
▁bagus	-1499
▁बढ़	-1500
▁bằng	-1501
ក្រុង	-1502
លក់	-1503
ọn	-1504
enc	-1505
▁án	-1506
▁memper	-1507
ốc	-1508
ikir	-1509
áp	-1510
អោយ	-1511
▁बी	-1512
▁vừa	-1513
▁samp	-1514
▁liên	-1515
▁kiể	-1516
ahan	-1517
▁con	-1518
ថ្មី	-1519
▁पास	-1520
អង្	-1521
▁सबसे	-1522
▁साम	-1523
▁ओ	-1524
ិយ	-1525
ផ្ស	-1526
ោល	-1527
▁करके	-1528
▁पी	-1529
និយាយថា	-1530
ជ្រ	-1531
uar	-1532
esan	-1533
ew	-1534
ẩn	-1535
▁coba	-1536
ंध	-1537
អ៊	-1538
▁गई	-1539
បំ	-1540
िट	-1541
र्ड	-1542
▁apakah	-1543
फ़	-1544
តម្លៃ	-1545
ត្ថ	-1546
".	-1547
olong	-1548
ui	-1549
▁phí	-1550
បង្ហាញ	-1551
ाव	-1552
ថ្ងៃនេះ	-1553
ạnh	-1554
▁mereka	-1555
▁thêm	-1556
រូប	-1557
▁cảm	-1558
ណៈ	-1559
ៀង	-1560
ỗi	-1561
क्ट	-1562
▁ý	-1563
ក្ត	-1564
ច្ប	-1565
▁an	-1566
िला	-1567
▁secara	-1568
▁អ៊ីចឹង	-1569
▁अभ	-1570
▁đúng	-1571
ोर	-1572
ंब	-1573
▁pun	-1574
ungg	-1575
▁यहाँ	-1576
ជាតិ	-1577
▁अपनी	-1578
▁Hàn	-1579
."	-1580
र्ष	-1581
▁ខ្ញុំគិតថា	-1582
▁gian	-1583
គ្រប់	-1584
▁Hy	-1585
▁जी	-1586
ធ្ល	-1587
▁kem	-1588
itar	-1589
▁sedang	-1590
द्	-1591
▁Per	-1592
ដើម	-1593
▁dapat	-1594
▁cần	-1595
អញ្ចឹង	-1596
▁होता	-1597
បរ	-1598
▁baru	-1599
▁cao	-1600
ាណ	-1601
▁ក្នុង	-1602
ॉल	-1603
▁ក្រុមហ៊ុន	-1604
▁phòng	-1605
▁बारे	-1606
epat	-1607
្រី	-1608
ពាក់	-1609
▁pel	-1610
▁bersama	-1611
óng	-1612
▁bu	-1613
ँच	-1614
ảm	-1615
▁lớ	-1616
ượng	-1617
▁đối	-1618
ដ៏	-1619
▁वे	-1620
ដង	-1621
្នែក	-1622
▁hal	-1623
▁शुर	-1624
ाग	-1625
▁tiếp	-1626
apan	-1627
▁tiên	-1628
▁nhau	-1629
▁tiền	-1630
ड़ी	-1631
▁tra	-1632
ប្រាក់	-1633
លាន	-1634
▁मह	-1635
▁9	-1636
apkan	-1637
▁ក៏	-1638
मे	-1639
ទ្យ	-1640
ứng	-1641
ពីរ	-1642
▁जल्	-1643
▁nghiệ	-1644
របស់ខ្ញុំ	-1645
ोन	-1646
▁min	-1647
▁निर्	-1648
ambil	-1649
▁bulan	-1650
អាហារ	-1651
kah	-1652
und	-1653
र्ट	-1654
▁tự	-1655
អ៊ី	-1656
សំ	-1657
▁điể	-1658
ចូលចិត្ត	-1659
yo	-1660
ừng	-1661
▁điểm	-1662
▁pemb	-1663
▁យើង	-1664
ọng	-1665
ूँगा	-1666
ulai	-1667
▁perusahaan	-1668
▁tin	-1669
▁dia	-1670
ប្រកួត	-1671
នៅទី	-1672
▁chút	-1673
ark	-1674
សង្	-1675
▁bộ	-1676
ទាំងអស់	-1677
ម្តង	-1678
អេ	-1679
▁giải	-1680
योग	-1681
▁पिछ	-1682
កា	-1683
ड़े	-1684
▁बै	-1685
▁tâm	-1686
▁Apakah	-1687
▁कंप	-1688
ilik	-1689
ួប	-1690
▁Sel	-1691
ជួយ	-1692
▁ទោះ	-1693
ìm	-1694
▁ya	-1695
▁gọi	-1696
▁कारण	-1697
त्र	-1698
benar	-1699
▁Seoul	-1700
ព្យ	-1701
▁sekali	-1702
▁tổ	-1703
▁vẻ	-1704
ពួកគេ	-1705
▁chỗ	-1706
▁दूस	-1707
▁berk	-1708
បន្ថ	-1709
រថ	-1710
សន	-1711
▁Không	-1712
▁thị	-1713
uran	-1714
में	-1715
af	-1716
ភាគ	-1717
រ៉	-1718
មិនអាច	-1719
▁जाता	-1720
तना	-1721
▁करता	-1722
ुक	-1723
▁តើអ្នក	-1724
▁chức	-1725
ដែលបាន	-1726
▁vẫn	-1727
क्षा	-1728
ae	-1729
ton	-1730
▁dep	-1731
▁cấp	-1732
▁Có	-1733
▁Ph	-1734
ព័ន្ធ	-1735
ផុត	-1736
ហ្គ	-1737
▁hết	-1738
▁kết	-1739
▁pertama	-1740
បទ	-1741
ដើរ	-1742
▁ki	-1743
▁oleh	-1744
▁vị	-1745
ំហ	-1746
▁sekarang	-1747
▁कै	-1748
ओं	-1749
áy	-1750
▁chơi	-1751
ជីវ	-1752
pa	-1753
unj	-1754
ដោយសារ	-1755
eon	-1756
កិច្ច	-1757
▁खाना	-1758
▁bắt	-1759
▁terk	-1760
▁đồng	-1761
ើម	-1762
▁ដោយសារតែ	-1763
▁Lee	-1764
ប្ត	-1765
ដែលខ្ញុំ	-1766
▁बता	-1767
uan	-1768
អំពី	-1769
▁Vì	-1770
▁Di	-1771
▁vụ	-1772
म्म	-1773
▁tìm	-1774
ាជ	-1775
ឆ្ង	-1776
▁atau	-1777
កាត់	-1778
▁कह	-1779
▁sinh	-1780
ាច់	-1781
សម្	-1782
▁Gi	-1783
जा	-1784
▁hội	-1785
▁hãy	-1786
uang	-1787
▁mengatakan	-1788
ថ្នាក់	-1789
នៃការ	-1790
▁kes	-1791
लग	-1792
िव	-1793
जे	-1794
▁lịch	-1795
ប្ប	-1796
▁uống	-1797
▁nhiên	-1798
elum	-1799
▁ảnh	-1800
▁tới	-1801
▁diễn	-1802
▁द्व	-1803
यर	-1804
ថត	-1805
ungan	-1806
មែនទេ	-1807
▁पता	-1808
ជើង	-1809
▁dir	-1810
ផ្លូវ	-1811
▁hai	-1812
នាំ	-1813
ចប់	-1814
▁មិន	-1815
▁bukan	-1816
▁sampai	-1817
▁tình	-1818
ाई	-1819
▁mengh	-1820
ikit	-1821
▁cầu	-1822
▁थोड़ा	-1823
▁Dù	-1824
▁dil	-1825
▁पै	-1826
ungkin	-1827
ក្ល	-1828
ដ្ឋាន	-1829
ដៃ	-1830
▁khách	-1831
▁Cậu	-1832
erik	-1833
ingkat	-1834
ियन	-1835
▁terb	-1836
▁ज़	-1837
asan	-1838
▁luôn	-1839
iri	-1840
olah	-1841
▁tăng	-1842
ស្ន	-1843
▁gh	-1844
▁जान	-1845
▁toàn	-1846
od	-1847
मी	-1848
ahkan	-1849
▁sedikit	-1850
mu	-1851
ạc	-1852
ជាការ	-1853
▁ពេល	-1854
ta	-1855
▁दिख	-1856
▁Anh	-1857
ोक	-1858
ाम	-1859
onal	-1860
▁đặt	-1861
វិធី	-1862
▁phim	-1863
▁en	-1864
▁tác	-1865
▁tho	-1866
anding	-1867
ोंने	-1868
▁बि	-1869
वर	-1870
▁membel	-1871
ार्ट	-1872
▁giới	-1873
ូក	-1874
oh	-1875
ងារ	-1876
ប្រធាន	-1877
ខែ	-1878
ជុំ	-1879
▁विश	-1880
ជួប	-1881
स्थ	-1882
▁chu	-1883
▁đo	-1884
▁सि	-1885
ជាក់	-1886
ून	-1887
ពេញ	-1888
▁trình	-1889
▁Am	-1890
▁ली	-1891
▁30	-1892
ន៍	-1893
▁ព្រោះ	-1894
ញ្ញ	-1895
▁bagaimana	-1896
▁स्वा	-1897
बंध	-1898
देश	-1899
ក្រៅ	-1900
ingga	-1901
រយៈពេល	-1902
ជារ	-1903
▁kar	-1904
▁ម៉	-1905
ោម	-1906
ilan	-1907
itas	-1908
កីឡ	-1909
សហ	-1910
ិប	-1911
▁ज्यादा	-1912
▁यदि	-1913
▁produk	-1914
▁इन	-1915
ទទួលបាន	-1916
▁अब	-1917
▁खु	-1918
បើក	-1919
▁गए	-1920
क्ति	-1921
ोंग	-1922
▁काम	-1923
ón	-1924
oon	-1925
▁minum	-1926
ត្រូវតែ	-1927
िका	-1928
amu	-1929
ौर	-1930
akhir	-1931
▁Thế	-1932
មូល	-1933
▁थे	-1934
erja	-1935
តាំង	-1936
▁lớn	-1937
20	-1938
▁នៅពេល	-1939
▁ters	-1940
ណ្ឌ	-1941
▁Nhưng	-1942
▁lang	-1943
ានៅ	-1944
▁bán	-1945
បានទេ	-1946
▁nhìn	-1947
▁cuộc	-1948
▁ngon	-1949
▁keluar	-1950
ेट	-1951
ặp	-1952
អូ	-1953
ima	-1954
▁besar	-1955
វ៉ុន	-1956
▁member	-1957
▁ngoài	-1958
पाद	-1959
េតុ	-1960
▁इसके	-1961
រួច	-1962
▁khó	-1963
esk	-1964
▁अच्छी	-1965
▁doanh	-1966
▁Nam	-1967
úp	-1968
▁so	-1969
ूं	-1970
▁hôm	-1971
▁bao	-1972
ល្ប	-1973
▁bản	-1974
▁पिछले	-1975
▁nhanh	-1976
ंस	-1977
័រ	-1978
លេខ	-1979
រៀន	-1980
▁នឹង	-1981
▁rum	-1982
▁sama	-1983
धार	-1984
ប៉ុន	-1985
ूम	-1986
▁खेल	-1987
វិទ្យ	-1988
gunakan	-1989
ov	-1990
មេរ	-1991
▁sekitar	-1992
វាយ	-1993
ahulu	-1994
▁dip	-1995
▁ag	-1996
▁सोच	-1997
▁quyết	-1998
▁berp	-1999
क्स	-2000
▁sana	-2001
ợi	-2002
▁tan	-2003
ោស	-2004
▁masuk	-2005
▁tiếng	-2006
▁कृ	-2007
ेंगे	-2008
iển	-2009
▁dit	-2010
▁सकती	-2011
▁द्वारा	-2012
जन	-2013
▁उत्पाद	-2014
ដេ	-2015
▁đề	-2016
▁seh	-2017
▁phương	-2018
▁peny	-2019
រំ	-2020
▁Ya	-2021
តី	-2022
ិត្យ	-2023
▁ដើម្បី	-2024
រៀបច	-2025
▁ting	-2026
ជំន	-2027
▁máy	-2028
ាក៏	-2029
angk	-2030
ist	-2031
ạm	-2032
ởi	-2033
ách	-2034
▁Ayo	-2035
បុ	-2036
បង្កើត	-2037
ោគ	-2038
▁membuat	-2039
ोजन	-2040
era	-2041
ខ្ញុំនឹង	-2042
នូវ	-2043
िप	-2044
▁जैसे	-2045
សូម	-2046
▁सच	-2047
ធំ	-2048
រថយន្ត	-2049
▁ត្រូវបាន	-2050
unc	-2051
▁जै	-2052
ព្វ	-2053
obil	-2054
क्र	-2055
▁हमें	-2056
ហាង	-2057
ផ្ទះ	-2058
▁किसी	-2059
iliki	-2060
អនុ	-2061
ឆ្ល	-2062
▁dahulu	-2063
រស	-2064
▁mang	-2065
វ៉	-2066
▁យ	-2067
ណ្ណ	-2068
▁lý	-2069
▁शुरू	-2070
▁उन्होंने	-2071
▁akhir	-2072
បំផុត	-2073
ंच	-2074
ऊँ	-2075
ទៀត។	-2076
បន្ថែម	-2077
म्मी	-2078
របស់អ្នក	-2079
▁पु	-2080
ថ្ល	-2081
▁chủ	-2082
▁món	-2083
ẹp	-2084
▁Un	-2085
▁वहाँ	-2086
▁mau	-2087
ផ្នែក	-2088
वल	-2089
eman	-2090
▁तुम्हें	-2091
ប្រាប់	-2092
▁tư	-2093
▁giúp	-2094
▁वाली	-2095
uj	-2096
▁depan	-2097
नों	-2098
០០	-2099
ម្នាក់	-2100
▁हुआ	-2101
ស្វ	-2102
▁जाना	-2103
▁ឬ	-2104
ក៏ដោយ	-2105
▁ខ្ញុំបាន	-2106
▁khoảng	-2107
▁jam	-2108
▁đấu	-2109
រង	-2110
).	-2111
कों	-2112
ផងដែរ។	-2113
ny	-2114
េង	-2115
ोजना	-2116
ét	-2117
▁chuẩn	-2118
▁berh	-2119
ជាមួយនឹង	-2120
▁rumah	-2121
ស្ថាន	-2122
▁19	-2123
▁ket	-2124
េទ	-2125
▁semua	-2126
▁si	-2127
▁dùng	-2128
អ៊ីចឹង	-2129
ជំ	-2130
▁तब	-2131
▁enak	-2132
▁mendapat	-2133
ទំន	-2134
ឡូវ	-2135
▁11	-2136
▁जल्दी	-2137
ekerja	-2138
▁à	-2139
▁năng	-2140
▁thường	-2141
ala	-2142
म्मीद	-2143
▁mana	-2144
ăm	-2145
òa	-2146
ពស់	-2147
ម៉េច	-2148
ោត	-2149
▁उम्मीद	-2150
onton	-2151
▁yêu	-2152
arkan	-2153
▁tham	-2154
ឿន	-2155
អាត	-2156
បែបនេះ	-2157
ដំណើរការ	-2158
រៀបចំ	-2159
▁sesu	-2160
वेश	-2161
▁trở	-2162
▁ला	-2163
▁bố	-2164
កាន់	-2165
▁báo	-2166
បាន។	-2167
asil	-2168
▁रे	-2169
មី	-2170
प्त	-2171
ិះ	-2172
▁memiliki	-2173
भग	-2174
akai	-2175
ាល័យ	-2176
▁dịch	-2177
▁kami	-2178
चार	-2179
▁berl	-2180
ផ្សាយ	-2181
រហ	-2182
▁gặp	-2183
▁कृप	-2184
គួរតែ	-2185
र्स	-2186
▁sebelum	-2187
នាក់	-2188
▁जाने	-2189
ហា	-2190
▁लोगों	-2191
âng	-2192
main	-2193
គ្មាន	-2194
ẳng	-2195
▁triển	-2196
ota	-2197
ពេក	-2198
▁जाएगा	-2199
▁वाला	-2200
ឥឡូវ	-2201
▁chưa	-2202
▁dik	-2203
▁बस	-2204
urut	-2205
▁thủ	-2206
ទាក់ទ	-2207
▁៣	-2208
▁ai	-2209
ulit	-2210
ត្រឹម	-2211
▁जग	-2212
▁đều	-2213
embali	-2214
alui	-2215
च्च	-2216
.000	-2217
ebut	-2218
▁sử	-2219
▁បន្ទ	-2220
▁vi	-2221
aling	-2222
▁biệt	-2223
កំណ	-2224
គារ	-2225
▁mắt	-2226
▁đưa	-2227
रो	-2228
mas	-2229
ានឹង	-2230
▁loại	-2231
▁trưởng	-2232
ទីក្រុង	-2233
អាមេរ	-2234
ទូរ	-2235
▁trung	-2236
istr	-2237
ilm	-2238
▁12	-2239
ឆ្ងាញ់	-2240
te	-2241
▁xong	-2242
ជាប់	-2243
កើន	-2244
▁nghiệp	-2245
វេ	-2246
▁ती	-2247
▁cửa	-2248
ប្រាស់	-2249
▁cepat	-2250
មិត្ត	-2251
▁जगह	-2252
▁X	-2253
स्तव	-2254
ផ្តើម	-2255
▁tolong	-2256
ेद	-2257
्ल	-2258
▁chuyện	-2259
र्म	-2260
▁đẹp	-2261
▁ant	-2262
▁giảm	-2263
▁តែ	-2264
▁वॉन	-2265
ផ្សារ	-2266
▁Chúng	-2267
ក្ស	-2268
र्क	-2269
▁tiến	-2270
फी	-2271
ហ្គេ	-2272
▁बीच	-2273
▁प्रति	-2274
▁phía	-2275
ons	-2276
▁Em	-2277
▁वास्तव	-2278
▁प्रा	-2279
ID	-2280
ầm	-2281
▁suka	-2282
ការណ៍	-2283
ेम	-2284
▁?	-2285
▁प्रद	-2286
▁ông	-2287
▁neg	-2288
▁terlalu	-2289
គីម	-2290
▁अच्छे	-2291
▁đường	-2292
▁đổi	-2293
ệt	-2294
▁कृपया	-2295
▁mặt	-2296
ំពោះ	-2297
▁किम	-2298
ពិនិត្យ	-2299
▁Pada	-2300
jalan	-2301
ផ្តល់	-2302
▁अपना	-2303
ាធ	-2304
ilih	-2305
▁tỷ	-2306
ឡើយ	-2307
គ្រាន់តែ	-2308
ខុស	-2309
▁Park	-2310
▁sát	-2311
ីយ	-2312
▁kia	-2313
▁bên	-2314
អាមេរិក	-2315
▁टी	-2316
▁tính	-2317
ណ៌	-2318
ប្រើប្រាស់	-2319
▁डि	-2320
▁makanan	-2321
▁ngay	-2322
▁tent	-2323
lu	-2324
▁Cho	-2325
द्ध	-2326
▁នៅក្នុង	-2327
▁mấy	-2328
▁दी	-2329
▁क्ष	-2330
ដឹក	-2331
▁sáng	-2332
ướng	-2333
▁सह	-2334
▁kembali	-2335
ពល	-2336
▁Trung	-2337
▁मै	-2338
ेज	-2339
បណ្ត	-2340
▁स्क	-2341
ộng	-2342
▁hơi	-2343
ंदर	-2344
uối	-2345
▁ខ្ញុំមិន	-2346
មើលទៅ	-2347
▁selama	-2348
िक्	-2349
សំណ	-2350
ạch	-2351
ame	-2352
▁គាត់	-2353
ចាប់ផ្តើម	-2354
▁kế	-2355
▁ដែលជា	-2356
▁kiểm	-2357
oto	-2358
▁चु	-2359
▁kepada	-2360
क्त	-2361
▁kiến	-2362
សេស	-2363
▁អ៊ី	-2364
▁melalui	-2365
▁बु	-2366
VID	-2367
ជ្ញ	-2368
ភេទ	-2369
ili	-2370
erika	-2371
्यान	-2372
imp	-2373
ជ្ជ	-2374
▁mất	-2375
▁kec	-2376
ផលិតផល	-2377
ingg	-2378
ឌី	-2379
▁seg	-2380
omp	-2381
ាការ	-2382
▁lama	-2383
▁du	-2384
ប៉ុ	-2385
▁कंपनी	-2386
▁phần	-2387
▁diper	-2388
▁खिला	-2389
អាយ	-2390
res	-2391
ឈ្ម	-2392
▁15	-2393
▁cảnh	-2394
▁किए	-2395
▁kas	-2396
▁mở	-2397
▁चाहता	-2398
सार	-2399
ាករ	-2400
▁khu	-2401
▁gần	-2402
▁đơn	-2403
▁Ter	-2404
២០	-2405
ន្ត្រី	-2406
▁बाह	-2407
▁फिल	-2408
ेष	-2409
▁उपयोग	-2410
▁langsung	-2411
tama	-2412
▁मेरी	-2413
▁lượng	-2414
ាយក	-2415
ाइन	-2416
लय	-2417
र्डर	-2418
សម្រេច	-2419
ूँगी	-2420
OVID	-2421
▁ऐसे	-2422
",	-2423
▁lực	-2424
usan	-2425
ពណ៌	-2426
ắn	-2427
ឈ្មោះ	-2428
एँ	-2429
▁Ini	-2430
ipun	-2431
ជិះ	-2432
▁कॉ	-2433
eskipun	-2434
ខ្ពស់	-2435
aku	-2436
ec	-2437
តា	-2438
▁तै	-2439
ថ្លៃ	-2440
ជាច្រើន	-2441
▁para	-2442
ទោស	-2443
ពិសេស	-2444
▁địa	-2445
▁व्यक्ति	-2446
▁Seb	-2447
awa	-2448
ाप	-2449
▁cáo	-2450
▁su	-2451
▁घर	-2452
atanya	-2453
▁pasti	-2454
anti	-2455
ដី	-2456
ola	-2457
oc	-2458
ियम	-2459
▁membeli	-2460
▁atas	-2461
ड़ा	-2462
▁ध्यान	-2463
ាហ	-2464
▁ឆ្នាំ	-2465
▁កាល	-2466
▁Sh	-2467
អាជ្ញ	-2468
▁tích	-2469
uhan	-2470
▁दिनों	-2471
encana	-2472
▁kinh	-2473
ụp	-2474
▁Ừ	-2475
▁menggunakan	-2476
▁मेरा	-2477
▁naik	-2478
ध्य	-2479
urun	-2480
ustr	-2481
ពួកយើង	-2482
मु	-2483
▁lập	-2484
យល់	-2485
▁al	-2486
▁dù	-2487
▁बद	-2488
▁हाल	-2489
ដែលអ្នក	-2490
▁ked	-2491
មានអារម្មណ៍	-2492
ទើប	-2493
ស្អាត	-2494
▁Amerika	-2495
▁hỏi	-2496
▁vấn	-2497
បន្ទប់	-2498
nyata	-2499
▁Trước	-2500
▁kỳ	-2501
▁चलते	-2502
▁फ़	-2503
▁chọn	-2504
▁tế	-2505
សាច	-2506
▁memberikan	-2507
▁ផ	-2508
िति	-2509
man	-2510
मान	-2511
▁quán	-2512
▁đại	-2513
បាក	-2514
អង្គ	-2515
សាល	-2516
otor	-2517
▁២០	-2518
បំព	-2519
▁आय	-2520
ជាអ្នក	-2521
na	-2522
▁उसे	-2523
aman	-2524
▁bagi	-2525
លី	-2526
▁tapi	-2527
ចុង	-2528
▁मही	-2529
▁thức	-2530
គ្រប់គ្រ	-2531
▁mus	-2532
▁Kamu	-2533
alkan	-2534
▁ខ្ញុំក៏	-2535
ក្ខ	-2536
षण	-2537
ហ្គេម	-2538
▁खाने	-2539
▁।	-2540
ណែន	-2541
ពីការ	-2542
▁Ind	-2543
▁từng	-2544
ेगा	-2545
ធម្ម	-2546
ूर्	-2547
▁बेह	-2548
ពិបាក	-2549
▁जि	-2550
▁करती	-2551
ច្បាប់	-2552
iku	-2553
tor	-2554
ពិភ	-2555
▁केवल	-2556
▁अभिय	-2557
▁keb	-2558
▁trọng	-2559
uyên	-2560
ៀប	-2561
ូស	-2562
ព្ទ	-2563
▁beb	-2564
▁वर्ष	-2565
angkan	-2566
▁चे	-2567
▁pháp	-2568
tur	-2569
▁ứng	-2570
▁Đúng	-2571
▁mulai	-2572
▁ខ្ញុំចង់	-2573
រហូត	-2574
óa	-2575
▁bóng	-2576
▁mobil	-2577
orm	-2578
ូច	-2579
▁luar	-2580
▁គេ	-2581
▁uang	-2582
▁होती	-2583
វិន	-2584
▁Sau	-2585
▁tay	-2586
▁đánh	-2587
▁प्रत	-2588
▁trận	-2589
▁Akan	-2590
▁vui	-2591
▁pesan	-2592
ប៊	-2593
ប្បាយ	-2594
▁ऑर्डर	-2595
▁cố	-2596
សាច់	-2597
▁anak	-2598
▁पहली	-2599
▁send	-2600
សរ	-2601
awat	-2602
ដឹងថា	-2603
▁mức	-2604
កម្	-2605
▁nổi	-2606
ver	-2607
លឿន	-2608
erapa	-2609
ភី	-2610
ហាត់	-2611
▁बाहर	-2612
▁sej	-2613
ैन	-2614
អាក	-2615
▁bỏ	-2616
iệm	-2617
្មាន	-2618
▁Mỹ	-2619
▁chụp	-2620
▁Trong	-2621
▁Tidak	-2622
st	-2623
▁ចាំ	-2624
▁कार्य	-2625
្នះ	-2626
ងឺ	-2627
▁विशेष	-2628
ម្ដង	-2629
▁thương	-2630
रूर	-2631
▁tài	-2632
ស្សា	-2633
▁mỗi	-2634
▁sep	-2635
ធ្លាប់	-2636
▁tuổi	-2637
▁liệu	-2638
▁pern	-2639
វី	-2640
▁thiết	-2641
▁निक	-2642
▁फिल्म	-2643
ប្រតិ	-2644
▁អូ	-2645
កាលពី	-2646
▁hiể	-2647
▁जाँच	-2648
ba	-2649
បត្តិ	-2650
▁COVID	-2651
ệnh	-2652
ồn	-2653
▁हुई	-2654
ស្រួល	-2655
▁nghe	-2656
जार	-2657
unt	-2658
▁film	-2659
▁अलग	-2660
elas	-2661
▁paling	-2662
▁អេ	-2663
▁vận	-2664
▁करेंगे	-2665
▁व्या	-2666
មិនបាន	-2667
द्य	-2668
▁ban	-2669
ទីផ្សារ	-2670
▁सही	-2671
ហ្វេ	-2672
▁nơi	-2673
កម្មវិធី	-2674
▁tạo	-2675
ind	-2676
បង់	-2677
មិនមែន	-2678
त्म	-2679
लब	-2680
គឺជា	-2681
▁अंत	-2682
▁quả	-2683
▁game	-2684
wan	-2685
ាក្យ	-2686
▁लिया	-2687
▁តាម	-2688
ណែនាំ	-2689
▁tiêu	-2690
istrik	-2691
▁पूर्व	-2692
▁dẫn	-2693
▁सुन	-2694
▁sống	-2695
्ते	-2696
▁ប្រហែល	-2697
▁o	-2698
បារ	-2699
raga	-2700
oran	-2701
ពាក្យ	-2702
▁आस	-2703
▁melakukannya	-2704
▁dim	-2705
्ड	-2706
▁berd	-2707
▁triệu	-2708
▁समझ	-2709
ទស្ស	-2710
▁Set	-2711
स्क	-2712
▁hệ	-2713
▁cuối	-2714
▁mù	-2715
▁pr	-2716
▁mẹ	-2717
▁महीने	-2718
िं	-2719
កូន	-2720
▁st	-2721
▁Vâng	-2722
ណាត់	-2723
▁तैया	-2724
ប្រយ	-2725
▁लगभग	-2726
ហេតុ	-2727
តំ	-2728
त्रा	-2729
ទូរស	-2730
▁seti	-2731
ượt	-2732
eda	-2733
▁मौ	-2734
idup	-2735
स्ता	-2736
▁terlihat	-2737
គ្រឿង	-2738
मेर	-2739
ेशन	-2740
▁terus	-2741
បន់	-2742
▁thống	-2743
▁202	-2744
▁trí	-2745
ប្រហែលជា	-2746
uc	-2747
▁होगी	-2748
upakan	-2749
प्र	-2750
ंत्र	-2751
▁thân	-2752
undai	-2753
សប្បាយ	-2754
ស្ម	-2755
if	-2756
▁Sam	-2757
ám	-2758
▁កាលពី	-2759
,000	-2760
▁chuyển	-2761
arah	-2762
▁ជ	-2763
▁dư	-2764
usus	-2765
erikat	-2766
ig	-2767
भाव	-2768
នៅលើ	-2769
រណ៍	-2770
ភ្លាម	-2771
▁របស់	-2772
កំណត់	-2773
មក។	-2774
▁देखने	-2775
▁Serikat	-2776
emu	-2777
▁dua	-2778
ម្ភ	-2779
पी	-2780
▁वाह	-2781
▁mendapatkan	-2782
▁តើខ្ញុំ	-2783
▁योजना	-2784
la	-2785
▁xử	-2786
ើយើង	-2787
១៩	-2788
किल	-2789
ោទ	-2790
▁lời	-2791
▁शाम	-2792
ដោយសារតែ	-2793
धा	-2794
ោះ។	-2795
▁ये	-2796
▁बिल	-2797
បញ្ចប់	-2798
ហូប	-2799
unggu	-2800
▁बेहतर	-2801
▁pers	-2802
umum	-2803
នោះ។	-2804
ង់ចាំ	-2805
បាយ	-2806
eks	-2807
ểu	-2808
aat	-2809
▁xét	-2810
សួរ	-2811
ពាន់	-2812
yeong	-2813
▁sức	-2814
ow	-2815
▁सभी	-2816
▁nghỉ	-2817
ំពឹង	-2818
ខាន់	-2819
▁स्व	-2820
▁दर्	-2821
',	-2822
वन	-2823
ខ្លះ	-2824
▁ចាស	-2825
▁टे	-2826
ចំពោះ	-2827
▁दूसरे	-2828
मत	-2829
រើស	-2830
pun	-2831
▁mener	-2832
▁អា	-2833
▁जिन	-2834
▁vực	-2835
▁tanpa	-2836
kir	-2837
ार्क	-2838
og	-2839
ukkan	-2840
ណី	-2841
សុ	-2842
ព្រះ	-2843
ខេ	-2844
▁कोश	-2845
inta	-2846
អ៊ូល	-2847
करण	-2848
▁pernah	-2849
▁pend	-2850
▁आपके	-2851
▁Motor	-2852
ក្សា	-2853
ជីវកម្ម	-2854
ណាក៏	-2855
▁ទោះបី	-2856
ប៉ុណ្ណ	-2857
▁đội	-2858
▁उन्हें	-2859
engah	-2860
▁पूछ	-2861
ulang	-2862
រំពឹង	-2863
▁menonton	-2864
ភាពយន្ត	-2865
ចូលរួម	-2866
▁गु	-2867
▁kiểu	-2868
កេត	-2869
▁foto	-2870
ចំ	-2871
ផ្ទាល់	-2872
រង់ចាំ	-2873
▁चाहती	-2874
▁គីម	-2875
▁put	-2876
ឯក	-2877
ump	-2878
tar	-2879
enangkan	-2880
គោល	-2881
ទាក់ទង	-2882
▁meningkat	-2883
ជំងឺ	-2884
▁tentang	-2885
នី	-2886
ប្តូរ	-2887
ूट	-2888
स्वी	-2889
វត្ថ	-2890
ឈ្នះ	-2891
▁Bagaimana	-2892
▁masih	-2893
▁कोशिश	-2894
▁मि	-2895
រាល់	-2896
▁teman	-2897
ug	-2898
nam	-2899
▁thay	-2900
គ្គល	-2901
▁जाते	-2902
asional	-2903
ami	-2904
▁ग्र	-2905
▁Bộ	-2906
ុលាការ	-2907
uta	-2908
▁Hyundai	-2909
▁तस्वी	-2910
▁mungkin	-2911
▁आइ	-2912
ជាមួយគ្នា	-2913
▁បន្ទាប់ពី	-2914
▁बिना	-2915
▁कोरियाई	-2916
▁ऊ	-2917
▁तस्वीर	-2918
▁masalah	-2919
द्र	-2920
▁lấy	-2921
anjut	-2922
▁hiệu	-2923
▁antara	-2924
▁इसका	-2925
▁sở	-2926
,"	-2927
ongk	-2928
▁giao	-2929
▁बजे	-2930
▁अमेर	-2931
▁sesuatu	-2932
▁màu	-2933
▁truy	-2934
ស្រុក	-2935
ទូ	-2936
នោះទេ។	-2937
▁pasar	-2938
ưu	-2939
▁câu	-2940
टर	-2941
ếp	-2942
▁Vào	-2943
សំខាន់	-2944
ិល	-2945
ទីនេះ	-2946
▁quay	-2947
▁सुना	-2948
កែ	-2949
▁war	-2950
▁tịch	-2951
ផង។	-2952
▁ký	-2953
ाने	-2954
ផ្លាស់	-2955
សម្រាប់ការ	-2956
▁trang	-2957
ប៉ុន្មាន	-2958
इन	-2959
ផឹក	-2960
លុយ	-2961
akit	-2962
▁hóa	-2963
ចំណាយ	-2964
▁quốc	-2965
ស៊ើប	-2966
▁merasa	-2967
▁200	-2968
តំបន់	-2969
ម្ហូប	-2970
បានល្អ	-2971
▁मत	-2972
àu	-2973
▁हर	-2974
លានវ៉ុន	-2975
पर	-2976
▁kiện	-2977
▁आए	-2978
ạy	-2979
क्षण	-2980
គម្រ	-2981
សាន	-2982
▁Selatan	-2983
tif	-2984
▁देखते	-2985
▁संग	-2986
▁merupakan	-2987
កាន់តែ	-2988
▁Men	-2989
បន្ទាប់ពី	-2990
ត៌	-2991
ប្រភេទ	-2992
ंबर	-2993
▁कप	-2994
▁13	-2995
र्च	-2996
ilang	-2997
ត៌មាន	-2998
ៀក	-2999
គាល់	-3000
▁फै	-3001
asanya	-3002
▁पार्ट	-3003
អភ	-3004
olahraga	-3005
បង	-3006
uanya	-3007
iden	-3008
andingan	-3009
▁tối	-3010
▁chiế	-3011
▁phút	-3012
▁अस	-3013
ៀន	-3014
តីត	-3015
វត្ត	-3016
▁bây	-3017
▁lâu	-3018
▁bất	-3019
ណ្តាល	-3020
▁quyền	-3021
्यालय	-3022
▁हों	-3023
ក្តី	-3024
▁trực	-3025
लेक्ट	-3026
▁serta	-3027
▁बैठ	-3028
អង្កេត	-3029
▁hoạt	-3030
យូរ	-3031
▁nhi	-3032
श्किल	-3033
।"	-3034
▁chiến	-3035
▁परि	-3036
ửi	-3037
ឆាប់	-3038
▁मुश्किल	-3039
▁मिन	-3040
គណ	-3041
▁aw	-3042
ដៅ	-3043
បោះ	-3044
មិនមាន	-3045
▁सर	-3046
ikasi	-3047
▁phạm	-3048
▁ट्र	-3049
▁និងការ	-3050
भव	-3051
▁sendiri	-3052
ustri	-3053
ốn	-3054
▁cổ	-3055
irim	-3056
▁Samsung	-3057
ខ្ញុំបាន	-3058
मेंट	-3059
▁hoạch	-3060
▁៥	-3061
▁100	-3062
▁स्कूल	-3063
តែង	-3064
▁लेकर	-3065
माण	-3066
▁đặc	-3067
អគ្គ	-3068
entar	-3069
▁bertemu	-3070
ាកដ	-3071
ुट	-3072
▁tục	-3073
ियो	-3074
▁आव	-3075
▁राष्ट	-3076
ខំ	-3077
्न	-3078
ចោទ	-3079
▁Pro	-3080
ក្លាយ	-3081
ច្បាស់	-3082
ធ្លាក់	-3083
लेक्ट्र	-3084
ting	-3085
▁nội	-3086
▁mọi	-3087
▁sulit	-3088
ple	-3089
អែក	-3090
▁kur	-3091
▁cung	-3092
ोजित	-3093
▁hướng	-3094
▁Chắc	-3095
▁thanh	-3096
គុ	-3097
▁ngoái	-3098
ुग	-3099
▁pin	-3100
ស្ល	-3101
▁tim	-3102
សេអ៊ូល	-3103
ស៊ើបអង្កេត	-3104
▁hoặc	-3105
▁tiết	-3106
फे	-3107
ខ្ស	-3108
ស្វែង	-3109
aki	-3110
▁गेम	-3111
र्फ	-3112
ej	-3113
▁ដូច្នេះហើយ	-3114
▁res	-3115
ជ្រើស	-3116
▁अव	-3117
▁माम	-3118
▁सामने	-3119
▁mạnh	-3120
រស់	-3121
dang	-3122
▁अगली	-3123
▁bermain	-3124
▁Benar	-3125
មន្ត្រី	-3126
▁प्रदर्	-3127
▁जाती	-3128
▁thoại	-3129
▁दोस्त	-3130
▁कई	-3131
ोब	-3132
▁sambil	-3133
ilai	-3134
▁phê	-3135
▁इलेक्ट्र	-3136
▁प्राप्त	-3137
ine	-3138
चित	-3139
▁sen	-3140
ध्यम	-3141
▁boleh	-3142
នាទី	-3143
▁ប្រសិនបើអ្នក	-3144
រីករ	-3145
anan	-3146
▁Bukan	-3147
▁18	-3148
ថានឹង	-3149
ầy	-3150
ូវី	-3151
▁nghệ	-3152
ukum	-3153
▁giữa	-3154
▁បើអញ្ចឹង	-3155
យ៉ាងម៉េច	-3156
័ព្ទ	-3157
sa	-3158
▁baw	-3159
▁xuống	-3160
ឆ្នាំមុន	-3161
usat	-3162
ev	-3163
ideo	-3164
▁ढ	-3165
គម្រោង	-3166
ahal	-3167
▁Setelah	-3168
▁देखना	-3169
ắp	-3170
ស្រី	-3171
▁साइ	-3172
▁hingga	-3173
▁14	-3174
▁hoàn	-3175
▁as	-3176
ិបាល	-3177
ន្	-3178
វិញ។	-3179
ảy	-3180
ait	-3181
ផ្សេងទៀត	-3182
▁कभी	-3183
▁हमारे	-3184
គុណ	-3185
វាក	-3186
शा	-3187
សម្ល	-3188
▁नी	-3189
▁हि	-3190
គម	-3191
▁भाग	-3192
ấm	-3193
▁trả	-3194
▁thuật	-3195
▁segera	-3196
unia	-3197
ajar	-3198
unya	-3199
បែក	-3200
ungi	-3201
▁16	-3202
ियोल	-3203
▁देर	-3204
▁tuần	-3205
ស្ទ	-3206
ោជន	-3207
▁ដែលបាន	-3208
▁tất	-3209
▁बिक	-3210
ដូវ	-3211
▁Apa	-3212
▁करो	-3213
uskan	-3214
ពង	-3215
uncul	-3216
ព័ត៌មាន	-3217
▁bay	-3218
ួស	-3219
ខាន	-3220
▁स्थान	-3221
▁mencoba	-3222
គ្រប់គ្រង	-3223
ងាយ	-3224
▁vòng	-3225
aka	-3226
▁जारी	-3227
▁Yo	-3228
នាយក	-3229
▁प्रो	-3230
▁Công	-3231
ចិន	-3232
រាង	-3233
▁ऐसी	-3234
▁pertandingan	-3235
▁ទៅ	-3236
▁माँ	-3237
▁dilakukan	-3238
राम	-3239
▁នៃ	-3240
óc	-3241
asikan	-3242
ाइल	-3243
antan	-3244
▁beli	-3245
▁đăng	-3246
र्थ	-3247
ष्	-3248
▁juta	-3249
នៅទីនេះ	-3250
▁tersebut	-3251
៉ង់	-3252
ប្រសិនបើ	-3253
ប្រតិបត្តិ	-3254
កើនឡើង	-3255
पस	-3256
ukup	-3257
araan	-3258
▁विभ	-3259
▁ketika	-3260
▁awal	-3261
ៀវ	-3262
uruh	-3263
ញាប់	-3264
adilan	-3265
ेन	-3266
លើស	-3267
टी	-3268
ធម	-3269
ក្រោម	-3270
្អ	-3271
वाद	-3272
ambahkan	-3273
uyện	-3274
▁thắng	-3275
▁ត្រូវ	-3276
▁सियोल	-3277
▁लंब	-3278
▁उसके	-3279
កក់	-3280
ãi	-3281
▁मी	-3282
▁ind	-3283
ép	-3284
ổng	-3285
▁sĩ	-3286
▁पहन	-3287
क्रम	-3288
▁क्षे	-3289
▁जन	-3290
▁रहेगा	-3291
form	-3292
angun	-3293
ជាមុន	-3294
ដែរឬ	-3295
ឡាន	-3296
ពិភព	-3297
សម្ត	-3298
▁ken	-3299
▁दौर	-3300
▁Hôm	-3301
កាហ្វេ	-3302
▁៤	-3303
olf	-3304
សូវ	-3305
êng	-3306
▁memas	-3307
ongkok	-3308
បស់	-3309
▁इंत	-3310
ជិត	-3311
ỉnh	-3312
▁biểu	-3313
▁Ah	-3314
▁buổi	-3315
▁तुम्हारे	-3316
រដ្ឋអាមេរិក	-3317
▁मान	-3318
ក៏បាន	-3319
ស្វែងរក	-3320
▁sehingga	-3321
▁turun	-3322
स्प	-3323
យ៉ាងណាក៏	-3324
iliar	-3325
▁ri	-3326
▁आगे	-3327
▁ប៉ុន្តែខ្ញុំ	-3328
▁देने	-3329
▁malam	-3330
tern	-3331
បញ្ចូល	-3332
ाली	-3333
▁memang	-3334
័ត	-3335
जिए	-3336
▁अला	-3337
▁ហើយបាន	-3338
▁पार्क	-3339
हन	-3340
atih	-3341
anc	-3342
श्य	-3343
▁करूँगा	-3344
मुख	-3345
umlah	-3346
▁Qu	-3347
vest	-3348
▁gửi	-3349
ặng	-3350
▁hiểu	-3351
ដែរទេ	-3352
ផ្គ	-3353
ोर्ट	-3354
ព្រឹក	-3355
▁Namun	-3356
▁कल	-3357
दिष्ट	-3358
▁गा	-3359
▁Chị	-3360
ស្សាហ	-3361
▁लेने	-3362
សុខ	-3363
▁កំពុង	-3364
▁बन	-3365
សាស	-3366
शी	-3367
ोध	-3368
ឧស្សាហ	-3369
នៅថ្ងៃទី	-3370
▁lẽ	-3371
▁nhập	-3372
▁setiap	-3373
ជ្រើសរើស	-3374
▁जाकर	-3375
▁នោះ	-3376
▁Lần	-3377
វេល	-3378
ត្រូវបានគេ	-3379
បក្ស	-3380
▁muncul	-3381
រាជ	-3382
▁pikir	-3383
▁वैसे	-3384
▁vật	-3385
▁पहु	-3386
ប្រកាន់	-3387
លទ្ធ	-3388
▁par	-3389
▁video	-3390
▁अनुसार	-3391
तान	-3392
▁agar	-3393
ẫu	-3394
▁miliar	-3395
द्योग	-3396
▁आयोजित	-3397
▁दोनों	-3398
re	-3399
▁इतना	-3400
តាមរយៈ	-3401
ស្គាល់	-3402
▁mencari	-3403
▁tinggi	-3404
ន្យ	-3405
▁cà	-3406
ovid	-3407
ារ្យ	-3408
▁lay	-3409
ृत	-3410
▁देखा	-3411
ុច	-3412
uduk	-3413
▁Walau	-3414
▁kedua	-3415
▁bagian	-3416
▁माध्यम	-3417
ौन	-3418
▁Baik	-3419
ថតរូប	-3420
▁अलावा	-3421
▁यात्रा	-3422
▁chế	-3423
គ្រោះ	-3424
▁शामिल	-3425
ằm	-3426
▁đừng	-3427
▁Tiongkok	-3428
ធម៌	-3429
▁lap	-3430
▁नाम	-3431
ាហ៍	-3432
▁mengambil	-3433
អេស	-3434
សុំ	-3435
▁आराम	-3436
▁थोड़ी	-3437
កម្រ	-3438
▁चाहते	-3439
▁क्षेत्र	-3440
▁25	-3441
▁xác	-3442
ानीय	-3443
ेड	-3444
សម្រាក	-3445
▁बच	-3446
▁សម្រាប់	-3447
▁ओर	-3448
hati	-3449
▁काफी	-3450
▁listrik	-3451
▁bài	-3452
▁संबंध	-3453
ការប្រកួត	-3454
तने	-3455
ធ្ង	-3456
▁rõ	-3457
▁Ket	-3458
▁rộng	-3459
▁जैसा	-3460
ទូរស័ព្ទ	-3461
▁बदल	-3462
ញុំា	-3463
▁dung	-3464
engar	-3465
▁50	-3466
ត្រូវការ	-3467
▁Cái	-3468
៊ីន	-3469
ភ្	-3470
▁chăm	-3471
អាចធ្វើ	-3472
nis	-3473
▁Ngh	-3474
▁स्वादिष्ट	-3475
គាំ	-3476
▁Ho	-3477
दार	-3478
▁ឆ	-3479
हर	-3480
▁tok	-3481
▁ghi	-3482
▁ដ	-3483
▁ia	-3484
ការងារ	-3485
េន	-3486
▁mặc	-3487
ណា។	-3488
▁Saat	-3489
▁angg	-3490
ពិន្ទ	-3491
▁Apple	-3492
▁jalan	-3493
ឧប	-3494
▁tàu	-3495
ចម្រ	-3496
तनी	-3497
▁tranh	-3498
▁phiên	-3499
▁परी	-3500
▁As	-3501
▁áo	-3502
▁barang	-3503
▁xin	-3504
▁Meskipun	-3505
▁trị	-3506
▁kons	-3507
ប្រឹង	-3508
्रीय	-3509
ho	-3510
artai	-3511
ប្រាណ	-3512
▁होते	-3513
▁ड्र	-3514
▁लेते	-3515
▁sebelumnya	-3516
ប្រព័ន្ធ	-3517
estoran	-3518
របស់គាត់	-3519
ri	-3520
▁bekerja	-3521
ऊँगा	-3522
ជាដើម	-3523
▁bệnh	-3524
កណ្តាល	-3525
▁belum	-3526
▁Ber	-3527
lihat	-3528
▁छोड़	-3529
រោង	-3530
▁lạc	-3531
▁अगले	-3532
ពិភពលោក	-3533
enal	-3534
▁beberapa	-3535
▁pos	-3536
▁sebentar	-3537
▁Itu	-3538
▁आने	-3539
ायद	-3540
▁chờ	-3541
▁चीज	-3542
erint	-3543
▁toán	-3544
▁छा	-3545
▁dân	-3546
ែត	-3547
▁सू	-3548
▁kelas	-3549
ខ្លួនឯង	-3550
▁भुग	-3551
ថ្ន	-3552
▁आरो	-3553
▁giữ	-3554
ement	-3555
ចេញមក	-3556
គាំទ្រ	-3557
▁អ៊	-3558
▁ngồi	-3559
ចែក	-3560
▁មែន	-3561
▁Được	-3562
ចោទប្រកាន់	-3563
បាល់	-3564
तार	-3565
▁sách	-3566
▁Tolong	-3567
li	-3568
ựu	-3569
सूस	-3570
▁Với	-3571
នោះទេ	-3572
តំណ	-3573
ចូលទៅ	-3574
म्	-3575
▁terlebih	-3576
राब	-3577
▁भुगतान	-3578
▁menit	-3579
▁mi	-3580
▁đốc	-3581
រំល	-3582
ហ្នឹងហើយ	-3583
▁hộ	-3584
▁bình	-3585
▁khai	-3586
ស័យ	-3587
▁phân	-3588
▁cukup	-3589
រវ	-3590
▁वापस	-3591
យុ	-3592
▁chứng	-3593
ona	-3594
▁आया	-3595
▁cử	-3596
▁प्	-3597
▁nghi	-3598
▁पर्	-3599
kannya	-3600
▁नए	-3601
▁Peng	-3602
▁គឺជា	-3603
វិទ្យាល័យ	-3604
ឺត	-3605
▁tòa	-3606
ឥឡូវនេះ	-3607
ឆ្លង	-3608
▁terj	-3609
គ្គលិក	-3610
टल	-3611
▁dựng	-3612
ៗ។	-3613
ज़ार	-3614
▁tiện	-3615
▁छोट	-3616
▁टीम	-3617
ektur	-3618
▁thuộc	-3619
▁kerja	-3620
ចក្រ	-3621
ेशा	-3622
▁ता	-3623
▁khusus	-3624
▁lòng	-3625
លើការ	-3626
▁semuanya	-3627
▁នេះ	-3628
adakan	-3629
ហៅ	-3630
បានជា	-3631
សាន្ត	-3632
ស្រាយ	-3633
▁dunia	-3634
▁tuyển	-3635
▁महसूस	-3636
बू	-3637
▁air	-3638
▁2019	-3639
▁luật	-3640
▁ma	-3641
रूरत	-3642
▁Theo	-3643
ពន្យ	-3644
ពន្ធ	-3645
ភិបាល	-3646
ुल	-3647
ធ្វើឱ្យ	-3648
▁ई	-3649
បាច់	-3650
▁perlu	-3651
▁terh	-3652
▁trời	-3653
▁जिसे	-3654
ដាយ	-3655
ॉप	-3656
▁मूल	-3657
ីស	-3658
usi	-3659
▁ternyata	-3660
ឌ្	-3661
entuk	-3662
អភិ	-3663
ប្រកាស	-3664
▁tương	-3665
▁हमेशा	-3666
▁Ada	-3667
▁चला	-3668
▁sering	-3669
▁tội	-3670
▁thúc	-3671
▁ô	-3672
▁phán	-3673
aksa	-3674
ंक	-3675
acara	-3676
លើកទី	-3677
awatir	-3678
▁इसकी	-3679
រហូតដល់	-3680
▁बच्च	-3681
ियर	-3682
▁स्थिति	-3683
▁vô	-3684
▁mùa	-3685
ói	-3686
▁आई	-3687
▁trạng	-3688
गर	-3689
uah	-3690
▁buộc	-3691
▁truyền	-3692
ថាម	-3693
ुआ	-3694
ឌ្ឍ	-3695
बी	-3696
ोषण	-3697
akin	-3698
ses	-3699
ិយោគ	-3700
▁restoran	-3701
▁कैसे	-3702
gr	-3703
▁पार्टी	-3704
▁đợi	-3705
▁tổng	-3706
យ៉ាងណាក៏ដោយ	-3707
▁ទើប	-3708
ទាត់	-3709
▁मिनट	-3710
របស់ខ្លួន	-3711
យោ	-3712
▁dục	-3713
សហរដ្ឋអាមេរិក	-3714
▁कें	-3715
▁तीन	-3716
ទាន់	-3717
▁mengg	-3718
▁musim	-3719
អាជីវកម្ម	-3720
▁St	-3721
▁याद	-3722
▁terkait	-3723
▁आरोप	-3724
▁mong	-3725
សូ	-3726
▁chiếc	-3727
អ៊ីន	-3728
ប្រាកដ	-3729
▁रंग	-3730
ផងដែរ	-3731
▁dulu	-3732
▁lakukan	-3733
ॉक	-3734
िम	-3735
isa	-3736
ខ្សែ	-3737
uru	-3738
▁khí	-3739
antor	-3740
▁सारे	-3741
जू	-3742
វឌ្ឍ	-3743
រីករាយ	-3744
esai	-3745
▁បើសិន	-3746
▁Sek	-3747
masuk	-3748
▁2018	-3749
▁मन	-3750
usia	-3751
▁vọng	-3752
residen	-3753
▁riêng	-3754
ធាត	-3755
▁đáng	-3756
▁निवेश	-3757
▁LG	-3758
áu	-3759
बा	-3760
▁giống	-3761
▁menambahkan	-3762
ទេឬ	-3763
▁सिर्फ	-3764
▁dài	-3765
▁ổ	-3766
सर	-3767
aikan	-3768
ulis	-3769
ដោះ	-3770
▁pan	-3771
▁17	-3772
▁nghiệm	-3773
त्व	-3774
▁दा	-3775
▁रो	-3776
▁hidup	-3777
រាជអាជ្ញ	-3778
នៅថ្ងៃ	-3779
▁Tổng	-3780
ក្នុងស្រុក	-3781
▁स्प	-3782
សនី	-3783
▁lỗi	-3784
តុលាការ	-3785
អ្វីដែល	-3786
ធ្វើដំណើរ	-3787
▁Kita	-3788
▁hukum	-3789
▁जहाँ	-3790
कारी	-3791
▁अध्य	-3792
▁उत्पादन	-3793
antai	-3794
្វាន់	-3795
unjukkan	-3796
▁Oh	-3797
▁क्र	-3798
ilis	-3799
बह	-3800
isata	-3801
វិនិយោគ	-3802
ैंड	-3803
ន័យ	-3804
▁menar	-3805
ồm	-3806
ohon	-3807
▁trợ	-3808
▁24	-3809
្បន	-3810
िली	-3811
រដូវ	-3812
ứa	-3813
ឈប់	-3814
ប្រជា	-3815
ំនង	-3816
▁senang	-3817
▁Chủ	-3818
uhkan	-3819
▁संय	-3820
កុំ	-3821
▁cô	-3822
etah	-3823
ची	-3824
▁tel	-3825
▁sejak	-3826
30	-3827
គូ	-3828
emen	-3829
តាំងពី	-3830
សម្តែង	-3831
▁ổn	-3832
ល្បង	-3833
ស្ថានភាព	-3834
tron	-3835
▁karya	-3836
▁सामान	-3837
▁termasuk	-3838
ឃឹម	-3839
ប៊ី	-3840
ថាមពល	-3841
ूंगा	-3842
្ចុប	-3843
ពិន្ទុ	-3844
▁सर्व	-3845
បារម្ភ	-3846
្ចុប្បន	-3847
▁đoàn	-3848
्ञ	-3849
▁पो	-3850
▁chia	-3851
▁प्रवेश	-3852
▁कठ	-3853
ihak	-3854
▁मज़	-3855
▁masa	-3856
ល្អ។	-3857
▁Ô	-3858
▁To	-3859
▁संप	-3860
▁प्रमुख	-3861
ồng	-3862
▁वै	-3863
អាវ	-3864
▁खाते	-3865
र्न	-3866
वास	-3867
ព្យាយ	-3868
jualan	-3869
ít	-3870
jual	-3871
មិត្តភ	-3872
សមាជ	-3873
ượu	-3874
▁बो	-3875
ទៅកាន់	-3876
▁बिक्री	-3877
▁hồi	-3878
▁sân	-3879
▁chạy	-3880
វាជា	-3881
▁văn	-3882
▁គ្រ	-3883
कद	-3884
▁vệ	-3885
▁càng	-3886
▁जु	-3887
ជម្រ	-3888
▁gồm	-3889
▁toko	-3890
▁पक्ष	-3891
▁मुख	-3892
लेट	-3893
អភិវឌ្ឍ	-3894
।'	-3895
▁chẳng	-3896
धान	-3897
▁-	-3898
▁nhờ	-3899
▁sakit	-3900
▁dạo	-3901
▁न्या	-3902
ताओं	-3903
▁किस	-3904
សមាជិក	-3905
ort	-3906
តោះ	-3907
▁berencana	-3908
▁गो	-3909
▁khởi	-3910
धी	-3911
លក្ខ	-3912
▁đằng	-3913
वें	-3914
▁menerima	-3915
ធម្មតា	-3916
ukai	-3917
▁lợi	-3918
បញ្ហា	-3919
▁xây	-3920
▁शायद	-3921
कल	-3922
េក	-3923
ुनिया	-3924
pada	-3925
▁phụ	-3926
utama	-3927
lec	-3928
▁terp	-3929
ផ្លាស់ប្តូរ	-3930
▁belajar	-3931
▁लेना	-3932
ics	-3933
▁trò	-3934
▁मार्	-3935
ilakan	-3936
'.	-3937
▁Jae	-3938
▁menyenangkan	-3939
▁vốn	-3940
▁बाजार	-3941
▁जिसमें	-3942
▁phi	-3943
ត្រង់	-3944
▁दिखा	-3945
▁ទោះបីជា	-3946
let	-3947
माल	-3948
▁Menurut	-3949
▁quý	-3950
▁तुमने	-3951
atif	-3952
▁Han	-3953
▁Iya	-3954
uku	-3955
▁अंदर	-3956
ij	-3957
តារ	-3958
▁lihat	-3959
edia	-3960
▁diri	-3961
▁rượu	-3962
▁पूरी	-3963
ទ្ធិ	-3964
Ch	-3965
▁đứng	-3966
▁នៅថ្ងៃទី	-3967
▁,	-3968
चाल	-3969
▁Ở	-3970
▁mantan	-3971
លើកដំបូង	-3972
▁diện	-3973
▁21	-3974
ព្យាយាម	-3975
ព្រះរាជអាជ្ញ	-3976
ស្រ្ត	-3977
▁Do	-3978
▁Dạo	-3979
▁warna	-3980
सम	-3981
▁menunggu	-3982
won	-3983
ណ្ឋ	-3984
បាត់	-3985
ụi	-3986
▁pekerja	-3987
ំហំ	-3988
▁kecil	-3989
▁luyện	-3990
ogi	-3991
▁cực	-3992
asaan	-3993
▁ដូច្នេះខ្ញុំ	-3994
iz	-3995
▁nya	-3996
▁दौरान	-3997
បន្ទាប់	-3998
wang	-3999
▁यू	-4000
umb	-4001
សមុ	-4002
ជាន់	-4003
្ត្រ	-4004
enarnya	-4005
हां	-4006
ចាស់	-4007
▁बढ़ा	-4008
▁da	-4009
▁dễ	-4010
▁ओह	-4011
ាភិបាល	-4012
អតីត	-4013
▁bat	-4014
▁tên	-4015
▁chuyên	-4016
▁Ngo	-4017
▁hạn	-4018
ិយាល័យ	-4019
ធ្វើឡើង	-4020
डियो	-4021
ẹn	-4022
utuskan	-4023
▁इसमें	-4024
មកពី	-4025
▁Tuy	-4026
▁giác	-4027
ណាត់ថ្នាក់	-4028
ាក់ទំនង	-4029
inggu	-4030
▁कंपन	-4031
▁सेवा	-4032
សាកល្បង	-4033
anjang	-4034
ឲ្យបាន	-4035
ការព	-4036
▁mai	-4037
▁berjalan	-4038
ប្រស	-4039
ពេលវេល	-4040
▁इस्ते	-4041
ផ្ញ	-4042
▁हाला	-4043
▁इस्तेमाल	-4044
▁(2	-4045
▁kej	-4046
▁पुल	-4047
▁nanti	-4048
ក្មេ	-4049
▁bir	-4050
សមុទ្រ	-4051
្ចុប្បន្ន	-4052
ite	-4053
▁शा	-4054
▁स्थाप	-4055
សង់	-4056
धिक	-4057
▁ख़	-4058
िक्स	-4059
▁đạt	-4060
▁nhớ	-4061
र्त	-4062
ភ្លើង	-4063
ឡើងវិញ	-4064
▁Elec	-4065
▁इं	-4066
ឡើយ។	-4067
អគ្គិ	-4068
▁प्रदर्शन	-4069
ឺន	-4070
har	-4071
លើកនេះ	-4072
អនុវត្ត	-4073
erah	-4074
▁Covid	-4075
▁belak	-4076
▁तैयार	-4077
▁1,	-4078
▁tak	-4079
▁रात	-4080
អាយុ	-4081
បាននិយាយថា	-4082
កុ	-4083
▁पहुँच	-4084
តែមួយ	-4085
របស់ក្រុមហ៊ុន	-4086
▁tangan	-4087
▁membawa	-4088
▁puk	-4089
▁तुर	-4090
ទំ	-4091
▁Đây	-4092
▁अन्य	-4093
▁व्यव	-4094
▁jumlah	-4095
គំន	-4096
▁អាច	-4097
▁nhỏ	-4098
ា។	-4099
ព្រឹ	-4100
▁सुर	-4101
▁ប្រហែលជា	-4102
ira	-4103
awan	-4104
ក្មេង	-4105
▁giáo	-4106
េរ	-4107
នៅតែ	-4108
ថ្នាំ	-4109
▁rasa	-4110
មានភាព	-4111
eta	-4112
▁ចឹង	-4113
▁thao	-4114
▁Ak	-4115
धि	-4116
adap	-4117
កម្រិត	-4118
▁selalu	-4119
ដែរឬទេ	-4120
ភ័យ	-4121
ुक्त	-4122
របស់យើង	-4123
អប់	-4124
▁kend	-4125
▁negeri	-4126
ekan	-4127
▁harga	-4128
ឧស្សាហកម្ម	-4129
▁बड़े	-4130
▁चीज़	-4131
ឡុង	-4132
itah	-4133
▁ku	-4134
▁ចង់	-4135
ប្រជុំ	-4136
▁तुरंत	-4137
otel	-4138
ोषणा	-4139
ូវីដ	-4140
aksaan	-4141
សកម្ម	-4142
▁ngủ	-4143
▁ज़्यादा	-4144
▁लिख	-4145
▁घोषणा	-4146
▁menyel	-4147
▁इससे	-4148
យ៉ាងម៉េចដែរ	-4149
खा	-4150
▁cá	-4151
▁chất	-4152
មិនសូវ	-4153
किंग	-4154
រង្វាន់	-4155
▁sebuah	-4156
ករណ៍	-4157
udian	-4158
▁biển	-4159
▁cạnh	-4160
តិច	-4161
▁phủ	-4162
▁cứu	-4163
▁ពិតជា	-4164
ខ្លាំងណាស់។	-4165
▁duduk	-4166
ख्या	-4167
នៅខាង	-4168
▁biaya	-4169
▁sekolah	-4170
िटी	-4171
▁पुलिस	-4172
ोस	-4173
▁cựu	-4174
▁देश	-4175
▁पूरा	-4176
ॉड	-4177
ेंड	-4178
ធារ	-4179
▁berbeda	-4180
ទំនាក់ទំនង	-4181
▁penjualan	-4182
▁वी	-4183
▁memesan	-4184
▁agak	-4185
▁nghìn	-4186
ង្វ	-4187
▁ngành	-4188
ra	-4189
▁kể	-4190
▁memp	-4191
▁ថ្ងៃនេះ	-4192
ខ្លាំងណាស់	-4193
▁So	-4194
▁kal	-4195
▁केंद्र	-4196
▁He	-4197
uler	-4198
▁पढ़	-4199
លទ្ធផល	-4200
ធ្វើឲ្យ	-4201
ekat	-4202
ជីវិត	-4203
សោ	-4204
▁Ag	-4205
▁kom	-4206
▁mục	-4207
គ្នា។	-4208
▁jangan	-4209
वार	-4210
विड	-4211
ក្រោយ។	-4212
▁सुंदर	-4213
ensi	-4214
ំពូល	-4215
គណបក្ស	-4216
រដ្ឋាភិបាល	-4217
▁उसने	-4218
ungguh	-4219
▁thẩm	-4220
se	-4221
वाई	-4222
ទោះ	-4223
ប្តាហ៍	-4224
អង្គុយ	-4225
वरी	-4226
អាកាស	-4227
▁៦	-4228
លើសពី	-4229
ត្រជាក់	-4230
óm	-4231
olisi	-4232
▁ស៊	-4233
ikut	-4234
▁पार	-4235
ពាក់ព័ន្ធ	-4236
បរិ	-4237
dara	-4238
ព្រម	-4239
otte	-4240
ករណី	-4241
▁विस्त	-4242
ប័	-4243
▁khả	-4244
▁thiệu	-4245
बर	-4246
ếm	-4247
▁bisnis	-4248
ប្រសើរ	-4249
▁Dia	-4250
ឡូ	-4251
▁keh	-4252
▁विक	-4253
▁विदेश	-4254
▁ខែ	-4255
▁negara	-4256
អគ្គិសនី	-4257
्रेड	-4258
ជញ្	-4259
បាល	-4260
▁phục	-4261
úi	-4262
▁vé	-4263
ចាក់	-4264
▁लोक	-4265
PG	-4266
िज	-4267
्त	-4268
▁Won	-4269
▁lok	-4270
▁bánh	-4271
esla	-4272
ចរណ៍	-4273
បែបហ្នឹង	-4274
បញ្ជាក់	-4275
▁Bukankah	-4276
ọc	-4277
eja	-4278
▁biasa	-4279
ॉन्	-4280
▁दु	-4281
ភ្នែក	-4282
▁ដូចជា	-4283
▁ơn	-4284
▁Selain	-4285
មកដល់	-4286
▁सुबह	-4287
ដឹកនាំ	-4288
ល្បី	-4289
យូ	-4290
usaha	-4291
▁luận	-4292
▁mengen	-4293
मस	-4294
ិការ	-4295
▁जल्द	-4296
▁pakai	-4297
▁ប៉	-4298
auh	-4299
eok	-4300
omor	-4301
▁man	-4302
▁sebelah	-4303
គណៈ	-4304
▁eks	-4305
▁hạng	-4306
សង្ឃឹម	-4307
▁mod	-4308
▁Thật	-4309
▁selesai	-4310
all	-4311
aris	-4312
▁कीमत	-4313
យ៉ាងណា	-4314
ans	-4315
▁En	-4316
ल्ड	-4317
▁ហ្នឹងហើយ	-4318
ចំណាត់ថ្នាក់	-4319
▁kasus	-4320
ួង	-4321
▁गल	-4322
▁perc	-4323
ពេលដែល	-4324
▁berpikir	-4325
▁मेहन	-4326
ជូ	-4327
សាធារ	-4328
▁ពាន់	-4329
ក្លាយជា	-4330
▁ऑफ	-4331
▁ឯង	-4332
▁bawah	-4333
▁SK	-4334
▁खुद	-4335
▁परिव	-4336
▁អ្នកអាច	-4337
erintah	-4338
▁daripada	-4339
▁ob	-4340
▁आक	-4341
ធាតុ	-4342
रण	-4343
epang	-4344
ingat	-4345
វិទ្យា	-4346
ម្តងទៀត	-4347
▁áp	-4348
ដាច់	-4349
▁dưới	-4350
ឧបករណ៍	-4351
អរ	-4352
ថែម	-4353
ប្រុស	-4354
▁situ	-4355
▁nyaman	-4356
រល	-4357
យ្យ	-4358
▁समा	-4359
▁निर्माण	-4360
▁olahraga	-4361
ger	-4362
▁दर	-4363
▁menu	-4364
ឱ្យបាន	-4365
▁katanya	-4366
▁kendaraan	-4367
▁pop	-4368
▁Đảng	-4369
ស្ង	-4370
▁thú	-4371
▁berapa	-4372
ជាងគេ	-4373
▁बंद	-4374
កាយ	-4375
ស្ថ	-4376
▁चिं	-4377
▁स्टोर	-4378
▁hasil	-4379
▁memakai	-4380
ផែន	-4381
▁आता	-4382
▁Electron	-4383
▁giả	-4384
लना	-4385
▁Jin	-4386
▁बड़ी	-4387
កីឡាករ	-4388
बॉल	-4389
िकी	-4390
▁អត់	-4391
लों	-4392
▁đa	-4393
▁कौन	-4394
▁Viện	-4395
▁होना	-4396
ठा	-4397
ការពារ	-4398
▁tưởng	-4399
▁e	-4400
सान	-4401
ំបុ	-4402
▁Nhật	-4403
ព្វផ្សាយ	-4404
ប្រទេសកូរ៉េ	-4405
▁nam	-4406
សណ្ឋ	-4407
▁पानी	-4408
▁मेहनत	-4409
ផ្សព្វផ្សាយ	-4410
េញ	-4411
▁viện	-4412
ហាត់ប្រាណ	-4413
▁terkenal	-4414
ie	-4415
រសជាតិ	-4416
ចេក	-4417
▁mẫu	-4418
▁सै	-4419
▁Pertama	-4420
▁भर	-4421
▁bàn	-4422
ចេញពី	-4423
▁terhadap	-4424
ubah	-4425
▁kek	-4426
▁Dir	-4427
▁मोट	-4428
▁keras	-4429
▁hub	-4430
▁अध्यक्ष	-4431
▁cara	-4432
▁str	-4433
ibu	-4434
▁mưa	-4435
▁फैस	-4436
ेंस	-4437
िकास	-4438
▁hẹn	-4439
▁hưởng	-4440
ែរ	-4441
▁sang	-4442
▁Kang	-4443
▁Khi	-4444
▁tek	-4445
ភ្លៀង	-4446
पूर्	-4447
▁chú	-4448
វាកម្ម	-4449
ិញ	-4450
▁करेगा	-4451
dur	-4452
िकन	-4453
▁सीट	-4454
▁मुकद	-4455
▁ខ្ញុំពិតជា	-4456
សាង	-4457
▁តើមាន	-4458
ីយដ្ឋាន	-4459
▁peringkat	-4460
ឡា	-4461
ៀម	-4462
kirakan	-4463
ail	-4464
ទំហំ	-4465
▁Ban	-4466
ẩu	-4467
▁sư	-4468
ंटर	-4469
▁Jung	-4470
ớm	-4471
▁kamar	-4472
▁डाल	-4473
▁पड़	-4474
▁gắng	-4475
▁अभियोजन	-4476
iệp	-4477
enis	-4478
ផ្សេងៗ	-4479
ួច	-4480
▁यून	-4481
ទៅវិញ	-4482
ाइड	-4483
យឺត	-4484
ពីបទ	-4485
▁जाप	-4486
▁punya	-4487
▁đóng	-4488
▁कार्ड	-4489
កត់	-4490
antik	-4491
ទាំងពីរ	-4492
aham	-4493
បនោះ	-4494
antu	-4495
▁Baiklah	-4496
▁Katanya	-4497
១០	-4498
केट	-4499
arakan	-4500
្ចេក	-4501
▁thuốc	-4502
▁trẻ	-4503
▁फोन	-4504
▁nomor	-4505
विधा	-4506
▁राज	-4507
▁chân	-4508
ធ្វើវា	-4509
ពិនិត្យមើល	-4510
ologi	-4511
िफ	-4512
តូច	-4513
ऊँगी	-4514
តម្រ	-4515
▁tận	-4516
▁Untuk	-4517
▁kr	-4518
▁आन	-4519
ធ្ងន់	-4520
टा	-4521
▁anggota	-4522
sek	-4523
▁2020	-4524
ឈឺ	-4525
▁Các	-4526
ंगा	-4527
▁डेट	-4528
វិភាគ	-4529
▁होटल	-4530
ខិត	-4531
▁प्या	-4532
▁តើយើង	-4533
▁bilang	-4534
ជុំវិញ	-4535
▁of	-4536
▁आधार	-4537
▁Lotte	-4538
ខាត	-4539
០០០	-4540
▁lainnya	-4541
▁pelangg	-4542
▁कार्यक्रम	-4543
▁बड़ा	-4544
▁kasih	-4545
▁terbaik	-4546
▁ម	-4547
▁đá	-4548
▁sớm	-4549
សប្តាហ៍	-4550
idikan	-4551
▁Electronics	-4552
ដិ	-4553
ស្ច	-4554
▁Người	-4555
▁Pen	-4556
▁nghị	-4557
បុគ្គលិក	-4558
▁Presiden	-4559
▁Ol	-4560
श्यक	-4561
▁mệt	-4562
▁produksi	-4563
▁រួម	-4564
▁pagi	-4565
▁उद्योग	-4566
oin	-4567
និញ	-4568
ឆាំង	-4569
ពាន	-4570
▁memutuskan	-4571
▁Min	-4572
▁chung	-4573
ेक	-4574
សមត្ថ	-4575
▁danh	-4576
ard	-4577
▁Da	-4578
▁जंग	-4579
រោងចក្រ	-4580
स्टर	-4581
angkat	-4582
▁nhiệm	-4583
▁Jepang	-4584
▁phố	-4585
នឹងការ	-4586
एस	-4587
ाइव	-4588
▁बज	-4589
▁Son	-4590
▁dạng	-4591
ាយការណ៍	-4592
ជប៉ុន	-4593
▁चार	-4594
▁កីឡ	-4595
▁chịu	-4596
▁सफ	-4597
មិនអី	-4598
▁bertanya	-4599
សល់	-4600
adan	-4601
▁quản	-4602
ज्ञ	-4603
etahui	-4604
▁Tesla	-4605
អន	-4606
▁भेज	-4607
▁ដែលមាន	-4608
ចាប់ពី	-4609
▁menarik	-4610
▁១០	-4611
សិន។	-4612
▁ពួកគេ	-4613
हार	-4614
▁Bản	-4615
▁kap	-4616
▁जित	-4617
▁शुरुआ	-4618
▁घंट	-4619
▁ហេតុ	-4620
min	-4621
ាគារ	-4622
▁तरी	-4623
▁Yoon	-4624
ook	-4625
▁सप्	-4626
ចំណោម	-4627
ម៉ូ	-4628
पूर्ण	-4629
▁मिलियन	-4630
ស្ចារ្យ	-4631
ष्ठ	-4632
arap	-4633
▁melihatnya	-4634
ទីក្រុងសេអ៊ូល	-4635
▁bọn	-4636
ve	-4637
jin	-4638
esti	-4639
ភោជន	-4640
▁Bây	-4641
▁दूसरी	-4642
▁चिंता	-4643
▁nguyên	-4644
▁gây	-4645
តែងតែ	-4646
▁tuyệt	-4647
▁តើខ្ញុំអាច	-4648
▁वो	-4649
វានៅ	-4650
្ឆ	-4651
▁À	-4652
▁berada	-4653
ុញ	-4654
▁kỹ	-4655
ម៉ាស	-4656
ហាក់	-4657
▁sạn	-4658
▁semakin	-4659
▁បើអ៊ីចឹង	-4660
ूड	-4661
ahat	-4662
ត្រី	-4663
▁Gang	-4664
▁cantik	-4665
▁terjadi	-4666
▁Ngoài	-4667
चे	-4668
▁coc	-4669
▁Kep	-4670
▁27	-4671
utan	-4672
ingan	-4673
▁जाएँ	-4674
▁sur	-4675
▁Ut	-4676
▁សូ	-4677
▁मुख्य	-4678
▁uj	-4679
▁आवश्यक	-4680
សម្រេចចិត្ត	-4681
▁Je	-4682
▁Hình	-4683
umumkan	-4684
aut	-4685
▁पुर	-4686
▁kont	-4687
ប្	-4688
កាត	-4689
ियाँ	-4690
formasi	-4691
▁penting	-4692
▁धन	-4693
otal	-4694
ស្បែក	-4695
bu	-4696
ដែង	-4697
ទំនិញ	-4698
មិនដឹង	-4699
▁पे	-4700
esok	-4701
ពេលនេះ	-4702
គេង	-4703
▁đứa	-4704
▁विश्	-4705
▁होंगे	-4706
សមត្ថភាព	-4707
एं	-4708
ពុក	-4709
▁22	-4710
ingk	-4711
ជារឿង	-4712
▁tượng	-4713
▁सरकार	-4714
▁Direktur	-4715
▁៧	-4716
ोना	-4717
osi	-4718
▁अत	-4719
ទីនោះ	-4720
ស្អែក	-4721
▁xếp	-4722
ភ្ញ	-4723
▁1.	-4724
▁आपने	-4725
ភោជនីយដ្ឋាន	-4726
សេវាកម្ម	-4727
▁इलेक्ट्रिक	-4728
Th	-4729
▁lã	-4730
▁lưu	-4731
▁आकर्ष	-4732
▁विस्तार	-4733
ãn	-4734
चर	-4735
មែន។	-4736
ព្វថ្ងៃនេះ	-4737
▁कब	-4738
olar	-4739
▁अधिकार	-4740
ạp	-4741
▁23	-4742
ujan	-4743
▁utama	-4744
សិក្សា	-4745
▁uk	-4746
សរសេ	-4747
agu	-4748
ុល្ល	-4749
ចាប់អារម្មណ៍	-4750
ex	-4751
ក្តិ	-4752
បំពាក់	-4753
▁memberi	-4754
बल	-4755
ដែលអាច	-4756
अप	-4757
▁suy	-4758
វ៉ាន់	-4759
▁स्थानीय	-4760
साय	-4761
▁दुनिया	-4762
epon	-4763
▁chương	-4764
▁सद	-4765
▁Mar	-4766
ថាក	-4767
▁मद	-4768
ក្តៅ	-4769
ឆ្លើយ	-4770
▁tert	-4771
ក្រស	-4772
लो	-4773
yung	-4774
អស្ចារ្យ	-4775
चना	-4776
▁जीवन	-4777
▁40	-4778
▁nhạc	-4779
engg	-4780
▁khawatir	-4781
ដឹកជញ្	-4782
រស់នៅ	-4783
▁hati	-4784
▁कितना	-4785
▁विकास	-4786
ប្រតិបត្តិការ	-4787
▁कैसा	-4788
▁बनाने	-4789
ិភាព	-4790
▁panas	-4791
▁रेस्ट	-4792
កម្សាន្ត	-4793
ỡng	-4794
▁tamb	-4795
▁Walaupun	-4796
▁डे	-4797
ation	-4798
▁संपर्क	-4799
▁झ	-4800
ल्स	-4801
▁कठिन	-4802
▁देते	-4803
vestasi	-4804
▁នៅពេលដែល	-4805
▁rek	-4806
ខាងជើង	-4807
▁खिलाड़ी	-4808
टन	-4809
▁industri	-4810
▁berikan	-4811
ដាប់	-4812
▁Utara	-4813
▁chiếu	-4814
▁अभियोज	-4815
चान	-4816
▁Ar	-4817
ोबाइल	-4818
▁tidur	-4819
ឡប់	-4820
arus	-4821
▁मदद	-4822
▁देता	-4823
ថ្មីៗ	-4824
▁nghĩa	-4825
▁salah	-4826
គណៈកម្ម	-4827
जर	-4828
▁កុំ	-4829
शिया	-4830
▁ផាក	-4831
ំបុត្រ	-4832
▁tengah	-4833
ឈម	-4834
akim	-4835
▁mari	-4836
កាស	-4837
និយម	-4838
កំ	-4839
▁(1	-4840
ិជ្ជ	-4841
ោងនឹង	-4842
ប៉ុន្តែ	-4843
kon	-4844
▁सप्ता	-4845
ft	-4846
បែរ	-4847
ल्फ	-4848
▁ब्ल	-4849
प्रिय	-4850
▁देना	-4851
ungkapkan	-4852
▁कहाँ	-4853
▁layanan	-4854
▁hỗ	-4855
ikuti	-4856
ដឹកជញ្ជូន	-4857
▁28	-4858
िक्ष	-4859
ពង្រី	-4860
▁វាជា	-4861
ទេសចរណ៍	-4862
▁bukankah	-4863
adw	-4864
▁26	-4865
aknya	-4866
ោងតាម	-4867
▁đình	-4868
ាណិជ្ជ	-4869
istem	-4870
▁golf	-4871
esaikan	-4872
alis	-4873
▁pes	-4874
▁कला	-4875
istir	-4876
ចំណាយពេល	-4877
▁लोकप्रिय	-4878
ជ័យ	-4879
▁lễ	-4880
▁भोजन	-4881
បានហើយ។	-4882
▁2017	-4883
▁khẩu	-4884
▁perm	-4885
प्प	-4886
udi	-4887
ូរ៉	-4888
▁लाग	-4889
ាធិការ	-4890
▁mengaj	-4891
िता	-4892
សក់	-4893
angi	-4894
▁hujan	-4895
▁संख्या	-4896
ំបាក	-4897
ត្រឡប់	-4898
ចាំបាច់	-4899
ox	-4900
one	-4901
▁जीत	-4902
▁बोल	-4903
ដែលមិន	-4904
▁ពី	-4905
▁chiều	-4906
्रप	-4907
ថាតើ	-4908
icara	-4909
▁đoán	-4910
ខំប្រឹង	-4911
▁अद	-4912
ត្រា	-4913
ន្លង	-4914
▁Hari	-4915
▁komp	-4916
▁Jeong	-4917
ember	-4918
មកវិញ	-4919
▁berbagai	-4920
ूरी	-4921
▁Con	-4922
ម្លាំង	-4923
▁तुलना	-4924
ुप	-4925
yek	-4926
ĩnh	-4927
កូវីដ	-4928
▁पुष्ट	-4929
គ្រូ	-4930
នាគារ	-4931
emi	-4932
ស៊ូ	-4933
▁हाथ	-4934
ិទ	-4935
ឆ្	-4936
▁कर्म	-4937
▁Partai	-4938
ចុងក្រោយ	-4939
▁memakan	-4940
▁menunjukkan	-4941
ត្ប	-4942
សភា	-4943
កើតឡើង	-4944
utuhkan	-4945
▁चीन	-4946
▁उत्स	-4947
▁मामले	-4948
▁sesuai	-4949
▁ខណៈ	-4950
បង្កើន	-4951
गु	-4952
▁ថ	-4953
▁memilih	-4954
था	-4955
▁យ៉	-4956
▁phạt	-4957
ត្រឹមត្រូវ	-4958
▁ít	-4959
omend	-4960
दे	-4961
ोगे	-4962
មាន់	-4963
▁mái	-4964
▁सदस	-4965
▁seorang	-4966
lik	-4967
umpul	-4968
បច្ចេក	-4969
वे	-4970
▁समु	-4971
▁ហ្វ	-4972
▁minggu	-4973
វានឹង	-4974
▁thịt	-4975
▁कंपनियों	-4976
इट	-4977
ស្ថិត	-4978
▁Cũng	-4979
ngin	-4980
▁trai	-4981
▁និយាយ	-4982
▁mô	-4983
ayar	-4984
ខ្លាច	-4985
▁តោះទៅ	-4986
ិបតី	-4987
▁cơm	-4988
▁पीछ	-4989
शनल	-4990
▁họp	-4991
▁नंबर	-4992
▁hoa	-4993
▁nhóm	-4994
▁क्ला	-4995
▁menya	-4996
រត់	-4997
▁bởi	-4998
ារបស់	-4999
សេច	-5000
▁Tại	-5001
សិល្ប	-5002
्टी	-5003
យប់	-5004
etak	-5005
्वा	-5006
▁कोविड	-5007
សាធារណៈ	-5008
▁lộ	-5009
▁berkata	-5010
▁ចុះ	-5011
adiah	-5012
▁विचार	-5013
▁अमेरिका	-5014
्रीम	-5015
វគ្គ	-5016
អាង	-5017
स्ट्र	-5018
ប្រចាំ	-5019
របៀប	-5020
▁lạnh	-5021
▁minh	-5022
▁कहते	-5023
encan	-5024
▁terd	-5025
सिल	-5026
ហោះ	-5027
▁उनके	-5028
uduhan	-5029
▁पड़े	-5030
aksud	-5031
▁Shin	-5032
▁प्रश	-5033
ភ្លាមៗ	-5034
ម្បីតែ	-5035
▁कहीं	-5036
▁हिस्	-5037
ដូច្នេះ	-5038
▁seluruh	-5039
▁दिल	-5040
emukan	-5041
▁Ketua	-5042
सि	-5043
ोटो	-5044
▁lái	-5045
▁mạng	-5046
▁ទោះជា	-5047
ikm	-5048
गल	-5049
ពង្រីក	-5050
ẩy	-5051
▁Z	-5052
bat	-5053
ालत	-5054
▁चुन	-5055
ាធិបតី	-5056
स्या	-5057
▁mudah	-5058
ុបច	-5059
ग्री	-5060
▁Nasional	-5061
ष्य	-5062
▁दूर	-5063
▁सुविधा	-5064
▁sebesar	-5065
▁पेश	-5066
▁वीडियो	-5067
रब	-5068
ដក	-5069
▁कान	-5070
▁इंतज़ार	-5071
សោធ	-5072
▁Pem	-5073
ोरेंट	-5074
▁បើសិនជា	-5075
abr	-5076
ers	-5077
iver	-5078
▁xúc	-5079
▁quanh	-5080
កូ	-5081
ៀល	-5082
ទ័រ	-5083
▁gà	-5084
សិស្ស	-5085
▁Choi	-5086
▁आजकल	-5087
▁हूं	-5088
▁mengirim	-5089
ឹប	-5090
ញ្ច	-5091
នាង	-5092
▁गिर	-5093
▁giành	-5094
सन	-5095
क्रिया	-5096
សាងសង់	-5097
▁ក្រុម	-5098
▁अधिकारी	-5099
ពាណិជ្ជ	-5100
នៅកន្លែង	-5101
क्षित	-5102
កំពូល	-5103
afe	-5104
បន្តិច។	-5105
▁जाओ	-5106
លំបាក	-5107
រវាង	-5108
▁Yang	-5109
▁đông	-5110
▁कुल	-5111
▁मौसम	-5112
▁tuduhan	-5113
िन्न	-5114
▁đạo	-5115
▁लें	-5116
▁proses	-5117
-2	-5118
▁Chỉ	-5119
eriks	-5120
▁रेस्टोरेंट	-5121
उंड	-5122
ប្រយ័ត	-5123
▁वित	-5124
▁वाहन	-5125
▁tetap	-5126
សី	-5127
utup	-5128
istirahat	-5129
ណាម	-5130
▁Hong	-5131
▁कार्यालय	-5132
ហោ	-5133
វត្ថុ	-5134
ក្រសួង	-5135
លក្ខណៈ	-5136
▁khoản	-5137
បញ្ចុះ	-5138
▁प्रक्रिया	-5139
▁ដូច្នេះសូម	-5140
ki	-5141
▁Mer	-5142
iburan	-5143
៉ាង	-5144
▁Ternyata	-5145
th	-5146
▁hút	-5147
ដេអូ	-5148
ंत्री	-5149
विष्य	-5150
គួរឱ្យ	-5151
▁इतनी	-5152
ានេះ	-5153
▁did	-5154
▁आइए	-5155
▁tô	-5156
्रपति	-5157
▁Seong	-5158
▁29	-5159
▁Su	-5160
apai	-5161
▁dekat	-5162
▁lệ	-5163
មុនពេល	-5164
av	-5165
▁perasaan	-5166
ឥណ្ឌ	-5167
▁nhiêu	-5168
្សា	-5169
▁दें	-5170
▁cer	-5171
▁Phải	-5172
▁उत्तर	-5173
nologi	-5174
uli	-5175
▁មួយ	-5176
ប្រែង	-5177
▁khăn	-5178
▁Al	-5179
សន្យ	-5180
▁sal	-5181
▁mengungkapkan	-5182
បែបនោះ	-5183
▁besok	-5184
▁dingin	-5185
ជាន	-5186
akt	-5187
▁gr	-5188
សញ្ញ	-5189
ពេលវេលា	-5190
▁समस्या	-5191
▁viết	-5192
▁pekerjaan	-5193
ken	-5194
ភាគហ៊ុន	-5195
▁pulang	-5196
▁đau	-5197
▁nóng	-5198
▁निकल	-5199
▁दीजिए	-5200
▁शुरुआत	-5201
▁ar	-5202
▁ដល់	-5203
▁बारिश	-5204
តើ។	-5205
▁hadiah	-5206
▁meskipun	-5207
ode	-5208
asar	-5209
▁भविष्य	-5210
▁penggun	-5211
▁US	-5212
▁अभि	-5213
សណ្ឋាគារ	-5214
ubuh	-5215
▁២០១	-5216
▁Giám	-5217
▁चलिए	-5218
▁meminta	-5219
▁waj	-5220
▁đêm	-5221
रों	-5222
▁आद	-5223
ហ្គោល	-5224
▁Gyeong	-5225
ពូក	-5226
obal	-5227
्यंग	-5228
▁đời	-5229
▁बैट	-5230
▁Những	-5231
▁kartu	-5232
បញ្ជា	-5233
▁dolar	-5234
▁sungguh	-5235
ខ្ញុំ។	-5236
▁atlet	-5237
▁ते	-5238
देशक	-5239
ប៉ះ	-5240
▁phản	-5241
▁जाएगी	-5242
សាស្ត្រ	-5243
▁Bi	-5244
▁मज	-5245
▁Dong	-5246
▁phép	-5247
មាស	-5248
▁लगातार	-5249
▁ស៊ី	-5250
ប្រធានាធិបតី	-5251
àm	-5252
▁&	-5253
▁lớp	-5254
▁ठंड	-5255
▁प्रकार	-5256
eka	-5257
គុយ	-5258
▁Lúc	-5259
uangan	-5260
▁Chung	-5261
បិទ	-5262
ពន្ល	-5263
▁menger	-5264
▁តាមរយៈ	-5265
masing	-5266
▁सहयोग	-5267
▁mengenai	-5268
tim	-5269
juan	-5270
▁tiba	-5271
ុល្លារ	-5272
▁प्रदान	-5273
រច	-5274
▁उल्	-5275
▁berharap	-5276
គួរឲ្យ	-5277
ប្រឆាំង	-5278
▁buah	-5279
▁គាត់បាន	-5280
ថិ	-5281
ina	-5282
សំបុត្រ	-5283
▁राष्ट्रपति	-5284
តេ	-5285
ទៅលើ	-5286
▁thẻ	-5287
មើលឃើញ	-5288
anjutnya	-5289
ei	-5290
ហ្ម	-5291
ốt	-5292
erv	-5293
ibat	-5294
▁वही	-5295
▁बिलियन	-5296
हम	-5297
▁Sekarang	-5298
តិថិ	-5299
កុម្ម	-5300
▁mata	-5301
▁pand	-5302
▁Đặc	-5303
តិថិជន	-5304
▁विश्व	-5305
ងាយស្រួល	-5306
▁2,	-5307
▁Cơ	-5308
EO	-5309
▁sợ	-5310
ចេញទៅ	-5311
▁Vi	-5312
▁Một	-5313
▁मिला	-5314
▁masing	-5315
ប្រយ័ត្ន	-5316
វែង	-5317
▁लो	-5318
▁Kom	-5319
ដំ	-5320
ស្នាក់	-5321
ឺរ៉	-5322
enteri	-5323
▁जानते	-5324
san	-5325
पास	-5326
ầng	-5327
▁penyel	-5328
ឈរ	-5329
ណ្ឌល	-5330
▁Đại	-5331
ret	-5332
▁गर्	-5333
▁nữ	-5334
▁गै	-5335
ក្បែរ	-5336
▁जैसी	-5337
ធ្យ	-5338
arak	-5339
▁अके	-5340
▁पीछे	-5341
▁វានឹង	-5342
▁វ៉	-5343
orona	-5344
ម៉ាក់	-5345
▁bahkan	-5346
កម្លាំង	-5347
▁intern	-5348
សត	-5349
▁biến	-5350
▁trông	-5351
▁जिन्ह	-5352
▁संबंधित	-5353
▁विभिन्न	-5354
ंति	-5355
नाव	-5356
▁cocok	-5357
▁Lalu	-5358
▁meningkatkan	-5359
ीत	-5360
ម្អ	-5361
awab	-5362
engk	-5363
លើកក្រោយ	-5364
េហ	-5365
▁tù	-5366
ilah	-5367
▁ukuran	-5368
រដ្ឋមន្ត្រី	-5369
▁kapan	-5370
▁जरूरत	-5371
do	-5372
▁tí	-5373
mainan	-5374
▁बताया	-5375
ផ្ញើ	-5376
▁acara	-5377
▁thoải	-5378
ួសារ	-5379
▁संभव	-5380
▁មិនមែន	-5381
ाइट	-5382
▁सप्ताह	-5383
សវ	-5384
मसंग	-5385
लाइन	-5386
▁अदालत	-5387
ប៉ុណ្ណោះ	-5388
▁Kak	-5389
▁न्याया	-5390
eksi	-5391
ន្ទី	-5392
▁niệm	-5393
▁लाइन	-5394
▁pihak	-5395
មជ្	-5396
adahal	-5397
▁पैसे	-5398
▁mengumumkan	-5399
ៅអី	-5400
▁सव	-5401
▁चेक	-5402
កីឡា	-5403
▁pusat	-5404
▁फैसला	-5405
វាយតម្លៃ	-5406
▁tik	-5407
▁स्वाद	-5408
វត្ថិភាព	-5409
ចល	-5410
ikannya	-5411
▁hả	-5412
▁दौ	-5413
apun	-5414
▁bầu	-5415
▁खरीदने	-5416
ade	-5417
ត្តិការណ៍	-5418
ឈុត	-5419
▁पक	-5420
▁gái	-5421
▁តោះយើង	-5422
▁ជាពិសេស	-5423
▁एज	-5424
▁hotel	-5425
▁कपड़े	-5426
णाम	-5427
▁jauh	-5428
▁đoạn	-5429
▁pengadilan	-5430
ទែន	-5431
▁Wah	-5432
▁khỏi	-5433
▁tầng	-5434
▁बॉ	-5435
क्षि	-5436
▁tụi	-5437
▁thận	-5438
▁tiga	-5439
▁dibanding	-5440
ជឿ	-5441
បំណ	-5442
▁vai	-5443
▁लड़	-5444
▁kiếm	-5445
▁नियम	-5446
ដា	-5447
ឃ្ល	-5448
▁យោងតាម	-5449
▁सेंट	-5450
पार	-5451
ចម្ល	-5452
▁penj	-5453
នៅទីនោះ	-5454
भा	-5455
यन	-5456
ग्र	-5457
▁Để	-5458
entu	-5459
▁इंड	-5460
alami	-5461
ផ្តោត	-5462
ឡុងពេល	-5463
ឆ្នាំ២០	-5464
ँकि	-5465
बूत	-5466
▁sơ	-5467
សាលា	-5468
cheon	-5469
▁Jadi	-5470
▁jenis	-5471
▁pemain	-5472
ell	-5473
▁ruang	-5474
▁dimulai	-5475
▁मेन	-5476
ញ៉ាំអាហារ	-5477
ंडई	-5478
वरण	-5479
▁जितना	-5480
▁bổ	-5481
sekitar	-5482
▁môn	-5483
▁sistem	-5484
▁परिणाम	-5485
▁टिक	-5486
▁उच्च	-5487
▁maka	-5488
តួ	-5489
itik	-5490
▁Ngày	-5491
▁cú	-5492
▁तरफ	-5493
▁ថ្ងៃ	-5494
មិត្តភក្តិ	-5495
isip	-5496
▁छुट	-5497
ampir	-5498
▁tubuh	-5499
▁ប្រទេស	-5500
▁kì	-5501
គំនិត	-5502
▁Or	-5503
▁मैच	-5504
hoảng	-5505
វីដេអូ	-5506
ប្រាប់ខ្ញុំ	-5507
▁pemerintah	-5508
ast	-5509
▁भू	-5510
erai	-5511
▁खोज	-5512
▁jawab	-5513
ទាក់ទាញ	-5514
បច្ចុប្បន្ន	-5515
▁diperkirakan	-5516
याम	-5517
abrik	-5518
▁tỉnh	-5519
▁करनी	-5520
ដែលត្រូវ	-5521
ॉट	-5522
▁0	-5523
ដាល	-5524
សរសេរ	-5525
▁अंतर	-5526
▁हासिल	-5527
▁तैयारी	-5528
embangan	-5529
▁हालाँकि	-5530
ỏng	-5531
amer	-5532
impin	-5533
▁silakan	-5534
▁भाव	-5535
▁जानकारी	-5536
▁मिले	-5537
▁Menteri	-5538
पन	-5539
លំ	-5540
fes	-5541
▁nền	-5542
▁एंड	-5543
▁diadakan	-5544
▁राष्ट्रीय	-5545
onf	-5546
▁tỏ	-5547
ទៅជា	-5548
lobal	-5549
▁चिकन	-5550
▁खरीदना	-5551
▁मंत्री	-5552
▁berusaha	-5553
डी	-5554
▁ថា	-5555
ពេទ្យ	-5556
▁belakang	-5557
ंज	-5558
▁ibu	-5559
▁तौर	-5560
ស៍	-5561
ពាណិជ្ជកម្ម	-5562
▁घूम	-5563
गत	-5564
ond	-5565
មិញ	-5566
त्मक	-5567
▁duy	-5568
▁सहित	-5569
khoảng	-5570
कोर	-5571
yeon	-5572
▁महत्व	-5573
▁व्यायाम	-5574
▁जे	-5575
មន្ទី	-5576
▁खिलाफ	-5577
▁अभियोजक	-5578
ការិយាល័យ	-5579
ॉलर	-5580
ច្រើន។	-5581
मिक	-5582
▁nha	-5583
angka	-5584
▁penc	-5585
▁គ្រាន់តែ	-5586
ព្រះរាជអាជ្ញា	-5587
▁सैमसंग	-5588
ធឺ	-5589
acam	-5590
▁Tòa	-5591
▁say	-5592
▁phiếu	-5593
▁saham	-5594
▁स्थापित	-5595
पहर	-5596
ayam	-5597
enti	-5598
▁Akhir	-5599
▁៨	-5600
▁đủ	-5601
▁Mem	-5602
ពន្យល់	-5603
▁Young	-5604
▁menang	-5605
▁ដែលត្រូវបាន	-5606
▁gug	-5607
▁परीक्षण	-5608
វប្ប	-5609
▁तीस	-5610
▁tiếc	-5611
irm	-5612
uti	-5613
ेदन	-5614
និក	-5615
ៀកបំពាក់	-5616
អភិវឌ្ឍន៍	-5617
ower	-5618
បើកបរ	-5619
យ៉ាងខ្លាំង	-5620
ដដែល	-5621
▁मतलब	-5622
anggung	-5623
ដើរលេង	-5624
▁proyek	-5625
▁2021	-5626
▁फोटो	-5627
▁दोपहर	-5628
ស្សម	-5629
▁ចាំខ្ញុំ	-5630
លឺ	-5631
▁trái	-5632
▁thưởng	-5633
▁तुम्हारी	-5634
ूरो	-5635
វា។	-5636
▁sai	-5637
▁फ्र	-5638
क्षिण	-5639
anak	-5640
िक्त	-5641
▁ऊपर	-5642
▁poin	-5643
eol	-5644
opi	-5645
कुल	-5646
isah	-5647
ប្រគ	-5648
ឆ្នោត	-5649
▁ayam	-5650
▁कोरोना	-5651
▁संयुक्त	-5652
មានអារម្មណ៍ថា	-5653
▁प्रभाव	-5654
ហេ	-5655
edi	-5656
▁tử	-5657
▁bab	-5658
▁मॉड	-5659
▁निर्ण	-5660
▁berbicara	-5661
baik	-5662
▁ប្រធាន	-5663
ខ្ញុំមិន	-5664
ប្រទេសចិន	-5665
.5	-5666
▁pengg	-5667
siapkan	-5668
▁kontr	-5669
iga	-5670
នាពេល	-5671
អាចនឹង	-5672
▁co	-5673
▁Goo	-5674
ឆ្នាំនេះ	-5675
មួយចំនួន	-5676
រា	-5677
ប៉ូល	-5678
▁dành	-5679
▁lượt	-5680
មែនទែន	-5681
បញ្ចុះតម្លៃ	-5682
ចេះ	-5683
▁Yoo	-5684
▁may	-5685
ស្តាប់	-5686
ेयर	-5687
abis	-5688
▁टिकट	-5689
▁ब्रा	-5690
▁minuman	-5691
▁kenapa	-5692
ខ្ម	-5693
ត្រូ	-5694
▁tamp	-5695
▁अतिर	-5696
សិល្បៈ	-5697
▁क्लास	-5698
ori	-5699
▁nhiễ	-5700
▁उससे	-5701
គ្រួសារ	-5702
ពេញនិយម	-5703
▁यूरो	-5704
▁देखकर	-5705
▁मोबाइल	-5706
ីន	-5707
▁आती	-5708
▁obat	-5709
ក្នុងរយៈពេល	-5710
ភេស	-5711
▁हुंडई	-5712
imb	-5713
បន្ថយ	-5714
▁mahal	-5715
मार	-5716
គ្ល	-5717
▁ពួកយើង	-5718
▁tambahan	-5719
ភៅ	-5720
elan	-5721
▁इंटर	-5722
▁Triều	-5723
ដោះស្រាយ	-5724
▁permainan	-5725
adang	-5726
ियोजना	-5727
▁पुष्टि	-5728
៎។	-5729
ឡិច	-5730
▁लंबे	-5731
▁trách	-5732
asarkan	-5733
ទទួលបានការ	-5734
នាការ	-5735
enangan	-5736
ैक	-5737
យោបាយ	-5738
▁nhiễm	-5739
ेर	-5740
▁ké	-5741
▁ស្	-5742
ដែលយើង	-5743
ភេសជ្ជ	-5744
▁अतिरिक्त	-5745
क्शन	-5746
ពូកែ	-5747
▁membayar	-5748
▁परियोजना	-5749
ស្រស់	-5750
▁suất	-5751
▁kapal	-5752
▁तुमको	-5753
bok	-5754
ក្រម	-5755
▁giỏi	-5756
▁Lu	-5757
▁ខេ	-5758
ilihan	-5759
▁panjang	-5760
▁बल्	-5761
ram	-5762
▁Việc	-5763
ey	-5764
▁निर्णय	-5765
▁rasanya	-5766
urkan	-5767
▁cộng	-5768
▁आपका	-5769
▁đương	-5770
्ध	-5771
▁गति	-5772
▁mand	-5773
sial	-5774
▁बेच	-5775
▁total	-5776
ikirkan	-5777
▁situasi	-5778
គោ	-5779
▁सहा	-5780
▁cẩn	-5781
ទៅមើល	-5782
▁Jangan	-5783
▁មានការ	-5784
▁Industri	-5785
ខ្វ	-5786
ewat	-5787
ganya	-5788
ស្រា	-5789
▁आते	-5790
▁Thực	-5791
▁cỡ	-5792
ker	-5793
▁डॉलर	-5794
▁ឡ	-5795
ayaran	-5796
hatian	-5797
ឈមណ្ឌល	-5798
▁tingkat	-5799
ិច្ឆ	-5800
▁mại	-5801
▁tải	-5802
▁निय	-5803
▁thẳng	-5804
សាស្រ្ត	-5805
▁informasi	-5806
ूह	-5807
តប	-5808
्यवाद	-5809
▁प्रती	-5810
▁महिला	-5811
artisip	-5812
ចេញផ្សាយ	-5813
amah	-5814
▁Kej	-5815
រួចហើយ	-5816
▁दक्षिण	-5817
▁kak	-5818
onsel	-5819
▁Dengan	-5820
ील	-5821
ពិសោធ	-5822
▁घंटे	-5823
▁ग्राह	-5824
▁mengan	-5825
ẵn	-5826
gal	-5827
▁đầy	-5828
គ្នានៅ	-5829
ựa	-5830
ចោល	-5831
▁ताकि	-5832
▁Dalam	-5833
▁शिक्ष	-5834
▁nama	-5835
▁लगेगा	-5836
មូលដ្ឋាន	-5837
▁आओ	-5838
វាមិន	-5839
▁देखता	-5840
ប៉ុណ្ណោះ។	-5841
▁digunakan	-5842
▁धी	-5843
▁रिप	-5844
▁cari	-5845
▁xuyên	-5846
idangan	-5847
▁पेट	-5848
ល្អបំផុត	-5849
▁đẩy	-5850
អំពីការ	-5851
សង្ឃឹមថា	-5852
ពានរង្វាន់	-5853
gy	-5854
ល្ង	-5855
ារ៉	-5856
एँगे	-5857
មុន។	-5858
ikmati	-5859
ប្រមូល	-5860
វប្បធម៌	-5861
▁धन्यवाद	-5862
▁ណ	-5863
▁ten	-5864
udaya	-5865
ព្រឹត្តិការណ៍	-5866
ener	-5867
▁quà	-5868
roduk	-5869
▁Hyun	-5870
▁Jong	-5871
ប្រញាប់	-5872
▁संचाल	-5873
ឥត	-5874
▁सोचा	-5875
តម្រូវ	-5876
uộn	-5877
कर्	-5878
▁លី	-5879
▁menyukai	-5880
▁teknologi	-5881
▁महत्वपूर्ण	-5882
▁यु	-5883
▁kopi	-5884
▁Motors	-5885
▁kemudian	-5886
Ủy	-5887
सित	-5888
inal	-5889
រកមើល	-5890
សោះ	-5891
មិនមែនជា	-5892
unda	-5893
មាត់	-5894
▁trì	-5895
▁thảo	-5896
ប្ល	-5897
▁भा	-5898
oper	-5899
▁kafe	-5900
ជាដើម។	-5901
▁បាននិយាយថា	-5902
▁वाक	-5903
ायर	-5904
វិស័យ	-5905
ខាងមុខ	-5906
តេស	-5907
▁cân	-5908
រកឃើញ	-5909
▁Tapi	-5910
▁अनुभव	-5911
▁समर्थ	-5912
▁terakhir	-5913
hi	-5914
ដូរ	-5915
▁huy	-5916
▁बजाय	-5917
▁tuyến	-5918
etnam	-5919
▁2016	-5920
▁ជាមួយនឹង	-5921
▁mendengar	-5922
lay	-5923
▁tiket	-5924
▁आवश्यकता	-5925
द्धि	-5926
បង្រ	-5927
▁trải	-5928
▁pabrik	-5929
គណៈកម្មាធិការ	-5930
៣០	-5931
▁xa	-5932
▁आपकी	-5933
लू	-5934
▁i	-5935
लगभग	-5936
▁seni	-5937
▁बैटरी	-5938
អ្នកអាច	-5939
មានមនុស្ស	-5940
រៀង	-5941
▁एस	-5942
▁आनंद	-5943
jalanan	-5944
សកម្មភាព	-5945
័ត្រ	-5946
▁लॉन्	-5947
▁kurang	-5948
ម្នាក់ឯង	-5949
សុវត្ថិភាព	-5950
जिन	-5951
▁नौ	-5952
▁वृ	-5953
លានដ	-5954
idang	-5955
រក្សា	-5956
▁Kami	-5957
▁quân	-5958
ंघ	-5959
ohol	-5960
▁đảm	-5961
▁umum	-5962
▁Pusat	-5963
ហាក់ដូចជា	-5964
សុង	-5965
▁नया	-5966
▁दूँगा	-5967
ủy	-5968
▁अरब	-5969
▁tặng	-5970
▁रहना	-5971
ម៉ាស៊ីន	-5972
សេចក្តី	-5973
uac	-5974
▁mengikuti	-5975
दम	-5976
▁शी	-5977
eski	-5978
्राम	-5979
▁sẵn	-5980
▁गलत	-5981
▁Jeju	-5982
▁lắng	-5983
កល	-5984
▁Ke	-5985
Kami	-5986
▁ngắm	-5987
▁सुधार	-5988
unjukan	-5989
▁មែនហើយ	-5990
▁60	-5991
▁रहने	-5992
▁संभाव	-5993
រាយការណ៍	-5994
दारी	-5995
▁thiện	-5996
▁investasi	-5997
▁ត្រូវបានគេ	-5998
ặn	-5999
ចុះ។	-6000
▁आना	-6001
▁ayah	-6002
ថាជា	-6003
▁बाल	-6004
kohol	-6005
▁lemb	-6006
▁हमने	-6007
▁पिछली	-6008
▁ponsel	-6009
ឲ្យខ្ញុំ	-6010
▁Cứ	-6011
iswa	-6012
សត្វ	-6013
▁Dan	-6014
ស្រាវ	-6015
▁छात्र	-6016
ោន	-6017
▁gói	-6018
ត្បូង	-6019
artisipasi	-6020
▁populer	-6021
यक	-6022
par	-6023
्रो	-6024
▁âm	-6025
▁ប៊	-6026
▁lĩnh	-6027
ខ្ញុំចង់	-6028
arb	-6029
▁quận	-6030
▁अपरा	-6031
▁नेशनल	-6032
▁ហេតុអ្វី	-6033
50	-6034
ភេសជ្ជៈ	-6035
▁menghub	-6036
រំពឹងថានឹង	-6037
क्सर	-6038
▁sắp	-6039
▁अक्सर	-6040
शि	-6041
▁TV	-6042
▁Sung	-6043
▁पर्य	-6044
គ្រាប់	-6045
▁Moon	-6046
▁tepat	-6047
agaiman	-6048
▁kỷ	-6049
▁पद	-6050
▁करे	-6051
▁भले	-6052
ជំនាញ	-6053
▁Kepala	-6054
▁setempat	-6055
▁साव	-6056
likasi	-6057
▁perhatian	-6058
ាម៉	-6059
▁Ủy	-6060
▁इसी	-6061
▁kaki	-6062
atihan	-6063
▁rencana	-6064
embangkan	-6065
रि	-6066
ila	-6067
atuh	-6068
eluar	-6069
លែង	-6070
▁रि	-6071
ambat	-6072
អតិថិជន	-6073
▁प्रबंध	-6074
ृति	-6075
▁शु	-6076
ពិធី	-6077
ៀវភៅ	-6078
▁शरी	-6079
waktu	-6080
មន្ទីរ	-6081
▁ខ្ញុំចូលចិត្ត	-6082
▁sóng	-6083
នំ	-6084
▁ऑन	-6085
▁2015	-6086
ack	-6087
បណ្	-6088
ប្រជ	-6089
ប្រែ	-6090
ដោយការ	-6091
▁Sudah	-6092
▁करूँगी	-6093
▁baterai	-6094
,5	-6095
មាណ	-6096
▁nhằm	-6097
▁ग्रुप	-6098
elaskan	-6099
िनि	-6100
onom	-6101
ផ្អែក	-6102
▁laut	-6103
▁शरीर	-6104
▁dirilis	-6105
▁सुरक्षा	-6106
ិរ	-6107
ហ្គូ	-6108
सिद्ध	-6109
▁हमारी	-6110
▁Vietnam	-6111
▁सामग्री	-6112
▁hubungan	-6113
▁sebanyak	-6114
agaimanapun	-6115
▁Gro	-6116
▁अभिने	-6117
▁hu	-6118
▁cháu	-6119
▁गर्म	-6120
ជាងនេះ	-6121
▁suara	-6122
ខ្ញុំក៏	-6123
▁व्यक्त	-6124
ជីន	-6125
▁आम	-6126
▁đắt	-6127
បានទេ។	-6128
▁जिससे	-6129
▁kalinya	-6130
yu	-6131
យ៍	-6132
▁Họ	-6133
▁करी	-6134
▁menjual	-6135
ដែលខ្ញុំបាន	-6136
ियतना	-6137
ជ្រាវ	-6138
ប្រជែង	-6139
▁Sebelum	-6140
ហាងកាហ្វេ	-6141
▁សេ	-6142
▁bày	-6143
ដុំ	-6144
ប្រវ	-6145
teman	-6146
▁bước	-6147
▁tinh	-6148
ក្រៅពី	-6149
यास	-6150
▁ក្រ	-6151
alaman	-6152
▁ចាប់ពី	-6153
दान	-6154
ាដៃ	-6155
▁Bạn	-6156
▁xảy	-6157
irmasi	-6158
▁mencapai	-6159
▁Â	-6160
ទុកដាក់	-6161
េី	-6162
gle	-6163
igh	-6164
▁bola	-6165
▁प्रसिद्ध	-6166
iti	-6167
ालय	-6168
▁प्रयास	-6169
ity	-6170
नेट	-6171
▁Net	-6172
▁Tiên	-6173
eriksaan	-6174
គោលដៅ	-6175
តំណាង	-6176
គាត់បាន	-6177
▁menyelesaikan	-6178
ones	-6179
នយោបាយ	-6180
ផែនការ	-6181
ậm	-6182
▁cư	-6183
anita	-6184
ផ្គត់	-6185
▁Agung	-6186
ស្រាវជ្រាវ	-6187
▁सके	-6188
ivers	-6189
▁एक्स	-6190
ែប	-6191
ចម្	-6192
ជោគ	-6193
អង់	-6194
▁Hội	-6195
▁Ông	-6196
▁ដំបូង	-6197
▁bur	-6198
▁विकसित	-6199
ब्	-6200
ឈី	-6201
▁दृ	-6202
egis	-6203
▁cải	-6204
▁harap	-6205
▁ujian	-6206
▁गोल्फ	-6207
ពិសោធន៍	-6208
▁perjalanan	-6209
ឹត	-6210
▁Ing	-6211
▁USD	-6212
▁dag	-6213
▁बैं	-6214
▁Điều	-6215
▁khiến	-6216
តន្ត្រី	-6217
▁daerah	-6218
por	-6219
▁Từ	-6220
▁रूम	-6221
▁सजा	-6222
ទៅហើយ	-6223
សុខភាព	-6224
्यन	-6225
ហ៊ី	-6226
▁hy	-6227
ropa	-6228
▁चले	-6229
intaan	-6230
▁मुझसे	-6231
ត្រឹមតែ	-6232
ខាងត្បូង	-6233
▁Đi	-6234
ផ្គង់	-6235
សិទ្ធិ	-6236
▁tuyên	-6237
र्जा	-6238
ឺរ៉ុប	-6239
▁seri	-6240
▁31	-6241
ាកាស	-6242
▁mur	-6243
▁Eropa	-6244
ជំរ	-6245
ល្ម	-6246
្យូ	-6247
▁बेस	-6248
▁vượt	-6249
▁diber	-6250
នាំគ្នា	-6251
▁diskon	-6252
▁देती	-6253
▁តើអ្នកចង់	-6254
ដែលត្រូវបាន	-6255
រថយន្តអគ្គិសនី	-6256
ខែក	-6257
▁India	-6258
ार्व	-6259
▁din	-6260
adwal	-6261
ublik	-6262
ទីតាំង	-6263
បញ្ចេញ	-6264
▁ped	-6265
▁thư	-6266
▁đôi	-6267
វាមាន	-6268
▁thần	-6269
បន្ថែមទៀត	-6270
ផ្គត់ផ្គង់	-6271
प्पल	-6272
जह	-6273
វិច	-6274
▁đỡ	-6275
បំណង	-6276
េស៊ី	-6277
▁रिपोर्ट	-6278
▁ត្រូវតែ	-6279
▁Sp	-6280
्ला	-6281
▁Kantor	-6282
उन	-6283
uari	-6284
▁baju	-6285
ambut	-6286
▁वृद्धि	-6287
ថ្មីៗនេះ	-6288
▁hi	-6289
▁आँ	-6290
osan	-6291
▁sắc	-6292
ចំណុច	-6293
▁Việt	-6294
▁सारी	-6295
▁ធ	-6296
फ्र	-6297
▁उसी	-6298
▁ប៊ី	-6299
▁bung	-6300
▁दिखाई	-6301
ភ្ន	-6302
gris	-6303
ាល់តែ	-6304
▁giám	-6305
អត់មាន	-6306
▁សព្វថ្ងៃនេះ	-6307
हरा	-6308
▁SM	-6309
▁đảo	-6310
ទៅដល់	-6311
ementara	-6312
धे	-6313
▁ot	-6314
▁Ang	-6315
▁tóc	-6316
agian	-6317
ឆ្លើយតប	-6318
កុម្ម៉ង់	-6319
CO	-6320
▁quần	-6321
▁នាក់	-6322
▁Sementara	-6323
▁Sebenarnya	-6324
ोगी	-6325
▁(3	-6326
▁bé	-6327
▁sk	-6328
▁इंतजार	-6329
មួយ។	-6330
ताल	-6331
ाइम	-6332
▁cầm	-6333
▁जापान	-6334
▁बल्कि	-6335
▁लॉन्च	-6336
▁wisata	-6337
មា	-6338
▁समूह	-6339
▁lokal	-6340
ឈើ	-6341
dong	-6342
▁Kem	-6343
▁khá	-6344
▁kantor	-6345
▁तुम्हारा	-6346
NG	-6347
▁sp	-6348
សន្ន	-6349
▁वजह	-6350
លើកឡើង	-6351
▁កីឡាករ	-6352
ខ្ញុំអាច	-6353
កុន	-6354
okus	-6355
▁Bởi	-6356
▁Tet	-6357
ៀរ	-6358
វ័យ	-6359
▁gậy	-6360
▁नेट	-6361
▁Mari	-6362
▁Luật	-6363
▁देखें	-6364
ចាយ	-6365
▁खत्म	-6366
▁रिली	-6367
▁वियतना	-6368
▁រួមទាំង	-6369
កាប	-6370
ង្ហ	-6371
▁Pas	-6372
▁gor	-6373
យកចិត្ត	-6374
-3	-6375
▁ऊर्जा	-6376
▁membantu	-6377
ọt	-6378
▁es	-6379
▁walau	-6380
▁व्यवसाय	-6381
▁៩	-6382
▁टै	-6383
atur	-6384
▁mùng	-6385
▁លើសពី	-6386
ឡិចត្រូ	-6387
▁hukuman	-6388
yang	-6389
▁dic	-6390
▁nửa	-6391
▁वर्	-6392
រូបថត	-6393
▁ជាដំបូង	-6394
▁berolahraga	-6395
▁Âu	-6396
▁सेल	-6397
▁स्म	-6398
ស្បែកជើង	-6399
श्व	-6400
▁परिवार	-6401
រំពឹងទុក	-6402
बो	-6403
លូវ	-6404
teok	-6405
ដែលជា	-6406
ល្ងាច	-6407
អ្នក។	-6408
att	-6409
▁आसान	-6410
▁bahan	-6411
▁សូមជួយ	-6412
បំពង	-6413
▁कॉल	-6414
itahu	-6415
▁châu	-6416
មិនទាន់	-6417
▁nằm	-6418
▁चीनी	-6419
uốt	-6420
वाब	-6421
ណាច	-6422
▁cam	-6423
▁बर्	-6424
ដែលនៅ	-6425
ទៅនឹង	-6426
បរទេស	-6427
ៀតណាម	-6428
▁phúc	-6429
▁कोर्ट	-6430
▁dibandingkan	-6431
lub	-6432
▁bữa	-6433
▁model	-6434
▁Mereka	-6435
▁परीक्षा	-6436
ចោទប្រកាន់ពីបទ	-6437
បន្ល	-6438
រសៀល	-6439
▁CEO	-6440
धारित	-6441
ឹកញាប់	-6442
ក្នុងពេល	-6443
टक	-6444
▁ek	-6445
▁វ៉ុន	-6446
គ្លេស	-6447
ជោគជ័យ	-6448
▁quảng	-6449
▁bas	-6450
ាទ	-6451
टना	-6452
▁hại	-6453
hat	-6454
क्सी	-6455
ម៉ាក	-6456
▁tua	-6457
ukung	-6458
▁रखने	-6459
▁आकर्षित	-6460
យកចិត្តទុកដាក់	-6461
ផ្អ	-6462
▁रखा	-6463
▁arah	-6464
▁कड़ी	-6465
▁परेश	-6466
▁Inggris	-6467
SM	-6468
▁quen	-6469
▁ulang	-6470
▁cụ	-6471
▁Keb	-6472
▁nâng	-6473
▁कॉफी	-6474
▁स्थित	-6475
▁मुकदमे	-6476
▁Mus	-6477
▁dar	-6478
▁nhu	-6479
▁नीचे	-6480
umen	-6481
धिकार	-6482
▁វាពិតជា	-6483
បំប	-6484
▁Á	-6485
ंगे	-6486
ेंसी	-6487
ស្តី	-6488
द्यालय	-6489
▁Seung	-6490
roduksi	-6491
▁lantai	-6492
uda	-6493
ទំព	-6494
ធឺណ	-6495
tiba	-6496
ឱ្យខ្ញុំ	-6497
នាគ	-6498
▁नई	-6499
ឥលូវ	-6500
ervasi	-6501
onesia	-6502
▁bahasa	-6503
▁chuyến	-6504
omendasikan	-6505
उट	-6506
ារី	-6507
▁Jun	-6508
▁nhẹ	-6509
ទៅតាម	-6510
▁Kakao	-6511
▁मंत्र	-6512
កំពុងតែ	-6513
របស់ពួកគេ	-6514
▁pelanggan	-6515
टे	-6516
ខ្ច	-6517
ដ្រ	-6518
ប្រុង	-6519
▁thiếu	-6520
▁समर्थन	-6521
ទៅកន្លែង	-6522
▁pemeriksaan	-6523
Un	-6524
▁Ma	-6525
माने	-6526
▁छूट	-6527
▁pener	-6528
▁pukul	-6529
▁मजबूत	-6530
របស់លោក	-6531
-19.	-6532
▁Tim	-6533
▁xung	-6534
នៅផ្ទះ	-6535
ម្ចាស់	-6536
▁स्ट्र	-6537
▁aplikasi	-6538
ពាក់កណ្តាល	-6539
▁រ	-6540
ទម្រ	-6541
▁Group	-6542
មជ្ឈមណ្ឌល	-6543
▁យូ	-6544
▁सफल	-6545
សុទ្ធ	-6546
फ़ी	-6547
▁pl	-6548
▁túi	-6549
▁yếu	-6550
wisata	-6551
▁अकेले	-6552
▁Soo	-6553
▁सीख	-6554
▁kond	-6555
▁प्रसार	-6556
▁biasanya	-6557
▁Indonesia	-6558
ទឹកក	-6559
ano	-6560
्रीन	-6561
ចាត់	-6562
ចាំង	-6563
▁dih	-6564
ទស្សន	-6565
▁miễn	-6566
បញ្ជូន	-6567
▁jadwal	-6568
▁Pengadilan	-6569
aksi	-6570
សម័យ	-6571
▁वाकई	-6572
▁Mobil	-6573
▁Kejaksaan	-6574
▁pembayaran	-6575
ềm	-6576
ទី១	-6577
▁कैफे	-6578
▁musik	-6579
▁पड़ेगा	-6580
លានដុល្លារ	-6581
ữu	-6582
ិន្ន	-6583
▁ស្រ	-6584
▁ចាប់	-6585
▁जाएँगे	-6586
▁sẻ	-6587
▁समिति	-6588
▁अमेरिकी	-6589
▁संभावना	-6590
णी	-6591
▁Google	-6592
ើច	-6593
▁hữu	-6594
▁रोक	-6595
▁dasar	-6596
PGA	-6597
▁hò	-6598
ूँकि	-6599
ទស្សនា	-6600
▁ចំនួន	-6601
▁depannya	-6602
▁khỏ	-6603
▁unit	-6604
យុត្តិ	-6605
▁babak	-6606
▁memulai	-6607
▁ca	-6608
មួយៗ	-6609
▁អេស	-6610
ប្រាំ	-6611
ពិភាក	-6612
▁bảng	-6613
▁muộn	-6614
kenalkan	-6615
ាល្អ	-6616
ុទ្ធ	-6617
▁Nhà	-6618
▁សាក	-6619
▁buồn	-6620
▁nilai	-6621
▁membaw	-6622
▁disebut	-6623
ula	-6624
▁Pr	-6625
▁Giờ	-6626
ក្បាល	-6627
ទោះបី	-6628
▁कहना	-6629
▁बैठक	-6630
▁berat	-6631
ដូចគ្នា	-6632
ks	-6633
स्कार	-6634
ज़र	-6635
▁dig	-6636
សង្គម	-6637
▁जवाब	-6638
▁मॉडल	-6639
▁bisakah	-6640
▁New	-6641
ផ្ដើម	-6642
gu	-6643
म्र	-6644
▁Air	-6645
▁bức	-6646
▁Nghe	-6647
▁अनुर	-6648
បែបនេះ។	-6649
▁Padahal	-6650
▁pengembangan	-6651
ជេ	-6652
ឡេង	-6653
▁tinggal	-6654
▁इलेक्ट्रॉन	-6655
ាបាល	-6656
▁ब्र	-6657
▁khỏe	-6658
សង្ស័យ	-6659
▁global	-6660
ធ្លាក់ចុះ	-6661
អី។	-6662
▁Độ	-6663
ស្រល	-6664
▁Ahn	-6665
▁Sem	-6666
▁phong	-6667
▁सदस्य	-6668
ube	-6669
ជួរ	-6670
epas	-6671
ែត្រ	-6672
▁dij	-6673
▁mengur	-6674
▁alkohol	-6675
▁केंद्रित	-6676
omb	-6677
▁आर	-6678
ាក្រ	-6679
▁siang	-6680
unjungi	-6681
▁liburan	-6682
▁menemukan	-6683
ura	-6684
▁Hal	-6685
▁Woo	-6686
▁दर्द	-6687
ព្យាបាល	-6688
បោះឆ្នោត	-6689
អង់គ្លេស	-6690
▁तस्वीरें	-6691
ole	-6692
ãng	-6693
ណ្យ	-6694
▁यहां	-6695
រូបភាព	-6696
िमा	-6697
akil	-6698
iter	-6699
▁ढूँ	-6700
ថាមាន	-6701
នៅម៉ោង	-6702
▁प्रत्य	-6703
▁Mặt	-6704
▁des	-6705
▁disel	-6706
▁kemenangan	-6707
ust	-6708
ment	-6709
អត្ថ	-6710
▁Hay	-6711
▁डिज	-6712
isasi	-6713
តំណែង	-6714
ត្រៀម	-6715
alahan	-6716
▁Memang	-6717
▁លើសពីនេះ	-6718
លប់	-6719
ាលើ	-6720
▁अरे	-6721
▁Inst	-6722
▁cuac	-6723
▁posisi	-6724
द्द	-6725
ន្តរ	-6726
▁kira	-6727
កាត់បន្ថយ	-6728
▁keluarga	-6729
▁រ៉	-6730
baru	-6731
ॉर्म	-6732
िनियम	-6733
▁पहला	-6734
ស្រាប់	-6735
▁अपराध	-6736
▁telepon	-6737
▁ខ្ញុំគិត	-6738
▁vũ	-6739
ebar	-6740
्याल	-6741
्यास	-6742
ានោះ	-6743
▁berpartisipasi	-6744
ប្រយោជន	-6745
▁ខ្ញុំមាន	-6746
ल्प	-6747
▁एन	-6748
▁dựa	-6749
▁दवा	-6750
▁रिश	-6751
▁Yong	-6752
ហ្នឹង។	-6753
▁ngoại	-6754
▁भावना	-6755
ជួល	-6756
ंतिम	-6757
चानक	-6758
▁पर्या	-6759
▁alasan	-6760
បង្ហាញពី	-6761
បេ	-6762
នៅឯ	-6763
▁मिलते	-6764
ញឹកញាប់	-6765
▁sidang	-6766
▁kịch	-6767
▁अचानक	-6768
▁daging	-6769
▁ក៏ប៉ុន្តែ	-6770
वाह	-6771
ប្រឡ	-6772
▁hát	-6773
▁តាមពិត	-6774
▁चौ	-6775
កៅអី	-6776
▁អាយ	-6777
truk	-6778
សៀវភៅ	-6779
ទទួលការ	-6780
सु	-6781
ចៅ	-6782
នាគត	-6783
ពាល់	-6784
▁nạn	-6785
▁sửa	-6786
▁मोटर	-6787
ក្នុងមួយ	-6788
▁re	-6789
ate	-6790
▁Ibu	-6791
ឆ្ងាយ	-6792
▁jelas	-6793
▁कक्षा	-6794
▁rambut	-6795
रिक	-6796
ើសុំ	-6797
▁độc	-6798
▁យើងនឹង	-6799
នៅពេលដែល	-6800
▁ហ្	-6801
▁bơi	-6802
▁तथा	-6803
▁តើអ្នកអាច	-6804
▁មី	-6805
▁màn	-6806
▁पुन	-6807
ទឹកកក	-6808
▁खराब	-6809
▁मिलने	-6810
▁មនុស្ស	-6811
▁ពាន់លានវ៉ុន	-6812
សកល	-6813
egang	-6814
▁Sang	-6815
▁giấy	-6816
▁wajah	-6817
entukan	-6818
▁terasa	-6819
ुकान	-6820
▁mat	-6821
វៀតណាម	-6822
gan	-6823
elak	-6824
ឪពុក	-6825
▁500	-6826
▁mối	-6827
▁រឿង	-6828
ក៏មាន	-6829
ស្តាយ	-6830
▁धीरे	-6831
អំព	-6832
kira	-6833
មធ្យ	-6834
ដើរមើល	-6835
▁दुकान	-6836
)'	-6837
គំ	-6838
បន្	-6839
ខ្យល់	-6840
▁ditu	-6841
ediakan	-6842
▁kepala	-6843
▁विदेशी	-6844
ames	-6845
डिया	-6846
▁सर्	-6847
បុណ្យ	-6848
▁hampir	-6849
ផ្លូវការ	-6850
▁mengadakan	-6851
र्तमान	-6852
▁चूँकि	-6853
engarkan	-6854
▁បន្ទាប់	-6855
▁लगी	-6856
ភ្លេច	-6857
▁कितने	-6858
ដោយផ្ទាល់	-6859
ឈាន	-6860
▁មេ	-6861
ដោយមិន	-6862
▁nghiên	-6863
▁ឥឡូវនេះ	-6864
▁berhasil	-6865
NS	-6866
សាំង	-6867
▁Bắc	-6868
▁महा	-6869
umpulkan	-6870
របស់ខ្ញុំ។	-6871
Saya	-6872
បាញ់	-6873
▁rơi	-6874
សម្ដែង	-6875
▁निकाल	-6876
ស្រលាញ់	-6877
▁percaya	-6878
जनिक	-6879
▁विभाग	-6880
ប្រវត្តិ	-6881
ये	-6882
▁១៩	-6883
▁bia	-6884
▁आवा	-6885
▁trans	-6886
▁अंतिम	-6887
ern	-6888
▁bà	-6889
gasi	-6890
អនាគត	-6891
▁meningg	-6892
Ấn	-6893
मति	-6894
luas	-6895
▁hak	-6896
▁हान	-6897
▁chóng	-6898
▁आपूर्	-6899
▁ख्याल	-6900
ពេញចិត្ត	-6901
ेस	-6902
សាកល	-6903
▁Man	-6904
▁हार	-6905
▁dòng	-6906
បន្ទប់ទឹក	-6907
▁बनाए	-6908
▁सार्व	-6909
កាត់ទោស	-6910
▁ហើយចាំ	-6911
▁harganya	-6912
oga	-6913
▁70	-6914
▁tầm	-6915
ចំណូល	-6916
▁ចំពោះ	-6917
ប្រយោជន៍	-6918
▁Mungkin	-6919
ci	-6920
បញ្ហ	-6921
▁sup	-6922
▁buku	-6923
▁ត្រូវហើយ	-6924
គ្រប់គ្រាន់	-6925
ខូច	-6926
▁chí	-6927
▁đất	-6928
▁आवेदन	-6929
elis	-6930
vesti	-6931
▁Ấn	-6932
emuan	-6933
▁बच्चे	-6934
ខ្ញុំមាន	-6935
នឹងត្រូវ	-6936
ចូលទៅក្នុង	-6937
▁3,	-6938
alik	-6939
▁ghế	-6940
▁तला	-6941
erian	-6942
val	-6943
ज़ा	-6944
सिक	-6945
▁oper	-6946
យុត្តិធម៌	-6947
पो	-6948
atis	-6949
ស្រឡ	-6950
▁jaksa	-6951
eluarkan	-6952
▁दोस्तों	-6953
▁mengalami	-6954
▁Ý	-6955
yat	-6956
vestigasi	-6957
▁मंत्रालय	-6958
तरी	-6959
ទ្វ	-6960
▁रु	-6961
វាបាន	-6962
អឺរ៉ុប	-6963
▁ក្រោយ	-6964
▁nghiêm	-6965
នាម	-6966
line	-6967
តេស្ត	-6968
▁nặng	-6969
ỏa	-6970
ess	-6971
▁Mi	-6972
aket	-6973
sama	-6974
▁pac	-6975
▁ऑनलाइन	-6976
▁pukulan	-6977
iversitas	-6978
ម៉ា	-6979
▁xã	-6980
▁chỉnh	-6981
▁kontrak	-6982
utr	-6983
▁पॉ	-6984
ពង្រ	-6985
श्विक	-6986
.1	-6987
▁thất	-6988
daknya	-6989
onfirmasi	-6990
▁जहा	-6991
▁kuat	-6992
▁ជាមួយ	-6993
▁menyam	-6994
ដាក់ពាក្យ	-6995
▁permintaan	-6996
iệng	-6997
ពេក។	-6998
▁kor	-6999
▁उठा	-7000
▁अस्प	-7001
តែម្ដង	-7002
▁बनाया	-7003
កិច្ចការ	-7004
ce	-7005
▁Jo	-7006
▁माल	-7007
▁sisi	-7008
ធ្វើអ្វី	-7009
▁sebenarnya	-7010
mi	-7011
जनक	-7012
▁Ji	-7013
ាសម្	-7014
▁keti	-7015
▁Power	-7016
▁ज़रूरत	-7017
ចុះឈ្មោះ	-7018
▁persidangan	-7019
कट	-7020
▁dần	-7021
▁sung	-7022
▁Tentu	-7023
▁जिसके	-7024
ौल	-7025
ភើប	-7026
ម៉ង់	-7027
▁ngu	-7028
▁न्यू	-7029
ដ្ឋកិច្ច	-7030
▁pakaian	-7031
▁mengajukan	-7032
ធិ	-7033
▁मजे	-7034
ùa	-7035
gab	-7036
ប៉ា	-7037
asakan	-7038
ជម្រើស	-7039
▁surat	-7040
កិច្ចសន្យ	-7041
ជាលើកដំបូង	-7042
▁खो	-7043
रेलू	-7044
សោះ។	-7045
▁hit	-7046
▁mendatang	-7047
ban	-7048
▁môi	-7049
ហេតុផល	-7050
ហែលទឹក	-7051
▁kursi	-7052
ខុសគ្នា	-7053
▁បន្ទាប់មក	-7054
▁lai	-7055
▁maaf	-7056
▁ngờ	-7057
▁खुश	-7058
▁श्र	-7059
ambah	-7060
សិទ្ធ	-7061
កក់ទុក	-7062
▁miệng	-7063
រថភ្លើង	-7064
ចាប់ផ្ដើម	-7065
UB	-7066
inj	-7067
▁खी	-7068
▁सेट	-7069
ស្នាដៃ	-7070
▁kemamp	-7071
▁polisi	-7072
▁menyatakan	-7073
तीय	-7074
▁रिक	-7075
egisl	-7076
क्ष्य	-7077
▁पिता	-7078
ភ្នាក់	-7079
▁संगीत	-7080
▁berikut	-7081
▁प्रतिनि	-7082
der	-7083
ibadi	-7084
▁media	-7085
ដារ	-7086
អាន	-7087
ទូទាត់	-7088
▁लगाया	-7089
atat	-7090
्वांग	-7091
ណាដែរ	-7092
▁pemand	-7093
ហូ	-7094
ហត់	-7095
ក្ដី	-7096
टो	-7097
▁ऐप	-7098
▁ឥឡូវ	-7099
▁dibuat	-7100
ភ្នាក់ងារ	-7101
ប៉ះពាល់	-7102
▁सार्वजनिक	-7103
ក្នុងការប្រកួត	-7104
ូរ៉ូ	-7105
▁Văn	-7106
▁भार	-7107
បញ្ជី	-7108
▁चर्च	-7109
▁tanah	-7110
▁दूसरा	-7111
ស្នើសុំ	-7112
▁ro	-7113
ភ្ញៀវ	-7114
អរគុណ	-7115
ុបចោល	-7116
▁मज़ा	-7117
ត្រលប់	-7118
▁thuận	-7119
▁सवारी	-7120
▁membelinya	-7121
ថាយ	-7122
gian	-7123
iliun	-7124
▁निश्	-7125
ahatan	-7126
▁tenaga	-7127
▁reservasi	-7128
កិច្ចប្រជុំ	-7129
▁आख	-7130
utusan	-7131
បន្ទុក	-7132
▁Hwang	-7133
▁वर्तमान	-7134
បង្កើតឡើង	-7135
លំហ	-7136
▁Ok	-7137
▁Mah	-7138
▁goreng	-7139
▁នៅថ្ងៃ	-7140
MO	-7141
ni	-7142
ចង	-7143
▁penyelidikan	-7144
អិល	-7145
▁Bl	-7146
ឯកសារ	-7147
▁Liên	-7148
▁suốt	-7149
▁នាយក	-7150
ស្លាប់	-7151
▁bunga	-7152
▁sehari	-7153
▁छुट्टी	-7154
ចរ	-7155
yah	-7156
▁जर	-7157
ergi	-7158
ត្រួត	-7159
▁Chính	-7160
dro	-7161
ill	-7162
▁लॉ	-7163
គមន៍	-7164
▁आँख	-7165
▁जून	-7166
▁មុន	-7167
▁bebas	-7168
▁दूँगी	-7169
ល្អណាស់	-7170
អំឡុងពេល	-7171
▁berikutnya	-7172
្តី	-7173
▁បុ	-7174
▁kata	-7175
▁घरेलू	-7176
ានៃ	-7177
क्टर	-7178
▁tip	-7179
▁ट्रे	-7180
▁स्तर	-7181
▁yaitu	-7182
▁एजेंसी	-7183
.4	-7184
ខ្លី	-7185
រាប់	-7186
ណាដែល	-7187
▁आसपास	-7188
ungkinan	-7189
▁अधिनियम	-7190
▁đô	-7191
▁लागू	-7192
▁ब्रांड	-7193
▁पुरस्कार	-7194
ED	-7195
Chúng	-7196
ាក្នុង	-7197
▁वैश्विक	-7198
▁pengguna	-7199
ủng	-7200
▁quên	-7201
▁thái	-7202
angunan	-7203
▁menjelaskan	-7204
मैन	-7205
ព្រួយ	-7206
▁Tour	-7207
▁उपलब	-7208
2,	-7209
कॉ	-7210
▁सौ	-7211
▁Des	-7212
ម្តង។	-7213
អំណាច	-7214
वै	-7215
ម៉ឺន	-7216
ភាគរយ	-7217
▁पकड़	-7218
▁शीर्ष	-7219
គ្រោងនឹង	-7220
បទពិសោធន៍	-7221
សាម	-7222
▁nhảy	-7223
urusan	-7224
▁menyi	-7225
▁समाप्त	-7226
▁menulis	-7227
▁saudara	-7228
ingkungan	-7229
daf	-7230
▁मो	-7231
▁mil	-7232
▁उल्ल	-7233
▁बनाई	-7234
▁មើលទៅ	-7235
ជីព	-7236
មតិ	-7237
▁Br	-7238
▁wanita	-7239
▁समुद्र	-7240
▁सामान्य	-7241
भाल	-7242
យ៉ុន	-7243
▁សុំ	-7244
स्थित	-7245
▁करीब	-7246
មើលទៅ។	-7247
▁kereta	-7248
ដោយខ្លួនឯង	-7249
UBG	-7250
arin	-7251
cepat	-7252
▁hiểm	-7253
សម្រួល	-7254
▁Kement	-7255
egislatif	-7256
ens	-7257
▁Kỳ	-7258
▁जिसने	-7259
anyakan	-7260
រាល់ថ្ងៃ	-7261
ीय	-7262
तिक	-7263
ेदार	-7264
▁kéo	-7265
▁tái	-7266
▁daya	-7267
លុបចោល	-7268
▁dưỡng	-7269
▁nhiệt	-7270
ណាមួយ	-7271
▁tảng	-7272
▁खर्च	-7273
យ្យការ	-7274
ទាំងអស់។	-7275
ayah	-7276
▁menurut	-7277
ធៀប	-7278
ahun	-7279
▁साझ	-7280
agram	-7281
▁आपूर्ति	-7282
សេដ្ឋកិច្ច	-7283
óp	-7284
អ៊ីនធឺណ	-7285
សម្លៀកបំពាក់	-7286
old	-7287
orn	-7288
▁៣០	-7289
▁Hãy	-7290
▁लगे	-7291
អាគុយ	-7292
▁keku	-7293
entara	-7294
សង	-7295
▁ef	-7296
ជាង។	-7297
▁ट्रा	-7298
▁शेयर	-7299
ចំណាត់ថ្នាក់លេខ	-7300
धर	-7301
សោក	-7302
▁lát	-7303
▁एयर	-7304
▁दर्श	-7305
ជាងការ	-7306
▁pad	-7307
▁tốc	-7308
▁उम्र	-7309
▁selanjutnya	-7310
ैल	-7311
ណ៏	-7312
्यु	-7313
▁បច	-7314
▁sore	-7315
▁गांग	-7316
ff	-7317
▁सॉ	-7318
▁milik	-7319
▁व्यक्तिगत	-7320
បច្ចេកវិទ្យា	-7321
កំហ	-7322
▁Co	-7323
▁उसकी	-7324
▁क्लब	-7325
▁pintu	-7326
▁प्यार	-7327
▁មែនទេ	-7328
ចង់ញ៉ាំ	-7329
▁IP	-7330
▁तकनी	-7331
ទម្រង់	-7332
▁हिस्से	-7333
ប្រសិនបើអ្នក	-7334
▁pertunjukan	-7335
जु	-7336
eun	-7337
ênh	-7338
िंक	-7339
apor	-7340
▁मौजू	-7341
▁memot	-7342
▁तरीके	-7343
ខ្មៅ	-7344
មើល។	-7345
មកខ្ញុំ	-7346
▁Undang	-7347
ប្រុងប្រយ័ត្ន	-7348
इस	-7349
ណូ	-7350
ុី	-7351
▁Sej	-7352
▁coi	-7353
▁tấm	-7354
▁អតីត	-7355
▁mendukung	-7356
ल्क	-7357
▁ưu	-7358
▁Maj	-7359
▁hòa	-7360
▁phù	-7361
▁भूम	-7362
▁badan	-7363
▁lewat	-7364
▁निश्चित	-7365
▁Ste	-7366
▁đen	-7367
▁បាទ	-7368
បំពេញ	-7369
▁शराब	-7370
▁menjalan	-7371
ង្គ	-7372
សវនាការ	-7373
▁triliun	-7374
ewan	-7375
ॉर्ड	-7376
ទូទៅ	-7377
omong	-7378
▁उसका	-7379
ehatan	-7380
ធ្វើអោយ	-7381
ម្តងទៀត។	-7382
ខំប្រឹងប្រែង	-7383
उस	-7384
egi	-7385
▁हे	-7386
ខណ្ឌ	-7387
▁Kia	-7388
▁bác	-7389
▁menikmati	-7390
ទៃ	-7391
▁ơi	-7392
itif	-7393
▁dừng	-7394
▁जांच	-7395
daftar	-7396
▁siapa	-7397
▁देंगे	-7398
▁ប៉ុន្តែវា	-7399
लेज	-7400
▁Bis	-7401
▁लाभ	-7402
▁berf	-7403
▁पाँच	-7404
▁अभ्यास	-7405
मो	-7406
रूम	-7407
▁up	-7408
▁लि	-7409
▁Bar	-7410
antung	-7411
ពេលព្រឹក	-7412
eli	-7413
▁mì	-7414
▁टूर	-7415
▁bang	-7416
▁lược	-7417
▁उल्लंघ	-7418
លាក់	-7419
idupan	-7420
ộp	-7421
▁ចូ	-7422
▁nắm	-7423
ក៏ដោយ។	-7424
राव	-7425
▁जू	-7426
▁vir	-7427
▁Makan	-7428
មូលហេតុ	-7429
Ph	-7430
ूब	-7431
ियल	-7432
ital	-7433
សរុប	-7434
▁cập	-7435
ទីពីរ	-7436
▁nhấn	-7437
▁Orang	-7438
▁चीजें	-7439
▁उल्लंघन	-7440
▁menyiapkan	-7441
▁tai	-7442
▁बेश	-7443
tikan	-7444
▁पत्र	-7445
▁cerita	-7446
▁tersisa	-7447
.2	-7448
ry	-7449
ros	-7450
▁Ad	-7451
▁उपकरण	-7452
▁Saudara	-7453
तन	-7454
ដុង	-7455
សេរី	-7456
▁tức	-7457
ញ្ញាត	-7458
▁thăm	-7459
%.	-7460
die	-7461
oft	-7462
▁Đã	-7463
▁डा	-7464
lukan	-7465
▁आएगा	-7466
▁saling	-7467
▁តុលាការ	-7468
▁អ្នកនឹង	-7469
ក្នុងចំណោម	-7470
▁membutuhkan	-7471
▁xu	-7472
្យង់	-7473
▁cay	-7474
▁dok	-7475
តើអ្នក	-7476
स्थानीय	-7477
▁अनुबंध	-7478
គ្រោះថ្នាក់	-7479
▁kemungkinan	-7480
ven	-7481
ដៃគូ	-7482
▁Ken	-7483
▁đeo	-7484
▁कमी	-7485
ព្វថ្ងៃ	-7486
▁dilihat	-7487
तम	-7488
gas	-7489
▁web	-7490
▁डिली	-7491
▁kejaksaan	-7492
▁ly	-7493
ित्र	-7494
▁Hoa	-7495
ជំរុញ	-7496
Undang	-7497
▁Khusus	-7498
▁sosial	-7499
▁កាលពីថ្ងៃទី	-7500
शल	-7501
Tôi	-7502
oll	-7503
ស្ប	-7504
េរ៉	-7505
त्ति	-7506
ियोग	-7507
▁क्व	-7508
យុទ្ធ	-7509
▁khoa	-7510
▁राशि	-7511
▁aktor	-7512
ខ្ញុំគិតថា	-7513
▁diberikan	-7514
▁sementara	-7515
बली	-7516
ស្រាប	-7517
▁छोटे	-7518
asinya	-7519
អ្នកដែល	-7520
▁tunggu	-7521
បក	-7522
मिन	-7523
▁dr	-7524
▁mùi	-7525
▁प्रोड	-7526
អាកាសធាតុ	-7527
ខោ	-7528
▁bus	-7529
▁mắc	-7530
ក្លិន	-7531
▁इसने	-7532
▁कमरे	-7533
▁एशिया	-7534
eum	-7535
ड़क	-7536
▁Bu	-7537
▁Res	-7538
ចម្រៀង	-7539
▁व्यापार	-7540
नो	-7541
ាលី	-7542
▁dị	-7543
visi	-7544
ផ្លែ	-7545
▁जोर	-7546
សំឡេង	-7547
▁रहता	-7548
yun	-7549
ग्रह	-7550
▁बैग	-7551
ជំនួស	-7552
ពង្រឹង	-7553
ហើយចាំ	-7554
▁berubah	-7555
▁វាជាការ	-7556
amat	-7557
▁चलें	-7558
ខាងក្រៅ	-7559
▁diketahui	-7560
ज़ी	-7561
▁Tập	-7562
▁ngại	-7563
ទស្សន៍	-7564
មិនខាន	-7565
▁Jaksa	-7566
▁Mobile	-7567
▁kemampuan	-7568
▁प्रतीक्षा	-7569
दो	-7570
ợt	-7571
▁बेशक	-7572
មិនល្អ	-7573
▁गर्मी	-7574
▁उपलब्ध	-7575
▁प्रत्येक	-7576
▁memperluas	-7577
▁अधिकारियों	-7578
ea	-7579
ýt	-7580
ទី២	-7581
▁li	-7582
impi	-7583
adaan	-7584
▁Asia	-7585
▁असें	-7586
angani	-7587
▁पोस्ट	-7588
▁អត់ទេ	-7589
get	-7590
ឡាញ	-7591
▁vả	-7592
▁चि	-7593
▁Busan	-7594
▁स्टेशन	-7595
ជាន់ខ្ពស់	-7596
▁penonton	-7597
giờ	-7598
ैंप	-7599
ឆែក	-7600
ihan	-7601
ភាគី	-7602
▁akibat	-7603
▁akhirnya	-7604
▁internet	-7605
ात	-7606
ឱកាស	-7607
▁cãi	-7608
▁खींच	-7609
alk	-7610
enuh	-7611
កន្លង	-7612
ប័ណ្ណ	-7613
▁रखना	-7614
èm	-7615
guh	-7616
र्श	-7617
▁la	-7618
▁Xin	-7619
▁mát	-7620
▁स्वीक	-7621
ត្រួតពិនិត្យ	-7622
धीश	-7623
▁गं	-7624
▁होल	-7625
▁दर्ज	-7626
ejabat	-7627
sungguh	-7628
▁កន្លែង	-7629
ash	-7630
fer	-7631
मित	-7632
यों	-7633
▁हाई	-7634
ឺម៉ង់	-7635
ជំងឺកូវីដ	-7636
ega	-7637
ឃ្លាន	-7638
▁Thời	-7639
▁dana	-7640
osiasi	-7641
▁असेंबली	-7642
▁विश्वास	-7643
ព្រួយបារម្ភ	-7644
रल	-7645
ont	-7646
ord	-7647
िक्र	-7648
▁The	-7649
អាក្រ	-7650
asaran	-7651
▁हस्ता	-7652
▁निर्धारित	-7653
ear	-7654
ert	-7655
ញ្ញា	-7656
asien	-7657
▁Golf	-7658
▁अप्र	-7659
,2	-7660
ោភ	-7661
र्य	-7662
ពោះ	-7663
▁chấp	-7664
▁trao	-7665
រួមបញ្ចូល	-7666
नाम	-7667
▁hiệp	-7668
▁प्रण	-7669
eriksa	-7670
▁menja	-7671
▁उत्पादों	-7672
▁इलेक्ट्रॉनिक्स	-7673
तों	-7674
ចង្	-7675
▁Nó	-7676
क्षर	-7677
ម្តាយ	-7678
បង្ហោះ	-7679
▁tuyết	-7680
ខ្សែភាពយន្ត	-7681
ंकन	-7682
▁mỳ	-7683
ក្លឹប	-7684
ទៅផ្ទះ	-7685
▁Distrik	-7686
បង់ប្រាក់	-7687
▁kehidupan	-7688
▁Sao	-7689
▁berj	-7690
▁खुला	-7691
▁kondisi	-7692
▁Ia	-7693
▁चो	-7694
▁Sep	-7695
▁लोट	-7696
▁Yeong	-7697
▁राज्य	-7698
▁ម្	-7699
▁bụng	-7700
▁căng	-7701
▁पैसा	-7702
▁सम्म	-7703
▁dihar	-7704
▁विश्ले	-7705
ẳn	-7706
កែវ	-7707
▁डर	-7708
▁berhenti	-7709
हत	-7710
भीर	-7711
▁lao	-7712
▁कंट	-7713
▁क्षम	-7714
▁छोटा	-7715
▁मेन्यू	-7716
▁अस्पताल	-7717
जीब	-7718
िये	-7719
▁Lo	-7720
▁nhật	-7721
▁Ketika	-7722
▁berdasarkan	-7723
,9	-7724
चि	-7725
▁Đó	-7726
▁गि	-7727
ibur	-7728
ukah	-7729
បម្រ	-7730
▁thấp	-7731
▁selain	-7732
▁menghubungi	-7733
ង។	-7734
eric	-7735
▁kos	-7736
▁आमत	-7737
▁Games	-7738
ក្នុងឆ្នាំ	-7739
ខ្ន	-7740
▁bối	-7741
▁kota	-7742
▁địch	-7743
▁ब्रे	-7744
▁होकर	-7745
ម្ដងទៀត	-7746
▁मामलों	-7747
▁បើអ្នក	-7748
ពិភាក្សា	-7749
▁បានប្រកាស	-7750
ខែម	-7751
ាទី	-7752
▁gel	-7753
▁विप	-7754
▁chống	-7755
▁आमतौर	-7756
धिकारिक	-7757
▁kesulit	-7758
▁प्रबंधन	-7759
និច	-7760
ភាសា	-7761
▁thuế	-7762
ចង់បាន	-7763
▁penuh	-7764
▁tentu	-7765
▁जाऊँगा	-7766
ក្រៅប្រទេស	-7767
▁memeriksa	-7768
▁hộp	-7769
▁लाइ	-7770
មូលនិ	-7771
▁cường	-7772
▁nguồn	-7773
▁Komite	-7774
អំពើ	-7775
ិដ្ឋ	-7776
▁đọc	-7777
▁रेस्त	-7778
កាលពីថ្ងៃទី	-7779
▁tind	-7780
វាយកូន	-7781
មិនអីទេ	-7782
▁memenangkan	-7783
ym	-7784
ធ្ន	-7785
▁चा	-7786
ភ្លឺ	-7787
វិធាន	-7788
ហ្វឹក	-7789
▁आकार	-7790
ផ្តាច់	-7791
ដាស	-7792
▁At	-7793
▁Kr	-7794
▁समी	-7795
ផ្ទាល់ខ្លួន	-7796
សាកលវិទ្យាល័យ	-7797
SMC	-7798
gen	-7799
ឡែក	-7800
អឹម	-7801
▁अजीब	-7802
ड़ियों	-7803
ពន្យារ	-7804
ិយាកាស	-7805
▁terbesar	-7806
▁terlambat	-7807
यी	-7808
▁ម៉ូ	-7809
▁बिल्	-7810
anggil	-7811
អាក្រក់	-7812
uncurkan	-7813
ឆ្លងកាត់	-7814
អនុញ្ញាត	-7815
រណា	-7816
ស្ទើរ	-7817
▁उनकी	-7818
▁पीने	-7819
▁membuka	-7820
▁membangun	-7821
80	-7822
वीं	-7823
▁Ôi	-7824
▁ភី	-7825
▁góp	-7826
▁hủy	-7827
ទំព័រ	-7828
▁dáng	-7829
kataan	-7830
▁តើអាច	-7831
▁Intern	-7832
▁वाहनों	-7833
anjutkan	-7834
អេឡិចត្រូ	-7835
▁mendengarkan	-7836
ha	-7837
फ्ट	-7838
ikat	-7839
▁यही	-7840
ពន្លឺ	-7841
ជួបគ្នា	-7842
▁आधिकारिक	-7843
IC	-7844
រូ	-7845
ទាប	-7846
▁huấn	-7847
អយ្យការ	-7848
▁बढ़ाने	-7849
▁Bagaimanapun	-7850
▁खुशी	-7851
បណ្តឹង	-7852
ម៉ែត្រ	-7853
▁उपहार	-7854
▁ក៏បាន	-7855
ទូរសព្ទ	-7856
रेशन	-7857
▁Mas	-7858
▁रहते	-7859
▁partai	-7860
ជាមួយគ្នា។	-7861
▁memikirkan	-7862
▁ni	-7863
gram	-7864
▁giam	-7865
▁thuê	-7866
▁អ្វី	-7867
បន្តិចទៀត	-7868
▁Perusahaan	-7869
▁Sebelumnya	-7870
▁lingkungan	-7871
ebr	-7872
uki	-7873
undang	-7874
upanya	-7875
យើងនឹង	-7876
▁trượt	-7877
untungan	-7878
uas	-7879
▁ហើយក៏	-7880
▁tạm	-7881
▁PUBG	-7882
▁khóa	-7883
▁शुल्क	-7884
▁pertemuan	-7885
▁id	-7886
ार्म	-7887
ដំឡើង	-7888
▁गंभीर	-7889
▁វាមាន	-7890
,7	-7891
टिक	-7892
ាវី	-7893
▁Na	-7894
ចាញ់	-7895
រន្ធ	-7896
▁भूख	-7897
ភ្ជាប់	-7898
រាងកាយ	-7899
▁desain	-7900
▁konten	-7901
▁kesulitan	-7902
▁z	-7903
▁hid	-7904
ផ្អែកលើ	-7905
asilitas	-7906
▁diharapkan	-7907
▁Kementerian	-7908
,1	-7909
ំប៉	-7910
▁Car	-7911
▁पूरे	-7912
▁बैंक	-7913
▁सुनवाई	-7914
ilet	-7915
▁War	-7916
រឿងនេះ	-7917
arusnya	-7918
មនុស្សម	-7919
ायक	-7920
ebab	-7921
▁Sun	-7922
▁lựa	-7923
▁tur	-7924
▁अंक	-7925
▁ngơi	-7926
▁उतना	-7927
បណ្តើរ	-7928
ាចារ្យ	-7929
▁न्यायाधीश	-7930
▁nỗ	-7931
enda	-7932
ऊंगा	-7933
▁hoá	-7934
bokki	-7935
មកហើយ	-7936
ស្មាន	-7937
▁बुरा	-7938
irikan	-7939
ជំនាន់	-7940
wak	-7941
मैं	-7942
ញ្ជ	-7943
▁pat	-7944
▁Song	-7945
▁TSMC	-7946
▁bicara	-7947
បញ្ជាទិញ	-7948
▁rán	-7949
▁tar	-7950
ប្រឹក	-7951
▁समान	-7952
ស្ថានីយ	-7953
▁terpisah	-7954
ាឡ	-7955
set	-7956
ធ្ម	-7957
នឹក	-7958
anda	-7959
▁Hee	-7960
▁Thấy	-7961
▁perb	-7962
▁आपसे	-7963
▁बच्चों	-7964
▁करा	-7965
ិរញ្ញ	-7966
▁इतने	-7967
▁aktif	-7968
▁प्रदर्श	-7969
▁keputusan	-7970
ហ្អី	-7971
▁उद्	-7972
ញ្ចប់	-7973
ទីមួយ	-7974
pic	-7975
កោះ	-7976
ទារ	-7977
▁80	-7978
▁Ri	-7979
▁nãy	-7980
▁हमारा	-7981
▁रेस्तरा	-7982
▁समीक्षा	-7983
▁ខ្ញុំសង្ឃឹមថា	-7984
តុ	-7985
▁អរ	-7986
▁cười	-7987
angkit	-7988
ស្នាក់នៅ	-7989
▁अभिनेता	-7990
▁mengurangi	-7991
▁ខ្ញុំគិតថាវា	-7992
aca	-7993
जिक	-7994
स्ते	-7995
▁lãm	-7996
▁भूल	-7997
▁अवधि	-7998
ខ្លាំង។	-7999
ងន់	-8000
akar	-8001
▁tiêm	-8002
ចែកចាយ	-8003
▁Gwang	-8004
▁trắng	-8005
▁ម៉ាក់	-8006
ហ្យ	-8007
▁Fr	-8008
insi	-8009
ebihan	-8010
son	-8011
ចាក	-8012
តឹង	-8013
ទណ្ឌ	-8014
▁उपा	-8015
▁ហ្គ	-8016
jakan	-8017
ompok	-8018
ឺង	-8019
umur	-8020
▁gun	-8021
▁kim	-8022
ជំនួយ	-8023
▁muda	-8024
ការពិត	-8025
▁मीडिया	-8026
អ្នកប្រើប្រាស់	-8027
ज़न	-8028
ater	-8029
बारा	-8030
ស្រាល	-8031
▁resmi	-8032
OS	-8033
▁berm	-8034
anjing	-8035
antikan	-8036
▁अनुरोध	-8037
.3	-8038
▁Gr	-8039
▁Thì	-8040
▁mohon	-8041
hatikan	-8042
វិធានការ	-8043
▁pengirim	-8044
ld	-8045
कत	-8046
-19,	-8047
▁toà	-8048
▁सैन	-8049
ជានឹង	-8050
▁chắn	-8051
▁जोड़	-8052
▁दौड़	-8053
▁रखते	-8054
▁विज्ञ	-8055
▁वास्तविक	-8056
▁सुरक्षित	-8057
ood	-8058
gabung	-8059
ពិច	-8060
លេច	-8061
▁पूर्	-8062
▁tấn	-8063
▁माह	-8064
រំលោភ	-8065
អាស៊ី	-8066
▁xanh	-8067
▁लक्ष्य	-8068
▁berhati	-8069
▁nộp	-8070
▁चुनाव	-8071
▁tindakan	-8072
UV	-8073
az	-8074
दूस	-8075
ដៀង	-8076
▁met	-8077
ुकसान	-8078
កាបូប	-8079
តាមរយៈការ	-8080
The	-8081
ूनी	-8082
▁ny	-8083
▁bar	-8084
▁មើល	-8085
ទំនើប	-8086
ilayah	-8087
▁minta	-8088
នៅឆ្នាំ	-8089
▁एल	-8090
▁Làm	-8091
▁दिए	-8092
▁thua	-8093
មកទីនេះ	-8094
ស្រឡាញ់	-8095
▁करूंगा	-8096
▁पर्यटन	-8097
▁हस्ताक्षर	-8098
ech	-8099
វរី	-8100
▁संघ	-8101
▁អ៊ីន	-8102
វិញទៀត	-8103
▁कीजिए	-8104
ជាមនុស្ស	-8105
ទឹកចិត្ត	-8106
▁तय	-8107
ahas	-8108
▁विर	-8109
ayung	-8110
▁keren	-8111
▁ज़रूर	-8112
▁pendapat	-8113
10	-8114
ंदा	-8115
ជំហ	-8116
ស្ថា	-8117
ឧក្រ	-8118
ះអាង	-8119
embang	-8120
ាក់ស៊ី	-8121
▁menurun	-8122
ेस्ट	-8123
्रिय	-8124
លម្អ	-8125
ថាបាន	-8126
ពីមុន	-8127
▁Film	-8128
ungkinkan	-8129
ឆ្នាំមុន។	-8130
▁mengumpulkan	-8131
स्ला	-8132
ार्ड	-8133
របួស	-8134
▁वोन	-8135
▁putih	-8136
▁पढ़ाई	-8137
▁memperkenalkan	-8138
fr	-8139
kuat	-8140
▁dầu	-8141
▁ជុង	-8142
▁mengembangkan	-8143
▁!	-8144
▁rẻ	-8145
orld	-8146
▁đói	-8147
ambar	-8148
ទៅបាន	-8149
បណ្តាញ	-8150
▁buruk	-8151
.9	-8152
okan	-8153
▁बाथ	-8154
▁माता	-8155
alisis	-8156
▁lelah	-8157
▁न्याय	-8158
ស្សាវរី	-8159
▁नुकसान	-8160
▁pribadi	-8161
▁berakhir	-8162
▁walaupun	-8163
នៅក្នុងប្រទេស	-8164
-4	-8165
ូរី	-8166
▁bl	-8167
ខ្ចប់	-8168
empatan	-8169
▁pasien	-8170
▁प्रणाली	-8171
ិស	-8172
ott	-8173
ឆន់	-8174
ृतिक	-8175
▁buk	-8176
ចូលរៀន	-8177
▁Meski	-8178
▁मूल्य	-8179
បញ្ចាំង	-8180
▁मजेदार	-8181
ចំពោះការ	-8182
ធ្វើតេស្ត	-8183
▁उपयोगकर्	-8184
▁ដែលជាក្រុមហ៊ុន	-8185
िड	-8186
ताब	-8187
फेसर	-8188
យ៉ុនដាយ	-8189
ដែលកំពុង	-8190
ឧក្រិដ្ឋ	-8191
▁Silakan	-8192
▁militer	-8193
▁Instagram	-8194
▁fasilitas	-8195
▁mempersiapkan	-8196
.7	-8197
ock	-8198
ឬអត់	-8199
dakwa	-8200
utrad	-8201
ខេត្ត	-8202
ភ្លែត	-8203
រំភើប	-8204
▁Giải	-8205
▁នាទី	-8206
▁कॉलेज	-8207
▁Kenapa	-8208
ne	-8209
▁gấp	-8210
▁rút	-8211
kamah	-8212
▁Oleh	-8213
▁देखो	-8214
▁मार्च	-8215
មានអ្វី	-8216
%)	-8217
शिप	-8218
alia	-8219
स्ती	-8220
ភ្នំ	-8221
▁mew	-8222
▁करवा	-8223
▁murah	-8224
▁लूँगा	-8225
▁ud	-8226
▁ghê	-8227
▁स्वीकार	-8228
ជាមួយអ្នក	-8229
▁perkataan	-8230
चा	-8231
ោរ	-8232
इंट	-8233
tion	-8234
▁vất	-8235
▁Mong	-8236
អោយបាន	-8237
▁keter	-8238
ប្រជាជន	-8239
▁300	-8240
▁Sol	-8241
▁menel	-8242
▁pacar	-8243
គ្មានការ	-8244
▁samping	-8245
ero	-8246
▁pet	-8247
▁pol	-8248
ijakan	-8249
ចៅក្រម	-8250
▁सक्रिय	-8251
▁hồ	-8252
▁on	-8253
्वान	-8254
▁hẳn	-8255
▁top	-8256
▁2014	-8257
▁ngắn	-8258
▁करेगी	-8259
សូម្បីតែ	-8260
▁ruangan	-8261
▁वियतनाम	-8262
▁pemandangan	-8263
អិន	-8264
ight	-8265
▁phá	-8266
▁योग	-8267
សំណាង	-8268
▁मिली	-8269
▁हाइड	-8270
ស្រដៀង	-8271
▁करोड़	-8272
រដូវកាល	-8273
▁toilet	-8274
ayangkan	-8275
▁penjara	-8276
di	-8277
ayan	-8278
លាស់	-8279
ឆាប់ៗ	-8280
មួយថ្ងៃ	-8281
▁sepatu	-8282
បន្ថែមថា	-8283
▁प्रोफेसर	-8284
adir	-8285
▁tas	-8286
▁बचा	-8287
នេះគឺ	-8288
អះអាង	-8289
artemen	-8290
ទៅវិញទៅ	-8291
▁birdie	-8292
កាត់ក្តី	-8293
▁Mahkamah	-8294
លោត	-8295
▁Ja	-8296
timb	-8297
ស្គី	-8298
▁vài	-8299
មានប្រ	-8300
▁प्लेट	-8301
វិនិច្ឆ	-8302
▁dimakan	-8303
▁रिकॉर्ड	-8304
▁istirahat	-8305
ទាំងអស់គ្នា	-8306
ថល	-8307
ajak	-8308
ឆ្កែ	-8309
▁Mel	-8310
▁Pel	-8311
edung	-8312
inggi	-8313
▁Meng	-8314
▁guru	-8315
បំផុត។	-8316
លំដាប់	-8317
▁នៅទីនេះ	-8318
enggarakan	-8319
អនុស្សាវរី	-8320
ड़ों	-8321
erman	-8322
▁data	-8323
▁ngược	-8324
▁अनुमान	-8325
▁សូម្បីតែ	-8326
rom	-8327
upa	-8328
yak	-8329
យកវា	-8330
▁चोट	-8331
▁रुक	-8332
▁सारा	-8333
▁mandi	-8334
▁pengalaman	-8335
,3	-8336
▁हल	-8337
▁देखती	-8338
កម្ម៉ង់	-8339
▁अनुमति	-8340
▁ड्राइव	-8341
▁सावधान	-8342
មុខម្ហូប	-8343
lo	-8344
lin	-8345
र्ग	-8346
▁NC	-8347
idat	-8348
បញ្ញ	-8349
▁kol	-8350
▁गोल	-8351
▁जेल	-8352
ester	-8353
iling	-8354
▁बुला	-8355
▁Badan	-8356
ंडर	-8357
ិកា	-8358
idik	-8359
ukur	-8360
ស្រប	-8361
▁det	-8362
दूसरे	-8363
▁Jang	-8364
▁berg	-8365
▁giày	-8366
unjung	-8367
▁fokus	-8368
វិនិច្ឆ័យ	-8369
करी	-8370
តាមក	-8371
▁Cảm	-8372
▁शॉप	-8373
អន្តរ	-8374
▁chết	-8375
▁Wakil	-8376
▁कहानी	-8377
ដទៃ	-8378
សាយ	-8379
សើច	-8380
▁उठ	-8381
ំណាង	-8382
andat	-8383
irian	-8384
▁Ayah	-8385
▁laki	-8386
មែនអត់	-8387
unikasi	-8388
បួន	-8389
ប្រល	-8390
▁រួច	-8391
▁Ener	-8392
▁ikut	-8393
▁perg	-8394
▁memakannya	-8395
▁ព្រោះខ្ញុំ	-8396
▁ul	-8397
▁हल्	-8398
▁ធ្វើ	-8399
arinya	-8400
▁इंस्ट	-8401
▁बिल्कुल	-8402
១៥	-8403
ហ្គី	-8404
▁nối	-8405
atalkan	-8406
▁उत्साह	-8407
ន្រ	-8408
▁ហេ	-8409
សន្ទ	-8410
lahan	-8411
មធ្យម	-8412
▁Cảnh	-8413
មែនទែន។	-8414
បញ្ចប់ការ	-8415
▁menyampa	-8416
▁kesehatan	-8417
▁merasakan	-8418
▁bè	-8419
ផ្ទៃ	-8420
▁Sen	-8421
▁आशा	-8422
arket	-8423
ទូរទស្សន៍	-8424
▁kekuatan	-8425
▁seharusnya	-8426
▁beristirahat	-8427
ela	-8428
បល់	-8429
រៀប	-8430
▁मेट	-8431
កូរ៉ូ	-8432
ម្ងន់	-8433
វិជ្ជ	-8434
ឥទ្ធិ	-8435
▁diter	-8436
▁setidaknya	-8437
ớt	-8438
អគារ	-8439
▁ហ៊ី	-8440
alnya	-8441
ប្រឡង	-8442
▁समझा	-8443
ធ្ងន់ធ្ង	-8444
▁យ៉ាងណាក៏ដោយ	-8445
60	-8446
ph	-8447
▁CJ	-8448
▁पाल	-8449
▁eksp	-8450
▁उनका	-8451
ហិរញ្ញ	-8452
,4	-8453
▁nhắn	-8454
▁ម៉េច	-8455
▁चर्चा	-8456
ឥទ្ធិពល	-8457
teokbokki	-8458
▁खिलाड़ियों	-8459
័ស	-8460
aja	-8461
ឆ្អ	-8462
▁Và	-8463
▁बिज	-8464
ប៉ាល់	-8465
▁thuy	-8466
▁menyes	-8467
▁टेस्ला	-8468
▁स्थापना	-8469
▁karyawan	-8470
▁lapangan	-8471
▁menyediakan	-8472
▁mengeluarkan	-8473
ថែ	-8474
▁ន	-8475
គូរ	-8476
▁lỗ	-8477
▁១១	-8478
ប៉ាត	-8479
ទិន្ន	-8480
នៅឡើយ	-8481
ស្នេហ	-8482
▁सांस	-8483
លើកមុន	-8484
▁anjing	-8485
▁thoảng	-8486
▁डिलीवरी	-8487
▁ក្នុងការ	-8488
▁Yeo	-8489
स्पर्	-8490
ផ្ដល់	-8491
អស់ពី	-8492
▁grup	-8493
▁khán	-8494
ជាមួយក្រុមហ៊ុន	-8495
नि	-8496
្អូន	-8497
▁mir	-8498
▁sih	-8499
មួយដែល	-8500
wakilan	-8501
हरे	-8502
▁आह	-8503
egal	-8504
ទោះបីជា	-8505
ព្រមព្រ	-8506
▁Corona	-8507
២១	-8508
ंकि	-8509
नेस	-8510
អាទ	-8511
▁op	-8512
▁Tae	-8513
ស្លៀក	-8514
ប៉ូលីស	-8515
▁तीसरे	-8516
យន្តហោះ	-8517
▁वर्षों	-8518
ब्द	-8519
inasi	-8520
▁किरा	-8521
▁रद्द	-8522
▁លើកនេះ	-8523
▁ឆ្នាំ២០	-8524
នៅទីក្រុង	-8525
?"	-8526
यल	-8527
ធាវី	-8528
ិញ្ច	-8529
▁krim	-8530
▁सीधे	-8531
ដឹងហើយ	-8532
▁कानून	-8533
ឱ្យអ្នក	-8534
កូរ៉េខាងជើង	-8535
endah	-8536
▁lệnh	-8537
ភ្ញាក់	-8538
▁ambil	-8539
ស្រាបៀរ	-8540
ទាក់ទងនឹង	-8541
ធ្លាប់បាន	-8542
▁Tư	-8543
धीरे	-8544
យ៉ុង	-8545
usnya	-8546
សំណួរ	-8547
▁Bank	-8548
ដោយឡែក	-8549
▁hitam	-8550
िश्	-8551
▁KT	-8552
▁il	-8553
▁आदि	-8554
ផ្ទុយ	-8555
សហការ	-8556
▁efek	-8557
អ្នកនឹង	-8558
▁बाज़ार	-8559
ល្អណាស់។	-8560
▁menekan	-8561
មន្ទីរពេទ្យ	-8562
▁mengirimkan	-8563
sp	-8564
सू	-8565
उंट	-8566
▁mỹ	-8567
▁មក	-8568
▁កូន	-8569
ចងចាំ	-8570
▁Nhìn	-8571
▁tadi	-8572
obalah	-8573
▁गाड़ी	-8574
▁គ្រឿង	-8575
estival	-8576
▁mengin	-8577
▁setengah	-8578
ធិប	-8579
▁ជី	-8580
▁mul	-8581
▁đàn	-8582
▁खास	-8583
តេយ្យ	-8584
▁2013	-8585
▁beri	-8586
▁Majelis	-8587
ហ្វឹកហាត់	-8588
▁Kemudian	-8589
णनी	-8590
ទាន	-8591
▁Ba	-8592
▁Le	-8593
▁ga	-8594
iksa	-8595
▁Joo	-8596
ទ្វារ	-8597
▁तेजी	-8598
abiskan	-8599
ផលិតកម្ម	-8600
▁इंटरनेट	-8601
AS	-8602
iểu	-8603
urn	-8604
uyến	-8605
ិត្រ	-8606
▁lagu	-8607
▁Sebagai	-8608
▁जिन्हें	-8609
ទឹកប្រាក់	-8610
▁ខ្ញុំអាច	-8611
▁meninggalkan	-8612
ូឡា	-8613
ព្យូ	-8614
▁Dân	-8615
▁dậy	-8616
▁tắc	-8617
▁ghét	-8618
▁Đừng	-8619
▁पावर	-8620
▁lapar	-8621
▁menyer	-8622
បរិយាកាស	-8623
▁berdiri	-8624
▁តើយើងគួរ	-8625
▁प्रतिस्पर्	-8626
MW	-8627
evel	-8628
▁mật	-8629
▁खोल	-8630
កំហុស	-8631
ចង់ទៅ	-8632
▁Nghị	-8633
▁Harus	-8634
angsung	-8635
▁wilayah	-8636
រីក	-8637
ारंट	-8638
▁Pert	-8639
▁जहाज	-8640
▁नाश्	-8641
▁रणनी	-8642
ដំណាក់	-8643
▁Kyung	-8644
▁berlari	-8645
▁belakangan	-8646
201	-8647
ươi	-8648
म्प	-8649
वर्क	-8650
ដឹងពី	-8651
▁bant	-8652
angkap	-8653
▁Energy	-8654
ापन	-8655
ូលី	-8656
ंजिल	-8657
▁199	-8658
▁Nex	-8659
▁स्न	-8660
ឥណ្ឌា	-8661
▁khắc	-8662
▁ស៊ីន	-8663
▁प्रशा	-8664
▁pesawat	-8665
xy	-8666
▁bận	-8667
▁डिस्	-8668
នេះមាន	-8669
▁ជាដើម	-8670
▁tujuan	-8671
▁दर्शकों	-8672
តម្រូវការ	-8673
▁គ្រោងនឹង	-8674
.8	-8675
ឡូត	-8676
चारी	-8677
▁भरो	-8678
រដ្ឋបាល	-8679
▁स्मार्ट	-8680
▁प्रतिनिधि	-8681
okok	-8682
स्टम	-8683
▁lan	-8684
▁अका	-8685
iring	-8686
បំពាន	-8687
▁ខ្ញុំមិនអាច	-8688
erh	-8689
्यो	-8690
tory	-8691
र्जी	-8692
បង្អ	-8693
ផ្កា	-8694
ដ៏ល្អ	-8695
unggah	-8696
कोरिया	-8697
លម្អិត	-8698
▁តម្លៃ	-8699
▁बाथरूम	-8700
▁បច្ចុប្បន្ន	-8701
▁memungkinkan	-8702
ual	-8703
ជារៀង	-8704
▁पाया	-8705
ព្យាករ	-8706
▁Maret	-8707
▁chiếm	-8708
icarakan	-8709
▁संयंत्र	-8710
xi	-8711
orong	-8712
▁Chae	-8713
▁पीना	-8714
▁tránh	-8715
▁គេបាន	-8716
▁आरक्षण	-8717
.6	-8718
डा	-8719
age	-8720
បដិ	-8721
▁or	-8722
▁Vol	-8723
akter	-8724
បន្ទះ	-8725
តាមផ្លូវ	-8726
▁Bisakah	-8727
▁प्रतिक्र	-8728
मन	-8729
▁)	-8730
▁គ	-8731
eku	-8732
សេវា	-8733
▁hãng	-8734
▁शब्द	-8735
▁maksud	-8736
ពន្យារពេល	-8737
▁karakter	-8738
▁mengerti	-8739
जिंग	-8740
▁siêu	-8741
▁एप्पल	-8742
▁स्टॉक	-8743
▁हाइड्र	-8744
ខ្លាំងពេក	-8745
▁memotret	-8746
▁प्रतिक्रिया	-8747
pen	-8748
កាដូ	-8749
▁Lim	-8750
▁giản	-8751
▁chừng	-8752
▁kakak	-8753
▁paruh	-8754
▁takut	-8755
ធិបតេយ្យ	-8756
ពាន់លានវ៉ុន	-8757
ईओ	-8758
साथ	-8759
▁वॉ	-8760
caya	-8761
គ្គី	-8762
▁तेज	-8763
▁Đông	-8764
ទម្ងន់	-8765
ទូទាំង	-8766
នៅក្បែរ	-8767
មូលនិធិ	-8768
▁និងបាន	-8769
ganisasi	-8770
មីន	-8771
▁១៥	-8772
▁hối	-8773
▁kesel	-8774
▁menemp	-8775
កាម	-8776
ធ្នូ	-8777
▁पैक	-8778
▁सुझ	-8779
arble	-8780
▁Kota	-8781
▁chày	-8782
▁hoãn	-8783
▁terg	-8784
ធ្ងន់ធ្ងរ	-8785
ព្រមព្រៀង	-8786
Tr	-8787
១៨	-8788
ướt	-8789
▁Mẹ	-8790
▁You	-8791
▁chả	-8792
▁मगर	-8793
▁लाख	-8794
स्थ्य	-8795
▁demi	-8796
विद्यालय	-8797
▁pertanya	-8798
ដែលអាចធ្វើ	-8799
ठन	-8800
ewa	-8801
សិល	-8802
▁mũ	-8803
▁đổ	-8804
បង្ក	-8805
onomi	-8806
ន័យថា	-8807
▁दुर्	-8808
ហាងលក់	-8809
▁हालांकि	-8810
ariwisata	-8811
ze	-8812
ឃី	-8813
rol	-8814
គេហ	-8815
ហត្ថ	-8816
▁phó	-8817
▁ánh	-8818
▁कितनी	-8819
▁लगाने	-8820
▁Profes	-8821
ខាងក្នុង	-8822
po	-8823
ចំហ	-8824
▁dem	-8825
▁महँ	-8826
andar	-8827
emudi	-8828
ស្រ័យ	-8829
▁लेता	-8830
ameran	-8831
atform	-8832
ទទួលយក	-8833
▁ngừng	-8834
▁संस्क	-8835
▁संचालन	-8836
ដំណាក់កាល	-8837
▁nasional	-8838
ពិបាកក្នុងការ	-8839
▁menyampaikan	-8840
sh	-8841
हो	-8842
विध	-8843
▁PC	-8844
▁सल	-8845
िस्ट	-8846
អីទេ	-8847
▁đột	-8848
aftar	-8849
▁meja	-8850
▁cinta	-8851
▁hương	-8852
▁អរគុណ	-8853
aporkan	-8854
អាទិត្យ	-8855
▁mencatat	-8856
,8	-8857
za	-8858
ice	-8859
्टे	-8860
▁सन	-8861
▁Tok	-8862
स्ताव	-8863
▁मांग	-8864
marble	-8865
▁क्षमता	-8866
▁program	-8867
ोने	-8868
▁១២	-8869
▁ích	-8870
▁केक	-8871
ដំណឹង	-8872
ទើបតែ	-8873
▁संक्रम	-8874
▁कर्मचारी	-8875
▁प्रतिबंध	-8876
ភ្លៀងធ្លាក់	-8877
ril	-8878
अलग	-8879
साइ	-8880
ឡាំ	-8881
▁(5	-8882
យ៉ង់	-8883
▁payung	-8884
▁जिन्होंने	-8885
▁विश्वविद्यालय	-8886
សមា	-8887
▁ओल	-8888
पिता	-8889
asana	-8890
▁छोटी	-8891
នេះបាន	-8892
▁thiệt	-8893
▁परेशान	-8894
▁स्पष्ट	-8895
ប្រាកដជា	-8896
▁keadaan	-8897
សប្បាយចិត្ត	-8898
អនុស្សាវរីយ៍	-8899
बे	-8900
ហ្ស	-8901
▁sắm	-8902
កីឡាប	-8903
ប្រៀប	-8904
ទ្រព្យ	-8905
▁tugas	-8906
▁អ៊ីចឹងហើយ	-8907
rat	-8908
ចិញ្ច	-8909
▁mengk	-8910
▁mirip	-8911
▁डॉ	-8912
អញ្ជ	-8913
▁Đức	-8914
▁मीट	-8915
▁विष	-8916
អ៊ីដ្រ	-8917
▁सेंटर	-8918
អ៊ីនធឺណិត	-8919
फा	-8920
▁मू	-8921
esin	-8922
យកមក	-8923
រហ័ស	-8924
rogen	-8925
ធ្វើយ	-8926
ពិន័យ	-8927
▁दावा	-8928
▁साइज़	-8929
etapkan	-8930
▁katakan	-8931
▁प्रोडक्ट	-8932
ía	-8933
▁tắm	-8934
▁उतर	-8935
▁साफ	-8936
स्तुत	-8937
▁giai	-8938
▁फ़िल	-8939
▁peremp	-8940
នៅទីនេះ។	-8941
នៅក្នុងការ	-8942
▁kesalahan	-8943
▁स्वास्थ्य	-8944
វាយកូនហ្គោល	-8945
▁ក្នុងចំណោម	-8946
र्ती	-8947
▁बुक	-8948
▁phối	-8949
ទាល់តែ	-8950
▁मार्केट	-8951
ुष	-8952
▁lạ	-8953
emar	-8954
gaan	-8955
itan	-8956
ស្នេ	-8957
▁Đến	-8958
ធនាគារ	-8959
ពិតមែន	-8960
▁जानता	-8961
▁शक्ति	-8962
hawatir	-8963
ैर	-8964
▁á	-8965
कभी	-8966
លាប	-8967
ស្ម័	-8968
itusi	-8969
▁Liệu	-8970
▁Pihak	-8971
ហត្ថលេខ	-8972
▁hangat	-8973
ទិន្នន័យ	-8974
ក្ក	-8975
त्ता	-8976
ុមារ	-8977
▁sâu	-8978
▁antar	-8979
▁रेस्तरां	-8980
õi	-8981
यंग	-8982
វ៉ា	-8983
▁Nik	-8984
▁cây	-8985
▁आइस	-8986
បើសិន	-8987
▁ràng	-8988
▁đảng	-8989
▁World	-8990
▁Tinggi	-8991
▁bidang	-8992
lihatkan	-8993
ផ្លូវភេទ	-8994
ច្រើនណាស់	-8995
▁kesempatan	-8996
काश	-8997
गार	-8998
ប័ន	-8999
▁Nhờ	-9000
▁शहर	-9001
▁Jeon	-9002
▁बॉक्स	-9003
កន្លែងដែល	-9004
▁mengetahui	-9005
▁लगती	-9006
សិលមិញ	-9007
▁खेलने	-9008
សិទ្ធភាព	-9009
ហេតុអ្វី	-9010
ពន្ធនាគារ	-9011
▁संस्कृति	-9012
▁pelanggaran	-9013
imu	-9014
akyat	-9015
ពេលណា	-9016
▁hole	-9017
eliling	-9018
គឺជាការ	-9019
បានល្អ។	-9020
▁Gyeonggi	-9021
FA	-9022
wit	-9023
▁kí	-9024
▁sus	-9025
ថាយើង	-9026
ប្រេង	-9027
ធ្វើជា	-9028
▁namun	-9029
▁प्रश्	-9030
▁सूचना	-9031
▁मेट्रो	-9032
ច្រើនជាង	-9033
បាល់ទាត់	-9034
ខិតខំប្រឹងប្រែង	-9035
តារា	-9036
▁नाटक	-9037
▁सीमा	-9038
▁trưng	-9039
,'	-9040
ជូន។	-9041
▁លាន	-9042
មេរោគ	-9043
ស្តែង	-9044
▁kính	-9045
▁समझौ	-9046
anggap	-9047
▁strat	-9048
▁virus	-9049
▁मुकदमा	-9050
▁हाइड्रोजन	-9051
ikl	-9052
च्छा	-9053
ार्थ	-9054
▁LNG	-9055
▁ang	-9056
រំលែក	-9057
▁main	-9058
▁जबकि	-9059
amanan	-9060
ឆ្ងាញ់ៗ	-9061
▁जापानी	-9062
▁ហើយនឹង	-9063
វិជ្ជមាន	-9064
▁pertanyaan	-9065
%,	-9066
AR	-9067
ाइनल	-9068
▁लीग	-9069
चारियों	-9070
▁प्रशासन	-9071
ប្រសើរឡើង	-9072
ंश	-9073
▁Ồ	-9074
रित	-9075
ựng	-9076
ulasi	-9077
ក្រង់	-9078
▁माँग	-9079
ubahan	-9080
ស្ងាត់	-9081
▁lương	-9082
▁sekian	-9083
utradara	-9084
▁ekonomi	-9085
ពិតប្រាកដ	-9086
▁né	-9087
▁sy	-9088
ampu	-9089
bang	-9090
स्था	-9091
ូសែន	-9092
▁मजा	-9093
អនឡាញ	-9094
ajaran	-9095
▁persi	-9096
andatangani	-9097
▁ខ្ញុំនឹងទៅ	-9098
▁Năm	-9099
គឺមាន	-9100
ស្ត្រ	-9101
▁vàng	-9102
▁चुका	-9103
ទេសភាព	-9104
ពេលនោះ	-9105
▁លើកក្រោយ	-9106
▁pengiriman	-9107
▁memproduksi	-9108
▁कर्मचारियों	-9109
सल	-9110
▁मश	-9111
ហៅថា	-9112
▁Jan	-9113
▁run	-9114
▁जमा	-9115
untut	-9116
ល្បឿន	-9117
▁Joon	-9118
សិនទៅ។	-9119
▁suatu	-9120
▁ट्रेन	-9121
▁देशों	-9122
▁melawan	-9123
ទម្ល	-9124
ស្មើ	-9125
▁cắt	-9126
ប្អូន	-9127
▁Champ	-9128
▁विरोध	-9129
impiade	-9130
▁tệ	-9131
ម្ខាង	-9132
▁बियर	-9133
ភាគច្រើន	-9134
▁ខ្ញុំកំពុង	-9135
uôi	-9136
-19)	-9137
បុរស	-9138
ហ្វី	-9139
▁Dis	-9140
▁hạt	-9141
▁मार	-9142
aksan	-9143
ការលក់	-9144
▁rapat	-9145
▁चीजों	-9146
▁पड़ता	-9147
▁ब्रेक	-9148
▁लेंगे	-9149
▁प्रतियोग	-9150
ហម	-9151
▁med	-9152
▁एक्	-9153
▁चढ़	-9154
▁हवा	-9155
▁ចំណ	-9156
អប់រំ	-9157
▁Tiếp	-9158
▁डेटा	-9159
▁दायर	-9160
ប្រគល់	-9161
▁ढूँढ़	-9162
ខក	-9163
फोन	-9164
សន្	-9165
▁lư	-9166
laki	-9167
भारी	-9168
▁दिलच	-9169
antinya	-9170
▁terima	-9171
▁ខ្ញុំគួរតែ	-9172
ម៉ោងក្នុងស្រុក	-9173
uri	-9174
ភារ	-9175
▁cốc	-9176
▁बगल	-9177
▁Cùng	-9178
▁băng	-9179
▁គ្មាន	-9180
▁खरीदते	-9181
▁शिक्षक	-9182
▁प्रस्तुत	-9183
▁យ៉ាងម៉េចដែរ	-9184
lain	-9185
▁जर्म	-9186
ជាមុនសិន។	-9187
यू	-9188
दर्	-9189
ដេក	-9190
▁វី	-9191
sual	-9192
▁Har	-9193
▁ऑटो	-9194
▁चरण	-9195
ender	-9196
ukungan	-9197
▁ड्रिंक	-9198
ដោយគ្មាន	-9199
▁ហើយខ្ញុំ	-9200
ប្រជាធិបតេយ្យ	-9201
,6	-9202
១១	-9203
▁Ro	-9204
atar	-9205
▁Nhân	-9206
កម្ពស់	-9207
▁Heung	-9208
▁कोर्स	-9209
▁Terima	-9210
▁menaik	-9211
ចាំខ្ញុំ	-9212
ព្យាករណ៍	-9213
▁Industries	-9214
chi	-9215
▁Si	-9216
▁ទី	-9217
ahaya	-9218
▁Hwan	-9219
▁buýt	-9220
▁thầy	-9221
▁सलाह	-9222
▁तकनीक	-9223
គិតថ្លៃ	-9224
तृ	-9225
atas	-9226
isan	-9227
rasi	-9228
urat	-9229
▁nguy	-9230
▁Jerman	-9231
▁daftar	-9232
▁ringan	-9233
▁बढ़ावा	-9234
អន្តរជាតិ	-9235
▁निर्देशक	-9236
▁क्षेत्रों	-9237
cu	-9238
फर	-9239
onya	-9240
ंपिक	-9241
▁mời	-9242
▁सित	-9243
yarak	-9244
▁nhắm	-9245
▁April	-9246
▁बेसबॉल	-9247
▁भूमिका	-9248
▁manusia	-9249
▁ជេ	-9250
▁đào	-9251
▁đích	-9252
▁लागत	-9253
▁सीईओ	-9254
▁siswa	-9255
បន្ទាន់	-9256
▁मूल्या	-9257
ोह	-9258
▁mộ	-9259
▁căn	-9260
▁sar	-9261
ពិចារ	-9262
▁Secara	-9263
▁pesanan	-9264
▁hidrogen	-9265
ិម	-9266
यरस	-9267
ចេត	-9268
រឹង	-9269
▁थक	-9270
អាំង	-9271
▁rạp	-9272
▁sib	-9273
រដ្ឋអាជ្ញ	-9274
▁berlatih	-9275
timbangkan	-9276
ទទួលស្គាល់	-9277
អ៊ីដ្រូសែន	-9278
សហប្រតិបត្តិការ	-9279
EC	-9280
ंजी	-9281
វាង	-9282
agam	-9283
▁Bọn	-9284
▁Lâu	-9285
▁SNS	-9286
▁kup	-9287
▁ស្ត	-9288
▁Para	-9289
អញ្ជើញ	-9290
▁hydro	-9291
▁सहायक	-9292
hargaan	-9293
yarakat	-9294
បាត់បង់	-9295
បង្ហាញខ្លួន	-9296
ji	-9297
ions	-9298
्यून	-9299
▁ses	-9300
▁फ्ल	-9301
▁Batt	-9302
សង្កត់	-9303
▁अप्रैल	-9304
▁តាមពិតទៅ	-9305
▁उम्मीदवार	-9306
▁Cô	-9307
amanya	-9308
▁भरोसा	-9309
រួចរាល់	-9310
▁Netmarble	-9311
▁memasukkan	-9312
▁សហ	-9313
▁यूरोप	-9314
ក្រោមដី	-9315
មនុស្សម្នាក់	-9316
..	-9317
ंख	-9318
ber	-9319
ពិក	-9320
▁yên	-9321
▁अधि	-9322
ហ្វូន	-9323
▁gaya	-9324
▁खाया	-9325
▁चेयर	-9326
▁सकें	-9327
មកវិញ។	-9328
▁tenang	-9329
▁memasuki	-9330
▁តើខ្ញុំគួរ	-9331
▁Ki	-9332
គីឡូ	-9333
▁mỏi	-9334
▁जन्म	-9335
obanya	-9336
បណ្តាល	-9337
▁ketiga	-9338
▁पैमाने	-9339
▁मज़ेदार	-9340
ត្	-9341
osk	-9342
▁Sy	-9343
▁चुना	-9344
akaran	-9345
▁merah	-9346
▁bentuk	-9347
cho	-9348
បត់	-9349
्यूल	-9350
រចនា	-9351
▁piz	-9352
िक्षण	-9353
▁	-9354
a	-9355
n	-9356
i	-9357
t	-9358
h	-9359
e	-9360
g	-9361
្	-9362
ា	-9363
u	-9364
ा	-9365
ន	-9366
k	-9367
m	-9368
r	-9369
क	-9370
े	-9371
c	-9372
s	-9373
र	-9374
រ	-9375
l	-9376
ក	-9377
ប	-9378
d	-9379
o	-9380
ह	-9381
p	-9382
ម	-9383
ង	-9384
स	-9385
्	-9386
b	-9387
y	-9388
न	-9389
ត	-9390
ि	-9391
ស	-9392
ं	-9393
ល	-9394
ी	-9395
म	-9396
,	-9397
त	-9398
យ	-9399
ल	-9400
ो	-9401
đ	-9402
់	-9403
ុ	-9404
.	-9405
ទ	-9406
ើ	-9407
ំ	-9408
ិ	-9409
य	-9410
प	-9411
ច	-9412
េ	-9413
à	-9414
ដ	-9415
ै	-9416
អ	-9417
ែ	-9418
ី	-9419
ព	-9420
វ	-9421
ग	-9422
ូ	-9423
v	-9424
ជ	-9425
ញ	-9426
ज	-9427
द	-9428
ब	-9429
व	-9430
ư	-9431
ु	-9432
គ	-9433
ហ	-9434
ខ	-9435
ោ	-9436
។	-9437
।	-9438
á	-9439
ះ	-9440
?	-9441
j	-9442
ए	-9443
ៅ	-9444
ô	-9445
ì	-9446
ट	-9447
ឹ	-9448
ế	-9449
च	-9450
ួ	-9451
ណ	-9452
ू	-9453
ạ	-9454
ó	-9455
ថ	-9456
अ	-9457
ả	-9458
៉	-9459
ớ	-9460
ê	-9461
इ	-9462
S	-9463
T	-9464
ấ	-9465
ड	-9466
ậ	-9467
ធ	-9468
श	-9469
A	-9470
आ	-9471
-	-9472
ख	-9473
ផ	-9474
K	-9475
ố	-9476
0	-9477
भ	-9478
C	-9479
ệ	-9480
1	-9481
ộ	-9482
थ	-9483
ợ	-9484
ँ	-9485
"	-9486
ờ	-9487
w	-9488
़	-9489
៊	-9490
ភ	-9491
â	-9492
औ	-9493
फ	-9494
2	-9495
ể	-9496
M	-9497
ị	-9498
उ	-9499
ៃ	-9500
x	-9501
'	-9502
q	-9503
P	-9504
ã	-9505
ề	-9506
ầ	-9507
B	-9508
ú	-9509
ơ	-9510
)	-9511
(	-9512
N	-9513
ủ	-9514
छ	-9515
ध	-9516
ồ	-9517
ă	-9518
ứ	-9519
ự	-9520
H	-9521
ៀ	-9522
ឡ	-9523
ष	-9524
D	-9525
!	-9526
ắ	-9527
f	-9528
झ	-9529
ở	-9530
í	-9531
ई	-9532
ឺ	-9533
ឆ	-9534
ẽ	-9535
V	-9536
ũ	-9537
័	-9538
ọ	-9539
៏	-9540
L	-9541
3	-9542
ॉ	-9543
I	-9544
G	-9545
ữ	-9546
J	-9547
5	-9548
ù	-9549
ụ	-9550
៍	-9551
ण	-9552
ò	-9553
ừ	-9554
ỉ	-9555
é	-9556
ổ	-9557
ử	-9558
9	-9559
ặ	-9560
4	-9561
Đ	-9562
១	-9563
០	-9564
E	-9565
O	-9566
២	-9567
6	-9568
7	-9569
8	-9570
ठ	-9571
ằ	-9572
ៈ	-9573
ឈ	-9574
ឋ	-9575
ओ	-9576
R	-9577
ឿ	-9578
ẩ	-9579
ौ	-9580
Y	-9581
ៗ	-9582
ឱ	-9583
ऐ	-9584
W	-9585
U	-9586
ỏ	-9587
ý	-9588
ឲ	-9589
ỗ	-9590
ឃ	-9591
घ	-9592
F	-9593
ढ	-9594
ឯ	-9595
Q	-9596
ឌ	-9597
ĩ	-9598
ẫ	-9599
ृ	-9600
ឬ	-9601
ễ	-9602
ẻ	-9603
%	-9604
ẹ	-9605
៣	-9606
ឥ	-9607
៥	-9608
៌	-9609
ऑ	-9610
ऊ	-9611
z	-9612
៤	-9613
៩	-9614
ឧ	-9615
ỹ	-9616
៦	-9617
៧	-9618
ỷ	-9619
៨	-9620
ỡ	-9621
X	-9622
ỳ	-9623
ẳ	-9624
:	-9625
Ừ	-9626
õ	-9627
៎	-9628
è	-9629
&	-9630
ឍ	-9631
Ô	-9632
ञ	-9633
Ở	-9634
/	-9635
Z	-9636
À	-9637
ឮ	-9638
ẵ	-9639
Ủ	-9640
ឪ	-9641
Â	-9642
Á	-9643
Ấ	-9644
Ý	-9645
+	-9646
ः	-9647
॰	-9648
Ồ	-9649
~	-9650
́	-9651
$	-9652
̣	-9653
Ă	-9654
ऋ	-9655
̀	-9656
៖	-9657
·	-9658
Ú	-9659
Ư	-9660
’	-9661
ឫ	-9662
»	-9663
Ả	-9664
;	-9665
̉	-9666
”	-9667
•	-9668
ឳ	-9669
‘	-9670
«	-9671
‍	-9672
“	-9673
Ơ	-9674
Ứ	-9675
>	-9676
#	-9677
<	-9678
ỵ	-9679
ॅ	-9680
→	-9681
Ầ	-9682
̃	-9683
–	-9684
Í	-9685
ឭ	-9686
Ố	-9687
៑	-9688
=	-9689
_	-9690
Ờ	-9691
०	-9692
∼	-9693
ឦ	-9694
ä	-9695
१	-9696
२	-9697
⁄	-9698
°	-9699
—	-9700
@	-9701
ö	-9702
μ	-9703
®	-9704
ឩ	-9705
±	-9706
Ò	-9707
И	-9708
Ổ	-9709
ü	-9710
α	-9711
*	-9712
ङ	-9713
३	-9714
Ẩ	-9715
Ê	-9716
Κ	-9717
с	-9718
ł	-9719
५	-9720
[	-9721
`	-9722
Ì	-9723
៕	-9724
]	-9725
É	-9726
ç	-9727
ë	-9728
Ặ	-9729
\	-9730
Ö	-9731
å	-9732
Š	-9733
̊	-9734
Р	-9735
к	-9736
ऍ	-9737
「	-9738
」	-9739
金	-9740
£	-9741
×	-9742
÷	-9743
ı	-9744
š	-9745
а	-9746
в	-9747
е	-9748
о	-9749
т	-9750
ч	-9751
९	-9752
៝	-9753
Ớ	-9754
›	-9755
杉	-9756
東	-9757
ñ	-9758
ć	-9759
४	-9760
↑	-9761
△	-9762
○	-9763
亭	-9764
國	-9765
小	-9766
松	-9767
能	-9768
賈	-9769
躍	-9770
ï	-9771
ě	-9772
ń	-9773
ō	-9774
‹	-9775
₹	-9776
∙	-9777
北	-9778
大	-9779
平	-9780
揚	-9781
新	-9782
汽	-9783
葉	-9784
车	-9785
鵬	-9786
Ù	-9787
û	-9788
Č	-9789
č	-9790
ř	-9791
ū	-9792
Ž	-9793
ऎ	-9794
ऱ	-9795
॔	-9796
८	-9797
Ử	-9798
‐	-9799
《	-9800
》	-9801
中	-9802
云	-9803
京	-9804
份	-9805
偉	-9806
公	-9807
南	-9808
史	-9809
司	-9810
向	-9811
团	-9812
国	-9813
子	-9814
孟	-9815
富	-9816
峴	-9817
彭	-9818
得	-9819
恒	-9820
故	-9821
有	-9822
果	-9823
梁	-9824
洋	-9825
源	-9826
漢	-9827
濟	-9828
物	-9829
田	-9830
电	-9831
禮	-9832
科	-9833
章	-9834
經	-9835
股	-9836
荷	-9837
藥	-9838
車	-9839
軍	-9840
迎	-9841
限	-9842
集	-9843
馬	-9844
魏	-9845
주	-9846
^	-9847
{	-9848
}	-9849
¥	-9850
Å	-9851
ø	-9852
Ł	-9853
œ	-9854
ş	-9855
ź	-9856
ǎ	-9857
ș	-9858
ț	-9859
Е	-9860
К	-9861
О	-9862
С	-9863
и	-9864
ן	-9865
٦	-9866
६	-9867
ឰ	-9868
Ẹ	-9869
Ế	-9870
Ề	-9871
Ị	-9872
Ọ	-9873
↓	-9874
∑	-9875
、	-9876
・	-9877
一	-9878
之	-9879
亞	-9880
交	-9881
人	-9882
亿	-9883
会	-9884
佃	-9885
停	-9886
傳	-9887
儺	-9888
元	-9889
先	-9890
光	-9891
全	-9892
冶	-9893
劉	-9894
力	-9895
加	-9896
化	-9897
升	-9898
卞	-9899
同	-9900
和	-9901
品	-9902
唐	-9903
商	-9904
嘉	-9905
基	-9906
壽	-9907
太	-9908
央	-9909
孚	-9910
孝	-9911
宇	-9912
寬	-9913
尤	-9914
居	-9915
展	-9916
州	-9917
工	-9918
市	-9919
復	-9920
愉	-9921
憲	-9922
戊	-9923
戌	-9924
手	-9925
技	-9926
方	-9927
日	-9928
易	-9929
春	-9930
晶	-9931
智	-9932
暫	-9933
曾	-9934
李	-9935
植	-9936
樂	-9937
正	-9938
殷	-9939
毓	-9940
比	-9941
氣	-9942
河	-9943
治	-9944
泰	-9945
海	-9946
淑	-9947
無	-9948
爲	-9949
瑞	-9950
白	-9951
真	-9952
石	-9953
硯	-9954
示	-9955
社	-9956
神	-9957
福	-9958
糖	-9959
納	-9960
红	-9961
纬	-9962
络	-9963
网	-9964
羅	-9965
群	-9966
義	-9967
者	-9968
自	-9969
舜	-9970
茶	-9971
菅	-9972
蕙	-9973
藤	-9974
行	-9975
西	-9976
观	-9977
记	-9978
迪	-9979
郞	-9980
酒	-9981
重	-9982
野	-9983
錫	-9984
鍾	-9985
鎬	-9986
鎭	-9987
锂	-9988
陝	-9989
隆	-9990
隱	-9991
雙	-9992
難	-9993
雲	-9994
願	-9995
風	-9996
